{
  "version": "1.0",
  "truncation": null,
  "padding": null,
  "added_tokens": [
    {
      "id": 0,
      "content": "<unk>",
      "single_word": false,
      "lstrip": false,
      "rstrip": false,
      "normalized": false,
      "special": true
    },
    {
      "id": 1,
      "content": "<pad>",
      "single_word": false,
      "lstrip": false,
      "rstrip": false,
      "normalized": false,
      "special": true
    },
    {
      "id": 2,
      "content": "<bos>",
      "single_word": false,
      "lstrip": false,
      "rstrip": false,
      "normalized": false,
      "special": true
    },
    {
      "id": 3,
      "content": "<eos>",
      "single_word": false,
      "lstrip": false,
      "rstrip": false,
      "normalized": false,
      "special": true
    }
  ],
  "normalizer": {
    "type": "Sequence",
    "normalizers": [
      {
        "type": "NFD"
      },
      {
        "type": "Lowercase"
      },
      {
        "type": "StripAccents"
      }
    ]
  },
  "pre_tokenizer": {
    "type": "Whitespace"
  },
  "post_processor": null,
  "decoder": {
    "type": "WordPiece",
    "prefix": "##",
    "cleanup": true
  },
  "model": {
    "type": "WordPiece",
    "unk_token": "<unk>",
    "continuing_subword_prefix": "##",
    "max_input_chars_per_word": 100,
    "vocab": {
      "<unk>": 0,
      "<pad>": 1,
      "<bos>": 2,
      "<eos>": 3,
      "!": 4,
      "\"": 5,
      "#": 6,
      "$": 7,
      "%": 8,
      "&": 9,
      "'": 10,
      "(": 11,
      ")": 12,
      "*": 13,
      "+": 14,
      ",": 15,
      "-": 16,
      ".": 17,
      "/": 18,
      "0": 19,
      "1": 20,
      "2": 21,
      "3": 22,
      "4": 23,
      "5": 24,
      "6": 25,
      "7": 26,
      "8": 27,
      "9": 28,
      ":": 29,
      ";": 30,
      "<": 31,
      "=": 32,
      ">": 33,
      "?": 34,
      "@": 35,
      "[": 36,
      "\\": 37,
      "]": 38,
      "^": 39,
      "_": 40,
      "`": 41,
      "a": 42,
      "b": 43,
      "c": 44,
      "d": 45,
      "e": 46,
      "f": 47,
      "g": 48,
      "h": 49,
      "i": 50,
      "j": 51,
      "k": 52,
      "l": 53,
      "m": 54,
      "n": 55,
      "o": 56,
      "p": 57,
      "q": 58,
      "r": 59,
      "s": 60,
      "t": 61,
      "u": 62,
      "v": 63,
      "w": 64,
      "x": 65,
      "y": 66,
      "z": 67,
      "{": 68,
      "}": 69,
      "~": 70,
      "": 71,
      "": 72,
      "": 73,
      "": 74,
      "": 75,
      "": 76,
      "": 77,
      "": 78,
      "": 79,
      "": 80,
      "": 81,
      "¡": 82,
      "¢": 83,
      "£": 84,
      "¤": 85,
      "¥": 86,
      "¦": 87,
      "§": 88,
      "¨": 89,
      "©": 90,
      "ª": 91,
      "«": 92,
      "¬": 93,
      "­": 94,
      "®": 95,
      "¯": 96,
      "°": 97,
      "±": 98,
      "²": 99,
      "³": 100,
      "´": 101,
      "µ": 102,
      "¶": 103,
      "·": 104,
      "¸": 105,
      "¹": 106,
      "º": 107,
      "»": 108,
      "¼": 109,
      "½": 110,
      "¾": 111,
      "¿": 112,
      "×": 113,
      "ß": 114,
      "æ": 115,
      "ð": 116,
      "÷": 117,
      "ø": 118,
      "þ": 119,
      "đ": 120,
      "ı": 121,
      "ĳ": 122,
      "ł": 123,
      "œ": 124,
      "ƒ": 125,
      "ə": 126,
      "ʿ": 127,
      "ˇ": 128,
      "˚": 129,
      "˜": 130,
      "ˮ": 131,
      "α": 132,
      "β": 133,
      "γ": 134,
      "δ": 135,
      "ε": 136,
      "ζ": 137,
      "η": 138,
      "θ": 139,
      "ι": 140,
      "κ": 141,
      "λ": 142,
      "μ": 143,
      "ν": 144,
      "ξ": 145,
      "ο": 146,
      "π": 147,
      "ρ": 148,
      "ς": 149,
      "σ": 150,
      "τ": 151,
      "υ": 152,
      "φ": 153,
      "χ": 154,
      "ψ": 155,
      "ω": 156,
      "а": 157,
      "б": 158,
      "в": 159,
      "г": 160,
      "д": 161,
      "е": 162,
      "ж": 163,
      "з": 164,
      "и": 165,
      "к": 166,
      "л": 167,
      "м": 168,
      "н": 169,
      "о": 170,
      "п": 171,
      "р": 172,
      "с": 173,
      "т": 174,
      "у": 175,
      "ф": 176,
      "х": 177,
      "ц": 178,
      "ч": 179,
      "ш": 180,
      "щ": 181,
      "ъ": 182,
      "ы": 183,
      "ь": 184,
      "э": 185,
      "ю": 186,
      "я": 187,
      "ѕ": 188,
      "і": 189,
      "ј": 190,
      "қ": 191,
      "ү": 192,
      "ҳ": 193,
      "ө": 194,
      "ב": 195,
      "ג": 196,
      "ד": 197,
      "ה": 198,
      "ו": 199,
      "י": 200,
      "כ": 201,
      "ל": 202,
      "נ": 203,
      "ס": 204,
      "ת": 205,
      "،": 206,
      "ء": 207,
      "ا": 208,
      "ب": 209,
      "ة": 210,
      "ت": 211,
      "ث": 212,
      "ج": 213,
      "ح": 214,
      "خ": 215,
      "د": 216,
      "ذ": 217,
      "ر": 218,
      "ز": 219,
      "س": 220,
      "ش": 221,
      "ص": 222,
      "ض": 223,
      "ط": 224,
      "ظ": 225,
      "ع": 226,
      "غ": 227,
      "ف": 228,
      "ق": 229,
      "ك": 230,
      "ل": 231,
      "م": 232,
      "ن": 233,
      "ه": 234,
      "و": 235,
      "ى": 236,
      "ي": 237,
      "پ": 238,
      "ک": 239,
      "گ": 240,
      "ہ": 241,
      "ی": 242,
      "ख": 243,
      "ण": 244,
      "न": 245,
      "प": 246,
      "म": 247,
      "र": 248,
      "ल": 249,
      "व": 250,
      "स": 251,
      "ॐ": 252,
      "ଜ": 253,
      "ଦ": 254,
      "ଧ": 255,
      "ବ": 256,
      "ଲ": 257,
      "க": 258,
      "ட": 259,
      "ண": 260,
      "గ": 261,
      "జ": 262,
      "త": 263,
      "య": 264,
      "ర": 265,
      "ನ": 266,
      "ಬ": 267,
      "ರ": 268,
      "฀": 269,
      "ก": 270,
      "ค": 271,
      "ง": 272,
      "ท": 273,
      "พ": 274,
      "ย": 275,
      "ศ": 276,
      "ห": 277,
      "อ": 278,
      "า": 279,
      "ไ": 280,
      "ა": 281,
      "ი": 282,
      "მ": 283,
      "ნ": 284,
      "ო": 285,
      "რ": 286,
      "ს": 287,
      "ფ": 288,
      "ᄀ": 289,
      "ᄃ": 290,
      "ᄇ": 291,
      "ᄉ": 292,
      "ᄋ": 293,
      "ᄌ": 294,
      "ᄐ": 295,
      "ᄑ": 296,
      "ᅡ": 297,
      "ᅢ": 298,
      "ᅥ": 299,
      "ᅦ": 300,
      "ᅩ": 301,
      "ᅭ": 302,
      "ᅮ": 303,
      "ᅵ": 304,
      "ᆨ": 305,
      "ᆫ": 306,
      "ᆷ": 307,
      "ᆸ": 308,
      "ᆼ": 309,
      "​": 310,
      "‎": 311,
      "‏": 312,
      "‐": 313,
      "‑": 314,
      "–": 315,
      "—": 316,
      "―": 317,
      "‖": 318,
      "‘": 319,
      "’": 320,
      "‚": 321,
      "“": 322,
      "”": 323,
      "„": 324,
      "†": 325,
      "‡": 326,
      "•": 327,
      "…": 328,
      "‪": 329,
      "‬": 330,
      "‰": 331,
      "′": 332,
      "″": 333,
      "₩": 334,
      "€": 335,
      "₷": 336,
      "℃": 337,
      "ℓ": 338,
      "№": 339,
      "™": 340,
      "↑": 341,
      "→": 342,
      "↓": 343,
      "↔": 344,
      "∂": 345,
      "−": 346,
      "∗": 347,
      "∞": 348,
      "≤": 349,
      "≥": 350,
      "⌘": 351,
      "⎥": 352,
      "⎦": 353,
      "①": 354,
      "③": 355,
      "─": 356,
      "■": 357,
      "□": 358,
      "▪": 359,
      "►": 360,
      "▼": 361,
      "◄": 362,
      "○": 363,
      "●": 364,
      "◾": 365,
      "☑": 366,
      "☺": 367,
      "♥": 368,
      "♦": 369,
      "♪": 370,
      "♫": 371,
      "♬": 372,
      "❚": 373,
      "➢": 374,
      "➾": 375,
      "⦶": 376,
      "ⴗ": 377,
      "《": 378,
      "》": 379,
      "い": 380,
      "う": 381,
      "か": 382,
      "く": 383,
      "し": 384,
      "す": 385,
      "ち": 386,
      "て": 387,
      "な": 388,
      "の": 389,
      "ひ": 390,
      "も": 391,
      "ら": 392,
      "る": 393,
      "わ": 394,
      "エ": 395,
      "ク": 396,
      "コ": 397,
      "サ": 398,
      "シ": 399,
      "ヒ": 400,
      "ミ": 401,
      "モ": 402,
      "ラ": 403,
      "リ": 404,
      "ル": 405,
      "レ": 406,
      "ヮ": 407,
      "ン": 408,
      "・": 409,
      "ー": 410,
      "一": 411,
      "上": 412,
      "不": 413,
      "世": 414,
      "中": 415,
      "九": 416,
      "也": 417,
      "事": 418,
      "五": 419,
      "亭": 420,
      "人": 421,
      "仄": 422,
      "今": 423,
      "以": 424,
      "会": 425,
      "何": 426,
      "你": 427,
      "來": 428,
      "假": 429,
      "党": 430,
      "公": 431,
      "其": 432,
      "処": 433,
      "凱": 434,
      "出": 435,
      "刘": 436,
      "刚": 437,
      "务": 438,
      "卷": 439,
      "厦": 440,
      "及": 441,
      "发": 442,
      "口": 443,
      "史": 444,
      "司": 445,
      "名": 446,
      "后": 447,
      "员": 448,
      "和": 449,
      "哀": 450,
      "商": 451,
      "器": 452,
      "四": 453,
      "国": 454,
      "在": 455,
      "地": 456,
      "夢": 457,
      "天": 458,
      "夫": 459,
      "失": 460,
      "女": 461,
      "始": 462,
      "委": 463,
      "媽": 464,
      "子": 465,
      "学": 466,
      "宇": 467,
      "室": 468,
      "家": 469,
      "實": 470,
      "将": 471,
      "尺": 472,
      "局": 473,
      "屋": 474,
      "展": 475,
      "山": 476,
      "岁": 477,
      "帽": 478,
      "庄": 479,
      "底": 480,
      "庙": 481,
      "度": 482,
      "廠": 483,
      "式": 484,
      "张": 485,
      "後": 486,
      "得": 487,
      "心": 488,
      "性": 489,
      "情": 490,
      "想": 491,
      "愁": 492,
      "愛": 493,
      "懂": 494,
      "我": 495,
      "手": 496,
      "技": 497,
      "把": 498,
      "拳": 499,
      "授": 500,
      "收": 501,
      "文": 502,
      "斗": 503,
      "新": 504,
      "方": 505,
      "族": 506,
      "日": 507,
      "明": 508,
      "春": 509,
      "是": 510,
      "昼": 511,
      "显": 512,
      "景": 513,
      "晴": 514,
      "暗": 515,
      "曾": 516,
      "月": 517,
      "有": 518,
      "未": 519,
      "术": 520,
      "条": 521,
      "杨": 522,
      "析": 523,
      "果": 524,
      "校": 525,
      "核": 526,
      "楊": 527,
      "業": 528,
      "樣": 529,
      "款": 530,
      "歌": 531,
      "正": 532,
      "步": 533,
      "氏": 534,
      "民": 535,
      "水": 536,
      "法": 537,
      "活": 538,
      "济": 539,
      "海": 540,
      "煤": 541,
      "版": 542,
      "王": 543,
      "玲": 544,
      "現": 545,
      "琳": 546,
      "瑠": 547,
      "瓣": 548,
      "甚": 549,
      "生": 550,
      "用": 551,
      "田": 552,
      "申": 553,
      "电": 554,
      "町": 555,
      "留": 556,
      "白": 557,
      "的": 558,
      "盟": 559,
      "監": 560,
      "看": 561,
      "真": 562,
      "督": 563,
      "石": 564,
      "示": 565,
      "社": 566,
      "神": 567,
      "票": 568,
      "科": 569,
      "签": 570,
      "糖": 571,
      "絳": 572,
      "經": 573,
      "緣": 574,
      "约": 575,
      "纽": 576,
      "经": 577,
      "统": 578,
      "習": 579,
      "耀": 580,
      "老": 581,
      "聯": 582,
      "聽": 583,
      "脇": 584,
      "脑": 585,
      "與": 586,
      "花": 587,
      "若": 588,
      "范": 589,
      "茅": 590,
      "薛": 591,
      "虎": 592,
      "蛮": 593,
      "蜜": 594,
      "装": 595,
      "補": 596,
      "解": 597,
      "討": 598,
      "說": 599,
      "誰": 600,
      "論": 601,
      "计": 602,
      "谩": 603,
      "贸": 604,
      "跟": 605,
      "路": 606,
      "軍": 607,
      "輝": 608,
      "过": 609,
      "迦": 610,
      "過": 611,
      "道": 612,
      "都": 613,
      "釋": 614,
      "銃": 615,
      "铆": 616,
      "開": 617,
      "门": 618,
      "隆": 619,
      "雨": 620,
      "電": 621,
      "青": 622,
      "首": 623,
      "驴": 624,
      "麼": 625,
      "": 626,
      "": 627,
      "": 628,
      "": 629,
      "": 630,
      "": 631,
      "": 632,
      "": 633,
      "": 634,
      "": 635,
      "": 636,
      "": 637,
      "ﬁ": 638,
      "ﬂ": 639,
      "ﺩ": 640,
      "ﺭ": 641,
      "ﺴ": 642,
      "ﻣ": 643,
      "﻿": 644,
      "）": 645,
      "，": 646,
      "：": 647,
      "［": 648,
      "］": 649,
      "～": 650,
      "･": 651,
      "�": 652,
      "🇬": 653,
      "🇭": 654,
      "🎉": 655,
      "😂": 656,
      "##a": 657,
      "##q": 658,
      "##u": 659,
      "##i": 660,
      "##l": 661,
      "##t": 662,
      "##s": 663,
      "##n": 664,
      "##m": 665,
      "##e": 666,
      "##c": 667,
      "##g": 668,
      "##d": 669,
      "##o": 670,
      "##r": 671,
      "##k": 672,
      "##p": 673,
      "##0": 674,
      "##w": 675,
      "##h": 676,
      "##j": 677,
      "##v": 678,
      "##f": 679,
      "##y": 680,
      "##x": 681,
      "##z": 682,
      "##5": 683,
      "##b": 684,
      "##3": 685,
      "##ª": 686,
      "##2": 687,
      "##7": 688,
      "##ι": 689,
      "##ص": 690,
      "##ا": 691,
      "##ر": 692,
      "##ي": 693,
      "##9": 694,
      "##4": 695,
      "##8": 696,
      "##1": 697,
      "##?": 698,
      "##_": 699,
      "##6": 700,
      "##º": 701,
      "##​": 702,
      "##ө": 703,
      "##п": 704,
      "##т": 705,
      "##ү": 706,
      "##н": 707,
      "##/": 708,
      "##]": 709,
      "##;": 710,
      "##": 711,
      "##.": 712,
      "##¿": 713,
      "##ο": 714,
      "##σ": 715,
      "##τ": 716,
      "##η": 717,
      "##α": 718,
      "##\"": 719,
      "##'": 720,
      "##©": 721,
      "##и": 722,
      "##в": 723,
      "##ы": 724,
      "##м": 725,
      "##ı": 726,
      "##$": 727,
      "##:": 728,
      "##=": 729,
      "##-": 730,
      "##–": 731,
      "##*": 732,
      "##)": 733,
      "##β": 734,
      "##с": 735,
      "##р": 736,
      "##о": 737,
      "##ф": 738,
      "##з": 739,
      "##ч": 740,
      "##е": 741,
      "##к": 742,
      "##а": 743,
      "##я": 744,
      "##[": 745,
      "##■": 746,
      "##ł": 747,
      "##œ": 748,
      "##л": 749,
      "##π": 750,
      "##”": 751,
      "##“": 752,
      "##д": 753,
      "##б": 754,
      "##(": 755,
      "##,": 756,
      "##ø": 757,
      "##ß": 758,
      "##ь": 759,
      "##»": 760,
      "##😂": 761,
      "##ك": 762,
      "##ل": 763,
      "##ذ": 764,
      "##ه": 765,
      "##{": 766,
      "##\\": 767,
      "##•": 768,
      "##`": 769,
      "##申": 770,
      "##<": 771,
      "##ち": 772,
      "##ひ": 773,
      "##る": 774,
      "##白": 775,
      "##昼": 776,
      "##夢": 777,
      "##æ": 778,
      "##ð": 779,
      "##…": 780,
      "##ن": 781,
      "##و": 782,
      "##ت": 783,
      "##¡": 784,
      "##þ": 785,
      "##—": 786,
      "##م": 787,
      "##ة": 788,
      "##ع": 789,
      "##∞": 790,
      "##ъ": 791,
      "##«": 792,
      "##µ": 793,
      "##ц": 794,
      "##у": 795,
      "##!": 796,
      "##ш": 797,
      "##د": 798,
      "##خ": 799,
      "##↓": 800,
      "##月": 801,
      "##♪": 802,
      "##}": 803,
      "##­": 804,
      "##铆": 805,
      "###": 806,
      "##ρ": 807,
      "##ν": 808,
      "##ς": 809,
      "##’": 810,
      "##х": 811,
      "##э": 812,
      "##θ": 813,
      "##υ": 814,
      "##ж": 815,
      "##瓣": 816,
      "##雨": 817,
      "##ش": 818,
      "##茅": 819,
      "##絳": 820,
      "##س": 821,
      "##ε": 822,
      "##μ": 823,
      "##·": 824,
      "##ג": 825,
      "##ד": 826,
      "##ו": 827,
      "##ל": 828,
      "##ב": 829,
      "##י": 830,
      "##ת": 831,
      "##~": 832,
      "##¹": 833,
      "##>": 834,
      "##海": 835,
      "##的": 836,
      "##歌": 837,
      "##ف": 838,
      "##ق": 839,
      "##ψ": 840,
      "##φ": 841,
      "##ج": 842,
      "##ᅢ": 843,
      "##ᄋ": 844,
      "##ᅭ": 845,
      "##ᆼ": 846,
      "##ᄌ": 847,
      "##ᅮ": 848,
      "##ᆫ": 849,
      "##景": 850,
      "##亭": 851,
      "##δ": 852,
      "##®": 853,
      "##瑠": 854,
      "##都": 855,
      "##γ": 856,
      "##κ": 857,
      "##ω": 858,
      "##λ": 859,
      "##首": 860,
      "##討": 861,
      "##論": 862,
      "##%": 863,
      "##đ": 864,
      "##世": 865,
      "##情": 866,
      "##緣": 867,
      "##て": 868,
      "##@": 869,
      "##×": 870,
      "##า": 871,
      "##г": 872,
      "##व": 873,
      "##र": 874,
      "##ण": 875,
      "##ب": 876,
      "##ک": 877,
      "##过": 878,
      "##天": 879,
      "##新": 880,
      "##文": 881,
      "##ᅵ": 882,
      "##ᆷ": 883,
      "##ᄉ": 884,
      "##ᅡ": 885,
      "##ᅩ": 886,
      "##ᆨ": 887,
      "##↑": 888,
      "##غ": 889,
      "##ض": 890,
      "##¨": 891,
      "##ح": 892,
      "##∗": 893,
      "##ĳ": 894,
      "##ز": 895,
      "##―": 896,
      "##ث": 897,
      "##ظ": 898,
      "##+": 899,
      "##‘": 900,
      "##田": 901,
      "##玲": 902,
      "##司": 903,
      "##£": 904,
      "##ю": 905,
      "##ଲ": 906,
      "##°": 907,
      "##฀": 908,
      "##¢": 909,
      "##說": 910,
      "##不": 911,
      "##得": 912,
      "##χ": 913,
      "##ನ": 914,
      "##ರ": 915,
      "##ј": 916,
      "##¶": 917,
      "##習": 918,
      "##授": 919,
      "##業": 920,
      "##校": 921,
      "##ラ": 922,
      "##ミ": 923,
      "##レ": 924,
      "##モ": 925,
      "##ン": 926,
      "##ル": 927,
      "##¤": 928,
      "##ҳ": 929,
      "##虎": 930,
      "##庙": 931,
      "##帽": 932,
      "##": 933,
      "##˜": 934,
      "##子": 935,
      "##商": 936,
      "##务": 937,
      "##示": 938,
      "##范": 939,
      "##法": 940,
      "##²": 941,
      "##ى": 942,
      "##○": 943,
      "##♫": 944,
      "##™": 945,
      "##装": 946,
      "##在": 947,
      "##纽": 948,
      "##约": 949,
      "##與": 950,
      "##哀": 951,
      "##愁": 952,
      "##כ": 953,
      "##і": 954,
      "##&": 955,
      "##ə": 956,
      "##煤": 957,
      "##ண": 958,
      "##ட": 959,
      "##ଦ": 960,
      "##ଧ": 961,
      "##�": 962,
      "##门": 963,
      "##ی": 964,
      "##愛": 965,
      "##是": 966,
      "##誰": 967,
      "##ﬁ": 968,
      "##贸": 969,
      "##ξ": 970,
      "##щ": 971,
      "##נ": 972,
      "##ס": 973,
      "##暗": 974,
      "##い": 975,
      "##水": 976,
      "##の": 977,
      "##底": 978,
      "##か": 979,
      "##ら": 980,
      "##±": 981,
      "##谩": 982,
      "##人": 983,
      "##ہ": 984,
      "##ʿ": 985,
      "##我": 986,
      "##來": 987,
      "##ѕ": 988,
      "##´": 989,
      "##€": 990,
      "##►": 991,
      "##อ": 992,
      "##ง": 993,
      "##ท": 994,
      "##พ": 995,
      "##ก": 996,
      "##ศ": 997,
      "##ไ": 998,
      "##ย": 999,
      "##ᄀ": 1000,
      "##ᄇ": 1001,
      "##ᅥ": 1002,
      "##ᆸ": 1003,
      "##^": 1004,
      "##性": 1005,
      "##輝": 1006,
      "##く": 1007,
      "##社": 1008,
      "##会": 1009,
      "##家": 1010,
      "##统": 1011,
      "##计": 1012,
      "##局": 1013,
      "##口": 1014,
      "##和": 1015,
      "##科": 1016,
      "##技": 1017,
      "##♥": 1018,
      "##ה": 1019,
      "##½": 1020,
      "##ط": 1021,
      "##య": 1022,
      "##గ": 1023,
      "##ర": 1024,
      "##జ": 1025,
      "##迦": 1026,
      "##也": 1027,
      "##失": 1028,
      "##刚": 1029,
      "##路": 1030,
      "##上": 1031,
      "##ख": 1032,
      "##ल": 1033,
      "##耀": 1034,
      "##≥": 1035,
      "##明": 1036,
      "##神": 1037,
      "##≤": 1038,
      "##学": 1039,
      "##术": 1040,
      "##出": 1041,
      "##版": 1042,
      "##⌘": 1043,
      "##म": 1044,
      "##न": 1045,
      "##§": 1046,
      "##度": 1047,
      "##名": 1048,
      "##条": 1049,
      "##款": 1050,
      "##解": 1051,
      "##析": 1052,
      "##ء": 1053,
      "##ﺩ": 1054,
      "##ﺭ": 1055,
      "##ﺴ": 1056,
      "##う": 1057,
      "##し": 1058,
      "##な": 1059,
      "##ი": 1060,
      "##რ": 1061,
      "##ო": 1062,
      "##ს": 1063,
      "##მ": 1064,
      "##ა": 1065,
      "##ნ": 1066,
      "##春": 1067,
      "##手": 1068,
      "##卷": 1069,
      "##用": 1070,
      "##票": 1071,
      "##‎": 1072,
      "##🇭": 1073,
      "##„": 1074,
      "##媽": 1075,
      "##監": 1076,
      "##督": 1077,
      "##核": 1078,
      "##電": 1079,
      "##廠": 1080,
      "##聯": 1081,
      "##盟": 1082,
      "##ƒ": 1083,
      "##処": 1084,
      "##す": 1085,
      "##生": 1086,
      "##活": 1087,
      "##日": 1088,
      "##庄": 1089,
      "##公": 1090,
      "##道": 1091,
      "##你": 1092,
      "##ー": 1093,
      "##ク": 1094,
      "##ヮ": 1095,
      "##サ": 1096,
      "##→": 1097,
      "##室": 1098,
      "##町": 1099,
      "##以": 1100,
      "##後": 1101,
      "##斗": 1102,
      "##¦": 1103,
      "##民": 1104,
      "##族": 1105,
      "##事": 1106,
      "##委": 1107,
      "##员": 1108,
      "##经": 1109,
      "##济": 1110,
      "##发": 1111,
      "##展": 1112,
      "##リ": 1113,
      "##コ": 1114,
      "##†": 1115,
      "##қ": 1116,
      "##ˮ": 1117,
      "##ᄃ": 1118,
      "##‏": 1119,
      "##屋": 1120,
      "##氏": 1121,
      "##ᅦ": 1122,
      "##未": 1123,
      "##有": 1124,
      "##甚": 1125,
      "##麼": 1126,
      "##一": 1127,
      "##樣": 1128,
      "##四": 1129,
      "##式": 1130,
      "##拳": 1131,
      "##銃": 1132,
      "##¥": 1133,
      "##實": 1134,
      "##懂": 1135,
      "##心": 1136,
      "##曾": 1137,
      "##經": 1138,
      "##過": 1139,
      "##蜜": 1140,
      "##夫": 1141,
      "##糖": 1142,
      "##果": 1143,
      "##若": 1144,
      "##琳": 1145,
      "##留": 1146,
      "##器": 1147,
      "##及": 1148,
      "##电": 1149,
      "##脑": 1150,
      "##開": 1151,
      "##始": 1152,
      "##地": 1153,
      "##方": 1154,
      "##蛮": 1155,
      "de": 1156,
      "##on": 1157,
      "##en": 1158,
      "##os": 1159,
      "##er": 1160,
      "##es": 1161,
      "##as": 1162,
      "##ar": 1163,
      "##ci": 1164,
      "##an": 1165,
      "##ue": 1166,
      "##or": 1167,
      "es": 1168,
      "##ad": 1169,
      "la": 1170,
      "en": 1171,
      "que": 1172,
      "el": 1173,
      "##al": 1174,
      "##te": 1175,
      "##cion": 1176,
      "##ti": 1177,
      "##ta": 1178,
      "un": 1179,
      "##re": 1180,
      "##to": 1181,
      "con": 1182,
      "##is": 1183,
      "##om": 1184,
      "##do": 1185,
      "##ra": 1186,
      "##ro": 1187,
      "##in": 1188,
      "##ien": 1189,
      "no": 1190,
      "se": 1191,
      "##ic": 1192,
      "los": 1193,
      "##id": 1194,
      "##am": 1195,
      "##acion": 1196,
      "re": 1197,
      "in": 1198,
      "par": 1199,
      "##ia": 1200,
      "##un": 1201,
      "com": 1202,
      "su": 1203,
      "##ol": 1204,
      "ha": 1205,
      "al": 1206,
      "las": 1207,
      "del": 1208,
      "por": 1209,
      "##ec": 1210,
      "##ado": 1211,
      "##em": 1212,
      "si": 1213,
      "##tr": 1214,
      "##ente": 1215,
      "para": 1216,
      "lo": 1217,
      "##le": 1218,
      "##io": 1219,
      "me": 1220,
      "##ui": 1221,
      "una": 1222,
      "pro": 1223,
      "per": 1224,
      "##cu": 1225,
      "esta": 1226,
      "cu": 1227,
      "est": 1228,
      "##lo": 1229,
      "##res": 1230,
      "##ion": 1231,
      "##ri": 1232,
      "##ab": 1233,
      "di": 1234,
      "mi": 1235,
      "##ter": 1236,
      "##od": 1237,
      "##go": 1238,
      "##ch": 1239,
      "##ent": 1240,
      "##de": 1241,
      "des": 1242,
      "##idad": 1243,
      "##tu": 1244,
      "##la": 1245,
      "##di": 1246,
      "##cia": 1247,
      "mu": 1248,
      "an": 1249,
      "##bre": 1250,
      "##..": 1251,
      "##tos": 1252,
      "##gu": 1253,
      "##ada": 1254,
      "##us": 1255,
      "##mp": 1256,
      "##ando": 1257,
      "so": 1258,
      "como": 1259,
      "...": 1260,
      "ex": 1261,
      "##ma": 1262,
      "##ues": 1263,
      "as": 1264,
      "##tar": 1265,
      "##tiv": 1266,
      "##ran": 1267,
      "##li": 1268,
      "##era": 1269,
      "##ales": 1270,
      "##ados": 1271,
      "ac": 1272,
      "##bi": 1273,
      "##ba": 1274,
      "##ten": 1275,
      "##bl": 1276,
      "ap": 1277,
      "pa": 1278,
      "cons": 1279,
      "te": 1280,
      "tra": 1281,
      "ten": 1282,
      "##ca": 1283,
      "##qui": 1284,
      "pue": 1285,
      "##tes": 1286,
      "##ce": 1287,
      "##vi": 1288,
      "##jo": 1289,
      "##orm": 1290,
      "res": 1291,
      "mas": 1292,
      "##pe": 1293,
      "##tor": 1294,
      "##tra": 1295,
      "le": 1296,
      "##da": 1297,
      "##ero": 1298,
      "tu": 1299,
      "ar": 1300,
      "##ica": 1301,
      "##co": 1302,
      "##dad": 1303,
      "##00": 1304,
      "ser": 1305,
      "##tro": 1306,
      "##um": 1307,
      "##ul": 1308,
      "##iz": 1309,
      "ti": 1310,
      "ma": 1311,
      "##tan": 1312,
      "sol": 1313,
      "##el": 1314,
      "##po": 1315,
      "##fi": 1316,
      "pre": 1317,
      "##gun": 1318,
      "##mo": 1319,
      "pero": 1320,
      "##iento": 1321,
      "##aciones": 1322,
      "##tas": 1323,
      "##per": 1324,
      "sobre": 1325,
      "esto": 1326,
      "tod": 1327,
      "pres": 1328,
      "##uen": 1329,
      "dis": 1330,
      "##ara": 1331,
      "##amos": 1332,
      "##uc": 1333,
      "to": 1334,
      "##emos": 1335,
      "inter": 1336,
      "##mos": 1337,
      "##que": 1338,
      "##uer": 1339,
      "##mente": 1340,
      "##ora": 1341,
      "##se": 1342,
      "##il": 1343,
      "cre": 1344,
      "qui": 1345,
      "sus": 1346,
      "bien": 1347,
      "##ento": 1348,
      "man": 1349,
      "##cer": 1350,
      "##ida": 1351,
      "tien": 1352,
      "##ez": 1353,
      "deb": 1354,
      "##ciones": 1355,
      "este": 1356,
      "comp": 1357,
      "##amb": 1358,
      "am": 1359,
      "vi": 1360,
      "inf": 1361,
      "##ib": 1362,
      "##pa": 1363,
      "ca": 1364,
      "pr": 1365,
      "##ces": 1366,
      "imp": 1367,
      "##ico": 1368,
      "ver": 1369,
      "ent": 1370,
      "sen": 1371,
      "200": 1372,
      "##ver": 1373,
      "ob": 1374,
      "pod": 1375,
      "##ision": 1376,
      "or": 1377,
      "##con": 1378,
      "cas": 1379,
      "##pi": 1380,
      "##im": 1381,
      "eso": 1382,
      "##eces": 1383,
      "ci": 1384,
      "##lar": 1385,
      "##lam": 1386,
      "yo": 1387,
      "##tros": 1388,
      "##encia": 1389,
      "##gan": 1390,
      "##me": 1391,
      "ah": 1392,
      "##gar": 1393,
      "##lan": 1394,
      "ad": 1395,
      "##je": 1396,
      "##tal": 1397,
      "##cias": 1398,
      "##cial": 1399,
      "buen": 1400,
      "##vo": 1401,
      "##ga": 1402,
      "sab": 1403,
      "us": 1404,
      "##pues": 1405,
      "##ari": 1406,
      "reg": 1407,
      "##ores": 1408,
      "##adas": 1409,
      "sin": 1410,
      "todo": 1411,
      "co": 1412,
      "##min": 1413,
      "##cio": 1414,
      "##tin": 1415,
      "hay": 1416,
      "pas": 1417,
      "ch": 1418,
      "##los": 1419,
      "##ras": 1420,
      "sal": 1421,
      "asi": 1422,
      "deci": 1423,
      "solo": 1424,
      "##amente": 1425,
      "nos": 1426,
      "aqui": 1427,
      "##oy": 1428,
      "hab": 1429,
      "##fer": 1430,
      "##idas": 1431,
      "##ir": 1432,
      "19": 1433,
      "inform": 1434,
      "##ud": 1435,
      "##enta": 1436,
      "pe": 1437,
      "mis": 1438,
      "son": 1439,
      "fin": 1440,
      "neces": 1441,
      "##pon": 1442,
      "cuando": 1443,
      "car": 1444,
      "traba": 1445,
      "po": 1446,
      "##ana": 1447,
      "##fic": 1448,
      "pri": 1449,
      "med": 1450,
      "##gra": 1451,
      "gen": 1452,
      "lle": 1453,
      "##za": 1454,
      "mar": 1455,
      "##son": 1456,
      "##den": 1457,
      "##ven": 1458,
      "##ambien": 1459,
      "##ru": 1460,
      "##les": 1461,
      "##entes": 1462,
      "tambien": 1463,
      "##mas": 1464,
      "##ens": 1465,
      "ya": 1466,
      "fa": 1467,
      "##esti": 1468,
      "hacer": 1469,
      "cam": 1470,
      "##ech": 1471,
      "##ur": 1472,
      "##miento": 1473,
      "##br": 1474,
      "##cho": 1475,
      "entre": 1476,
      "cor": 1477,
      "##des": 1478,
      "##iste": 1479,
      "##par": 1480,
      "##por": 1481,
      "##duc": 1482,
      "tan": 1483,
      "pol": 1484,
      "##cl": 1485,
      "muy": 1486,
      "##ido": 1487,
      "##ticu": 1488,
      "##tado": 1489,
      "##ve": 1490,
      "todos": 1491,
      "##iti": 1492,
      "fue": 1493,
      "nues": 1494,
      "##tras": 1495,
      "lu": 1496,
      "ter": 1497,
      "##pos": 1498,
      "ins": 1499,
      "##uro": 1500,
      "estas": 1501,
      "##lic": 1502,
      "##end": 1503,
      "##va": 1504,
      "##idades": 1505,
      "ab": 1506,
      "qu": 1507,
      "##jer": 1508,
      "##fici": 1509,
      "dere": 1510,
      "person": 1511,
      "nin": 1512,
      "##las": 1513,
      "nue": 1514,
      "comun": 1515,
      "puede": 1516,
      "gra": 1517,
      "has": 1518,
      "ra": 1519,
      "ahora": 1520,
      "emp": 1521,
      "pu": 1522,
      "##ern": 1523,
      "pos": 1524,
      "##emp": 1525,
      "pais": 1526,
      "cos": 1527,
      "##ac": 1528,
      "ni": 1529,
      "segu": 1530,
      "##rec": 1531,
      "don": 1532,
      "hi": 1533,
      "au": 1534,
      "tiene": 1535,
      "##gr": 1536,
      "algun": 1537,
      "intern": 1538,
      "##ano": 1539,
      "##anos": 1540,
      "##ias": 1541,
      "##iones": 1542,
      "dic": 1543,
      "##ina": 1544,
      "impor": 1545,
      "real": 1546,
      "euro": 1547,
      "men": 1548,
      "gener": 1549,
      "##acional": 1550,
      "he": 1551,
      "mun": 1552,
      "##iente": 1553,
      "##chos": 1554,
      "mej": 1555,
      "espe": 1556,
      "##iendo": 1557,
      "vez": 1558,
      "comision": 1559,
      "ve": 1560,
      "##ario": 1561,
      "han": 1562,
      "algo": 1563,
      "estoy": 1564,
      "##tiva": 1565,
      "organ": 1566,
      "##dos": 1567,
      "gran": 1568,
      "##ecto": 1569,
      "desar": 1570,
      "ay": 1571,
      "conse": 1572,
      "##tivo": 1573,
      "dos": 1574,
      "##endo": 1575,
      "##ie": 1576,
      "##ante": 1577,
      "##cuer": 1578,
      "##cas": 1579,
      "prim": 1580,
      "sec": 1581,
      "va": 1582,
      "##ja": 1583,
      "##llo": 1584,
      "du": 1585,
      "cal": 1586,
      "era": 1587,
      "##ones": 1588,
      "contra": 1589,
      "quier": 1590,
      "##cip": 1591,
      "uste": 1592,
      "##ucion": 1593,
      "##ino": 1594,
      "desarro": 1595,
      "bas": 1596,
      "donde": 1597,
      "##ig": 1598,
      "tran": 1599,
      "rep": 1600,
      "mo": 1601,
      "for": 1602,
      "fu": 1603,
      "##ombre": 1604,
      "hum": 1605,
      "ba": 1606,
      "fun": 1607,
      "tom": 1608,
      "estado": 1609,
      "bueno": 1610,
      "##ria": 1611,
      "esc": 1612,
      "quien": 1613,
      "parte": 1614,
      "estados": 1615,
      "##icos": 1616,
      "articu": 1617,
      "tiem": 1618,
      "ese": 1619,
      "cual": 1620,
      "##tacion": 1621,
      "col": 1622,
      "##cios": 1623,
      "do": 1624,
      "incl": 1625,
      "##idos": 1626,
      "mejor": 1627,
      "porque": 1628,
      "estan": 1629,
      "min": 1630,
      "mal": 1631,
      "llam": 1632,
      "##ista": 1633,
      "vamos": 1634,
      "##are": 1635,
      "tengo": 1636,
      "20": 1637,
      "ne": 1638,
      "anos": 1639,
      "##titu": 1640,
      "##ador": 1641,
      "##ble": 1642,
      "##og": 1643,
      "##aria": 1644,
      "ella": 1645,
      "tiempo": 1646,
      "plan": 1647,
      "##vers": 1648,
      "ce": 1649,
      "progra": 1650,
      "esp": 1651,
      "trabajo": 1652,
      "parti": 1653,
      "na": 1654,
      "senor": 1655,
      "direc": 1656,
      "general": 1657,
      "##cha": 1658,
      "decir": 1659,
      "ven": 1660,
      "##aron": 1661,
      "em": 1662,
      "trans": 1663,
      "##zo": 1664,
      "##ios": 1665,
      "may": 1666,
      "can": 1667,
      "##aran": 1668,
      "nada": 1669,
      "val": 1670,
      "##ite": 1671,
      "##cur": 1672,
      "##oci": 1673,
      "miem": 1674,
      "go": 1675,
      "dia": 1676,
      "##tante": 1677,
      "articulo": 1678,
      "##lacion": 1679,
      "habl": 1680,
      "europe": 1681,
      "##arse": 1682,
      "##entos": 1683,
      "##ena": 1684,
      "desde": 1685,
      "desarrollo": 1686,
      "##gn": 1687,
      "politi": 1688,
      "necesi": 1689,
      "mujer": 1690,
      "##can": 1691,
      "##tura": 1692,
      "hech": 1693,
      "quiero": 1694,
      "dej": 1695,
      "##vor": 1696,
      "##du": 1697,
      "vol": 1698,
      "##emas": 1699,
      "usted": 1700,
      "##liz": 1701,
      "puedo": 1702,
      "consejo": 1703,
      "exp": 1704,
      "##der": 1705,
      "hasta": 1706,
      "rec": 1707,
      "esa": 1708,
      "acuer": 1709,
      "##che": 1710,
      "ir": 1711,
      "aplic": 1712,
      "produc": 1713,
      "ind": 1714,
      "perm": 1715,
      "gracias": 1716,
      "vida": 1717,
      "##car": 1718,
      "##tivos": 1719,
      "san": 1720,
      "##na": 1721,
      "estu": 1722,
      "##cos": 1723,
      "lugar": 1724,
      "##unto": 1725,
      "##ible": 1726,
      "fuer": 1727,
      "##fec": 1728,
      "her": 1729,
      "##aba": 1730,
      "##izacion": 1731,
      "##gui": 1732,
      "prin": 1733,
      "paises": 1734,
      "verdad": 1735,
      "cer": 1736,
      "aun": 1737,
      "##tad": 1738,
      "##arios": 1739,
      "cab": 1740,
      "da": 1741,
      "derechos": 1742,
      "##lti": 1743,
      "hace": 1744,
      "##rante": 1745,
      "##eron": 1746,
      "199": 1747,
      "##gen": 1748,
      "favor": 1749,
      "##ord": 1750,
      "estaba": 1751,
      "##onces": 1752,
      "servi": 1753,
      "soy": 1754,
      "vis": 1755,
      "deber": 1756,
      "conf": 1757,
      "entonces": 1758,
      "##adre": 1759,
      "##uel": 1760,
      "##ece": 1761,
      ").": 1762,
      "##icion": 1763,
      "cada": 1764,
      "##teri": 1765,
      "uno": 1766,
      "),": 1767,
      "##jos": 1768,
      "li": 1769,
      "##ola": 1770,
      "##ll": 1771,
      "##ine": 1772,
      "segur": 1773,
      "lib": 1774,
      "publ": 1775,
      "creo": 1776,
      "ro": 1777,
      "dios": 1778,
      "##igo": 1779,
      "perio": 1780,
      "medi": 1781,
      "##bros": 1782,
      "form": 1783,
      "gru": 1784,
      "antes": 1785,
      "informacion": 1786,
      "segun": 1787,
      "presid": 1788,
      "toda": 1789,
      "pon": 1790,
      "##ema": 1791,
      "hecho": 1792,
      "##lamento": 1793,
      "##tur": 1794,
      "##tica": 1795,
      "siste": 1796,
      "otros": 1797,
      "acuerdo": 1798,
      "encon": 1799,
      "mon": 1800,
      "##tamente": 1801,
      "##tados": 1802,
      "casa": 1803,
      "##fica": 1804,
      "fi": 1805,
      "naciones": 1806,
      "durante": 1807,
      "##icas": 1808,
      "seguridad": 1809,
      "fe": 1810,
      "quer": 1811,
      "probl": 1812,
      "##sion": 1813,
      "ej": 1814,
      "miembros": 1815,
      "##ific": 1816,
      "mucho": 1817,
      "despues": 1818,
      "mundo": 1819,
      "mismo": 1820,
      "##almente": 1821,
      "ju": 1822,
      "##ientes": 1823,
      "debe": 1824,
      "tienes": 1825,
      "econ": 1826,
      "econom": 1827,
      "##ris": 1828,
      "gus": 1829,
      "internacional": 1830,
      "sr": 1831,
      "den": 1832,
      "reci": 1833,
      "##so": 1834,
      "obje": 1835,
      "##ici": 1836,
      "tal": 1837,
      "mod": 1838,
      "uti": 1839,
      "##able": 1840,
      "especial": 1841,
      "unidas": 1842,
      "sido": 1843,
      "mer": 1844,
      "##qu": 1845,
      "todas": 1846,
      "voy": 1847,
      "proy": 1848,
      "##otros": 1849,
      "compr": 1850,
      "##tir": 1851,
      "##bil": 1852,
      "personas": 1853,
      "nun": 1854,
      "eres": 1855,
      "##das": 1856,
      "##bar": 1857,
      "ev": 1858,
      "##ome": 1859,
      "sea": 1860,
      "##ider": 1861,
      "10": 1862,
      "nunca": 1863,
      "otra": 1864,
      "mayor": 1865,
      "activ": 1866,
      "sabes": 1867,
      "##gas": 1868,
      "autor": 1869,
      "##ton": 1870,
      "##antes": 1871,
      "actu": 1872,
      "inv": 1873,
      "##trar": 1874,
      "##biern": 1875,
      "ano": 1876,
      "gobiern": 1877,
      "##adores": 1878,
      "llev": 1879,
      "##eno": 1880,
      "sa": 1881,
      "##taria": 1882,
      "##empre": 1883,
      "##uy": 1884,
      "siempre": 1885,
      "dec": 1886,
      "habia": 1887,
      "##quier": 1888,
      "apro": 1889,
      "obs": 1890,
      "forma": 1891,
      "##ares": 1892,
      "##teg": 1893,
      "##amiento": 1894,
      "sigu": 1895,
      "##ves": 1896,
      "##eros": 1897,
      "apar": 1898,
      "ulti": 1899,
      "##tivas": 1900,
      "tanto": 1901,
      "ellos": 1902,
      "estar": 1903,
      "esper": 1904,
      "informe": 1905,
      "##zon": 1906,
      "programa": 1907,
      "of": 1908,
      "equi": 1909,
      "##erto": 1910,
      "resp": 1911,
      "##ito": 1912,
      "les": 1913,
      "##th": 1914,
      "##truc": 1915,
      "pla": 1916,
      "pues": 1917,
      "gu": 1918,
      "hombre": 1919,
      "##udad": 1920,
      "trabaj": 1921,
      "bus": 1922,
      "##lig": 1923,
      "##ientos": 1924,
      "pregun": 1925,
      "tenemos": 1926,
      "estos": 1927,
      "super": 1928,
      "##ismo": 1929,
      "201": 1930,
      "##ceso": 1931,
      "ciudad": 1932,
      "op": 1933,
      "##estion": 1934,
      "relacion": 1935,
      "ayud": 1936,
      "menos": 1937,
      "rela": 1938,
      "##embre": 1939,
      "funcion": 1940,
      "##ciendo": 1941,
      "ref": 1942,
      "##zar": 1943,
      "##vel": 1944,
      "tener": 1945,
      "##vis": 1946,
      "##gos": 1947,
      "nosotros": 1948,
      "##acionales": 1949,
      "jo": 1950,
      "pens": 1951,
      "##ene": 1952,
      "##olucion": 1953,
      "otro": 1954,
      "apoy": 1955,
      "finan": 1956,
      "##ho": 1957,
      "resul": 1958,
      "mom": 1959,
      "conven": 1960,
      "##tencia": 1961,
      "princip": 1962,
      "ado": 1963,
      "##via": 1964,
      "##be": 1965,
      "##man": 1966,
      "##olog": 1967,
      "cosas": 1968,
      "cuenta": 1969,
      "\".": 1970,
      "##ya": 1971,
      "fam": 1972,
      "def": 1973,
      "hola": 1974,
      "num": 1975,
      "##tico": 1976,
      "habi": 1977,
      "humanos": 1978,
      "pueden": 1979,
      "tec": 1980,
      "##ciales": 1981,
      "##omb": 1982,
      "situ": 1983,
      "is": 1984,
      "##gua": 1985,
      "##ame": 1986,
      "sistema": 1987,
      "##fr": 1988,
      "##entar": 1989,
      "tipo": 1990,
      "nuevo": 1991,
      "##quen": 1992,
      "##erv": 1993,
      "oh": 1994,
      "##uego": 1995,
      "caso": 1996,
      "presidente": 1997,
      "##nos": 1998,
      "##gue": 1999,
      "jun": 2000,
      "medidas": 2001,
      "derecho": 2002,
      "cul": 2003,
      "repres": 2004,
      "secre": 2005,
      "##tific": 2006,
      "sub": 2007,
      "poco": 2008,
      "tecn": 2009,
      "cuan": 2010,
      "financi": 2011,
      "##tec": 2012,
      "##ge": 2013,
      "comer": 2014,
      "siento": 2015,
      "haber": 2016,
      "##mento": 2017,
      "pal": 2018,
      "grupo": 2019,
      "##tre": 2020,
      "comite": 2021,
      "##tido": 2022,
      "##icia": 2023,
      "quieres": 2024,
      "##tario": 2025,
      "##ex": 2026,
      "escu": 2027,
      "##ian": 2028,
      "interes": 2029,
      "##sa": 2030,
      "##dia": 2031,
      "nuestro": 2032,
      "##ferencia": 2033,
      "ningun": 2034,
      "cono": 2035,
      "##vid": 2036,
      "pes": 2037,
      "##cidad": 2038,
      "mes": 2039,
      "##cup": 2040,
      "##bo": 2041,
      "clar": 2042,
      "pi": 2043,
      "th": 2044,
      "##puesto": 2045,
      "prof": 2046,
      "capa": 2047,
      "periodo": 2048,
      "podria": 2049,
      "##lem": 2050,
      "##ing": 2051,
      "##tores": 2052,
      "respon": 2053,
      "##dio": 2054,
      "consider": 2055,
      "tres": 2056,
      "##tis": 2057,
      "reun": 2058,
      "momento": 2059,
      "fr": 2060,
      "##dido": 2061,
      "adop": 2062,
      "##eg": 2063,
      "dijo": 2064,
      "dar": 2065,
      "12": 2066,
      "gobierno": 2067,
      "##bilidad": 2068,
      "puedes": 2069,
      "##trib": 2070,
      "##guien": 2071,
      "din": 2072,
      "alguien": 2073,
      "##uda": 2074,
      "nuestra": 2075,
      "estamos": 2076,
      "ses": 2077,
      "contro": 2078,
      "##zas": 2079,
      "##eo": 2080,
      "tri": 2081,
      "##uso": 2082,
      "be": 2083,
      "ho": 2084,
      "##ama": 2085,
      "bo": 2086,
      "termin": 2087,
      "bar": 2088,
      "jus": 2089,
      "##van": 2090,
      "##ecer": 2091,
      "gente": 2092,
      "ley": 2093,
      "fran": 2094,
      "##edad": 2095,
      "##xi": 2096,
      "##mpli": 2097,
      "##cri": 2098,
      "##cado": 2099,
      "tr": 2100,
      "##ha": 2101,
      "contin": 2102,
      "tienen": 2103,
      "otras": 2104,
      "manten": 2105,
      "amb": 2106,
      "##minis": 2107,
      "ninos": 2108,
      "##don": 2109,
      "##cen": 2110,
      "utiliz": 2111,
      "nacional": 2112,
      "hor": 2113,
      "tar": 2114,
      "organiz": 2115,
      "##fo": 2116,
      "trata": 2117,
      "ahi": 2118,
      "##no": 2119,
      "##sos": 2120,
      "##rac": 2121,
      "nivel": 2122,
      "elec": 2123,
      "##eza": 2124,
      "nombre": 2125,
      "##erte": 2126,
      "medio": 2127,
      "##cep": 2128,
      "cara": 2129,
      "ofici": 2130,
      "##rig": 2131,
      "fuera": 2132,
      "15": 2133,
      "proce": 2134,
      "reglamento": 2135,
      "fal": 2136,
      "demas": 2137,
      "##bles": 2138,
      "sera": 2139,
      "europea": 2140,
      "##peracion": 2141,
      "ag": 2142,
      "exam": 2143,
      "region": 2144,
      "empres": 2145,
      "exper": 2146,
      "posi": 2147,
      "dias": 2148,
      "ban": 2149,
      "parece": 2150,
      "##arias": 2151,
      "cl": 2152,
      "agr": 2153,
      "tend": 2154,
      "##toria": 2155,
      "segui": 2156,
      "cen": 2157,
      "##alo": 2158,
      "recon": 2159,
      "noche": 2160,
      "ri": 2161,
      "particu": 2162,
      "pequen": 2163,
      "aplicacion": 2164,
      "##cul": 2165,
      "##ecu": 2166,
      "his": 2167,
      "cualquier": 2168,
      "##duci": 2169,
      "mira": 2170,
      "union": 2171,
      "manera": 2172,
      "padre": 2173,
      "preo": 2174,
      "proyecto": 2175,
      "##ita": 2176,
      "realiz": 2177,
      "inte": 2178,
      "investi": 2179,
      "##cal": 2180,
      "##dicion": 2181,
      "##cimiento": 2182,
      "##vision": 2183,
      "hoy": 2184,
      "servicios": 2185,
      "efec": 2186,
      "recur": 2187,
      "dol": 2188,
      "##tencion": 2189,
      "nad": 2190,
      "##tun": 2191,
      "politica": 2192,
      "particular": 2193,
      "vo": 2194,
      "coo": 2195,
      "cri": 2196,
      "leg": 2197,
      "encu": 2198,
      "actividades": 2199,
      "numero": 2200,
      "##mientos": 2201,
      "##ticas": 2202,
      "hablar": 2203,
      "norm": 2204,
      "##tt": 2205,
      "presente": 2206,
      "importante": 2207,
      "hu": 2208,
      "mujeres": 2209,
      "uni": 2210,
      "nueva": 2211,
      "11": 2212,
      "sign": 2213,
      "##oso": 2214,
      "##ice": 2215,
      "ademas": 2216,
      "estable": 2217,
      "inc": 2218,
      "##gi": 2219,
      "##eras": 2220,
      "mill": 2221,
      "##len": 2222,
      "##tando": 2223,
      "##erg": 2224,
      "##vos": 2225,
      "vuel": 2226,
      "faci": 2227,
      "social": 2228,
      "##puesta": 2229,
      "##ban": 2230,
      "pen": 2231,
      "##ensa": 2232,
      "declar": 2233,
      "ide": 2234,
      "orden": 2235,
      "algunos": 2236,
      "##entro": 2237,
      "respecto": 2238,
      "18": 2239,
      "hacia": 2240,
      "tras": 2241,
      "prom": 2242,
      "enti": 2243,
      "##termin": 2244,
      "##fe": 2245,
      "nadie": 2246,
      "paz": 2247,
      "resolucion": 2248,
      "comple": 2249,
      "igu": 2250,
      "comunidad": 2251,
      "institu": 2252,
      "prac": 2253,
      "primera": 2254,
      "cele": 2255,
      "##ona": 2256,
      "##istencia": 2257,
      "dinero": 2258,
      "especi": 2259,
      "liber": 2260,
      "aum": 2261,
      "escri": 2262,
      "##icacion": 2263,
      "podemos": 2264,
      "##tran": 2265,
      "viol": 2266,
      "quiere": 2267,
      "##tio": 2268,
      "##chas": 2269,
      "esos": 2270,
      "conoci": 2271,
      "investig": 2272,
      "tenia": 2273,
      "vas": 2274,
      "mor": 2275,
      "##ed": 2276,
      "cambi": 2277,
      "##rar": 2278,
      "##ala": 2279,
      "lar": 2280,
      "situacion": 2281,
      "hemos": 2282,
      "decision": 2283,
      "determin": 2284,
      "docu": 2285,
      "##vas": 2286,
      "mundi": 2287,
      "fon": 2288,
      "##dios": 2289,
      "##erra": 2290,
      "##ye": 2291,
      "pasa": 2292,
      "##gres": 2293,
      "partes": 2294,
      "dice": 2295,
      "##uir": 2296,
      "capi": 2297,
      "mien": 2298,
      "adminis": 2299,
      "nor": 2300,
      "apoyo": 2301,
      "os": 2302,
      "continu": 2303,
      "##posi": 2304,
      "problema": 2305,
      "garan": 2306,
      "poder": 2307,
      "##vil": 2308,
      "##izo": 2309,
      "garanti": 2310,
      "ayuda": 2311,
      "primer": 2312,
      "seguro": 2313,
      "punto": 2314,
      "##lea": 2315,
      "##et": 2316,
      "##tantes": 2317,
      "recom": 2318,
      "##ustr": 2319,
      "difer": 2320,
      "embar": 2321,
      "##__": 2322,
      "##ual": 2323,
      "br": 2324,
      "necesita": 2325,
      "particip": 2326,
      "##reg": 2327,
      "mientras": 2328,
      "##ior": 2329,
      "##mon": 2330,
      "##ament": 2331,
      "ejemp": 2332,
      "dentro": 2333,
      "hijo": 2334,
      "gas": 2335,
      "posible": 2336,
      "via": 2337,
      "##ial": 2338,
      "total": 2339,
      "cuanto": 2340,
      "ases": 2341,
      "personal": 2342,
      "repu": 2343,
      "##istas": 2344,
      "gan": 2345,
      "buena": 2346,
      "##ania": 2347,
      "je": 2348,
      "razon": 2349,
      "##dan": 2350,
      "luego": 2351,
      "haciendo": 2352,
      "auto": 2353,
      "millones": 2354,
      "prop": 2355,
      "alli": 2356,
      "##torio": 2357,
      "claro": 2358,
      "##bas": 2359,
      "compe": 2360,
      "productos": 2361,
      "desa": 2362,
      "##ep": 2363,
      "##yo": 2364,
      "muchos": 2365,
      "##ea": 2366,
      "espera": 2367,
      "protec": 2368,
      "palab": 2369,
      "dicho": 2370,
      "herm": 2371,
      "recursos": 2372,
      "entr": 2373,
      "cin": 2374,
      "persona": 2375,
      "minis": 2376,
      "represent": 2377,
      "salud": 2378,
      "##tancia": 2379,
      "##ambio": 2380,
      "##cido": 2381,
      "acer": 2382,
      "manana": 2383,
      "13": 2384,
      "prepar": 2385,
      "30": 2386,
      "##untos": 2387,
      "##ilia": 2388,
      "the": 2389,
      "aunque": 2390,
      "confi": 2391,
      "##ombres": 2392,
      "##ren": 2393,
      "##abor": 2394,
      "problemas": 2395,
      "##isi": 2396,
      "madre": 2397,
      "##encias": 2398,
      "##ifica": 2399,
      "##dar": 2400,
      "bajo": 2401,
      "nego": 2402,
      "deberia": 2403,
      "embargo": 2404,
      "##ables": 2405,
      "datos": 2406,
      "sabe": 2407,
      "##anza": 2408,
      "propi": 2409,
      "##ror": 2410,
      "sos": 2411,
      "##bro": 2412,
      "##lla": 2413,
      "##ber": 2414,
      "conform": 2415,
      "##lemente": 2416,
      "##cis": 2417,
      "##esta": 2418,
      "mundial": 2419,
      "ante": 2420,
      "cris": 2421,
      "##esion": 2422,
      "respons": 2423,
      "proceso": 2424,
      "control": 2425,
      "##tud": 2426,
      "familia": 2427,
      "ol": 2428,
      "trib": 2429,
      "saber": 2430,
      "##inar": 2431,
      "solici": 2432,
      "14": 2433,
      "esf": 2434,
      "anti": 2435,
      "##ne": 2436,
      "##ili": 2437,
      "sesiones": 2438,
      "igual": 2439,
      "clas": 2440,
      "veces": 2441,
      "pien": 2442,
      "indi": 2443,
      "##ectos": 2444,
      "##tada": 2445,
      "##gado": 2446,
      "proteccion": 2447,
      "cooperacion": 2448,
      "##zos": 2449,
      "emple": 2450,
      "sem": 2451,
      "##elo": 2452,
      "##diciones": 2453,
      "cosa": 2454,
      "esas": 2455,
      "republ": 2456,
      "conta": 2457,
      "opor": 2458,
      "ayudar": 2459,
      "ta": 2460,
      "final": 2461,
      "agua": 2462,
      "acab": 2463,
      "paso": 2464,
      "oc": 2465,
      "deben": 2466,
      "lim": 2467,
      "##bido": 2468,
      "oportun": 2469,
      "present": 2470,
      "puer": 2471,
      "cuestion": 2472,
      "sex": 2473,
      "nuestros": 2474,
      "pasado": 2475,
      "preocup": 2476,
      "##teria": 2477,
      "visto": 2478,
      "##fico": 2479,
      "natur": 2480,
      "16": 2481,
      "vic": 2482,
      "##jas": 2483,
      "tus": 2484,
      "##racion": 2485,
      "fo": 2486,
      "tele": 2487,
      "ejer": 2488,
      "constitu": 2489,
      "##alu": 2490,
      "consul": 2491,
      "##pend": 2492,
      "asamb": 2493,
      "conti": 2494,
      "deba": 2495,
      "haya": 2496,
      "vale": 2497,
      "fis": 2498,
      "dispon": 2499,
      "##inacion": 2500,
      "vig": 2501,
      "univers": 2502,
      "organizacion": 2503,
      "ase": 2504,
      "sino": 2505,
      "##gles": 2506,
      "ejemplo": 2507,
      "paci": 2508,
      "tema": 2509,
      "programas": 2510,
      "asamblea": 2511,
      "##ke": 2512,
      "##ere": 2513,
      "policia": 2514,
      "##itar": 2515,
      "##iencia": 2516,
      "hizo": 2517,
      "ja": 2518,
      "pan": 2519,
      "fund": 2520,
      "republica": 2521,
      "condiciones": 2522,
      "##entacion": 2523,
      "17": 2524,
      "alguna": 2525,
      "realmente": 2526,
      "##eccion": 2527,
      "caus": 2528,
      "##hi": 2529,
      "##iso": 2530,
      "podri": 2531,
      "##dir": 2532,
      "guer": 2533,
      "incluso": 2534,
      "##cra": 2535,
      "unidos": 2536,
      "muchas": 2537,
      "##blo": 2538,
      "ima": 2539,
      "##bor": 2540,
      "promo": 2541,
      "centro": 2542,
      "administra": 2543,
      "##vir": 2544,
      "##tion": 2545,
      "encontrar": 2546,
      "##lor": 2547,
      "uso": 2548,
      "er": 2549,
      "ello": 2550,
      "traves": 2551,
      "oper": 2552,
      "unos": 2553,
      "papa": 2554,
      "##ard": 2555,
      "amor": 2556,
      "gusta": 2557,
      "algunas": 2558,
      "estra": 2559,
      "compar": 2560,
      "observ": 2561,
      "soci": 2562,
      "supon": 2563,
      "apartado": 2564,
      "##cid": 2565,
      "base": 2566,
      "todavia": 2567,
      "tierra": 2568,
      "##ula": 2569,
      "recuer": 2570,
      "##vio": 2571,
      "int": 2572,
      "##ticos": 2573,
      "000": 2574,
      "aque": 2575,
      "amigo": 2576,
      "contrib": 2577,
      "##ques": 2578,
      "misma": 2579,
      "enfer": 2580,
      "##litar": 2581,
      "pobl": 2582,
      "horas": 2583,
      "##mi": 2584,
      "establ": 2585,
      "vien": 2586,
      "jur": 2587,
      "significa": 2588,
      "dejar": 2589,
      "accion": 2590,
      "prue": 2591,
      "asoci": 2592,
      "sep": 2593,
      "##ril": 2594,
      "bene": 2595,
      "terri": 2596,
      "europa": 2597,
      "volver": 2598,
      "##xto": 2599,
      "and": 2600,
      "hombres": 2601,
      "disposi": 2602,
      "expres": 2603,
      "##oma": 2604,
      "mediante": 2605,
      "ofre": 2606,
      "oficina": 2607,
      "procedi": 2608,
      "importa": 2609,
      "parra": 2610,
      "siguiente": 2611,
      "##atro": 2612,
      "##bol": 2613,
      "seria": 2614,
      "mercado": 2615,
      "alim": 2616,
      "marco": 2617,
      "hora": 2618,
      "esti": 2619,
      "##abil": 2620,
      "organizaciones": 2621,
      "##ficiente": 2622,
      "educ": 2623,
      "##men": 2624,
      "##ger": 2625,
      "europeo": 2626,
      "estrateg": 2627,
      "alcan": 2628,
      "anex": 2629,
      "cambio": 2630,
      "exis": 2631,
      "demasi": 2632,
      "##terior": 2633,
      "aprob": 2634,
      "parlamento": 2635,
      "fueron": 2636,
      "tor": 2637,
      "actual": 2638,
      "##ts": 2639,
      "tribun": 2640,
      "mama": 2641,
      "##ender": 2642,
      "evalu": 2643,
      "25": 2644,
      "##fa": 2645,
      "som": 2646,
      "van": 2647,
      "destin": 2648,
      "internacionales": 2649,
      "demo": 2650,
      "capacidad": 2651,
      "sociedad": 2652,
      "minu": 2653,
      "joven": 2654,
      "sur": 2655,
      "line": 2656,
      "tarde": 2657,
      "##quiera": 2658,
      "tem": 2659,
      "hacerlo": 2660,
      "##ler": 2661,
      "convencion": 2662,
      "##echa": 2663,
      "##icul": 2664,
      "historia": 2665,
      "incluy": 2666,
      "af": 2667,
      "fir": 2668,
      "arreg": 2669,
      "gestion": 2670,
      "acep": 2671,
      "on": 2672,
      "##ros": 2673,
      "afr": 2674,
      "simp": 2675,
      "atencion": 2676,
      "##igos": 2677,
      "escuch": 2678,
      "nacionales": 2679,
      "##ase": 2680,
      "##sen": 2681,
      "##tales": 2682,
      "carac": 2683,
      "asegu": 2684,
      "##uela": 2685,
      "mier": 2686,
      "inten": 2687,
      "idea": 2688,
      "##dor": 2689,
      "cumpli": 2690,
      "##porcion": 2691,
      "servicio": 2692,
      "##inas": 2693,
      "dici": 2694,
      "invi": 2695,
      "2006": 2696,
      "##tera": 2697,
      "##siones": 2698,
      "investigacion": 2699,
      "ade": 2700,
      "vir": 2701,
      "##rio": 2702,
      "anal": 2703,
      "conm": 2704,
      "secretario": 2705,
      "armas": 2706,
      "llegar": 2707,
      "##erta": 2708,
      "##arlo": 2709,
      "bol": 2710,
      "asistencia": 2711,
      "dolares": 2712,
      "\",": 2713,
      "caracter": 2714,
      "regis": 2715,
      "sector": 2716,
      "cierto": 2717,
      "diciembre": 2718,
      "logr": 2719,
      "har": 2720,
      "2005": 2721,
      "##ticia": 2722,
      "pid": 2723,
      "##ducir": 2724,
      "198": 2725,
      "hubi": 2726,
      "proporcion": 2727,
      "queria": 2728,
      "##tel": 2729,
      "mision": 2730,
      "##bern": 2731,
      "lado": 2732,
      "pag": 2733,
      "tecnolog": 2734,
      "sac": 2735,
      "##bir": 2736,
      "anexo": 2737,
      "##ura": 2738,
      "ton": 2739,
      "##si": 2740,
      "perman": 2741,
      "celebr": 2742,
      "cora": 2743,
      "2000": 2744,
      "vin": 2745,
      "cuer": 2746,
      "conten": 2747,
      "democra": 2748,
      "sigue": 2749,
      "enten": 2750,
      "##til": 2751,
      "sh": 2752,
      "centr": 2753,
      "mus": 2754,
      "2004": 2755,
      "necesito": 2756,
      "equipo": 2757,
      "ustedes": 2758,
      "pron": 2759,
      "dan": 2760,
      "presu": 2761,
      "##respon": 2762,
      "##jes": 2763,
      "amer": 2764,
      "##lante": 2765,
      "permiti": 2766,
      "dije": 2767,
      "consegui": 2768,
      "distin": 2769,
      "ejerci": 2770,
      "tomar": 2771,
      "defin": 2772,
      "esfuer": 2773,
      "regres": 2774,
      "ii": 2775,
      "envi": 2776,
      "ocur": 2777,
      "ru": 2778,
      "##uido": 2779,
      "2001": 2780,
      "##ancia": 2781,
      "realidad": 2782,
      "guerra": 2783,
      "casi": 2784,
      "poner": 2785,
      "mos": 2786,
      "prob": 2787,
      "##pido": 2788,
      "pueblo": 2789,
      "##cel": 2790,
      "conformidad": 2791,
      "##rir": 2792,
      "lista": 2793,
      "oye": 2794,
      "##mar": 2795,
      "empez": 2796,
      "##aste": 2797,
      "##usion": 2798,
      "demasiado": 2799,
      "camp": 2800,
      "##porte": 2801,
      "conmigo": 2802,
      "acerca": 2803,
      "educacion": 2804,
      "parrafo": 2805,
      "espa": 2806,
      "reunion": 2807,
      "acceso": 2808,
      "cinco": 2809,
      "dirig": 2810,
      "ninguna": 2811,
      "##jar": 2812,
      "crees": 2813,
      "ries": 2814,
      "##omin": 2815,
      "correspon": 2816,
      "cir": 2817,
      "energ": 2818,
      "##orma": 2819,
      "##turas": 2820,
      "camino": 2821,
      "##estiones": 2822,
      "meses": 2823,
      "cuatro": 2824,
      "necesario": 2825,
      "doc": 2826,
      "21": 2827,
      "afec": 2828,
      "##tric": 2829,
      "##dades": 2830,
      "atra": 2831,
      "##col": 2832,
      "encar": 2833,
      "##mpl": 2834,
      "2003": 2835,
      "politicas": 2836,
      "##ificacion": 2837,
      "gol": 2838,
      "conte": 2839,
      "##eta": 2840,
      "segundo": 2841,
      "recomend": 2842,
      "inde": 2843,
      "divers": 2844,
      "##tadas": 2845,
      "##tina": 2846,
      "alto": 2847,
      "##ire": 2848,
      "dese": 2849,
      "2002": 2850,
      "casos": 2851,
      "normas": 2852,
      "2007": 2853,
      "directiva": 2854,
      "vista": 2855,
      "difici": 2856,
      "objetivo": 2857,
      "declaracion": 2858,
      "##gre": 2859,
      "cuestiones": 2860,
      "modo": 2861,
      "sup": 2862,
      "nino": 2863,
      "inclu": 2864,
      "##dida": 2865,
      "industr": 2866,
      "acu": 2867,
      "materia": 2868,
      "jul": 2869,
      "24": 2870,
      "mierda": 2871,
      "espi": 2872,
      "cur": 2873,
      "movi": 2874,
      "conferencia": 2875,
      "estudi": 2876,
      "grandes": 2877,
      "##fon": 2878,
      "indic": 2879,
      "valor": 2880,
      "##cin": 2881,
      "obten": 2882,
      "libre": 2883,
      "conc": 2884,
      "bi": 2885,
      "bel": 2886,
      "resultados": 2887,
      "sentido": 2888,
      "poblacion": 2889,
      "oblig": 2890,
      "semana": 2891,
      "tam": 2892,
      "##ismos": 2893,
      "fecha": 2894,
      "##fecto": 2895,
      "examen": 2896,
      "legis": 2897,
      "empresas": 2898,
      "labor": 2899,
      "cuid": 2900,
      "22": 2901,
      "vie": 2902,
      "##dic": 2903,
      "lan": 2904,
      "siendo": 2905,
      "pare": 2906,
      "tratado": 2907,
      "muerte": 2908,
      "##duccion": 2909,
      "suficiente": 2910,
      "jue": 2911,
      "correc": 2912,
      "ultimo": 2913,
      "lis": 2914,
      "famili": 2915,
      "pape": 2916,
      "##cto": 2917,
      "##ches": 2918,
      "##mentos": 2919,
      "##olu": 2920,
      "##taciones": 2921,
      "libertad": 2922,
      "llevar": 2923,
      "##ficial": 2924,
      "iden": 2925,
      "##imo": 2926,
      "ga": 2927,
      "ata": 2928,
      "senora": 2929,
      "publico": 2930,
      "facil": 2931,
      "pueda": 2932,
      "rom": 2933,
      "##aban": 2934,
      "trad": 2935,
      "##rado": 2936,
      "concl": 2937,
      "priv": 2938,
      "##trado": 2939,
      "##all": 2940,
      "##tara": 2941,
      "disposiciones": 2942,
      "##posicion": 2943,
      "##iamos": 2944,
      "refi": 2945,
      "cerca": 2946,
      "##igu": 2947,
      "calidad": 2948,
      "##und": 2949,
      "mio": 2950,
      "##ich": 2951,
      "aquel": 2952,
      "desp": 2953,
      "##truccion": 2954,
      "mayoria": 2955,
      "unico": 2956,
      "abs": 2957,
      "electr": 2958,
      "consec": 2959,
      "==": 2960,
      "##ck": 2961,
      "miembro": 2962,
      "agrad": 2963,
      "mencion": 2964,
      "contigo": 2965,
      "##pul": 2966,
      "conj": 2967,
      "medios": 2968,
      "largo": 2969,
      "mucha": 2970,
      "##ill": 2971,
      "comen": 2972,
      "tribunal": 2973,
      "espos": 2974,
      "respe": 2975,
      "fre": 2976,
      "amigos": 2977,
      "natural": 2978,
      "##if": 2979,
      "nota": 2980,
      "##turo": 2981,
      "##eran": 2982,
      "titu": 2983,
      "human": 2984,
      "junio": 2985,
      "objetivos": 2986,
      "##abilidad": 2987,
      "coord": 2988,
      "mad": 2989,
      "encan": 2990,
      "##osa": 2991,
      "primero": 2992,
      "ambi": 2993,
      "mol": 2994,
      "seguir": 2995,
      "##chi": 2996,
      "terror": 2997,
      ".\"": 2998,
      "cla": 2999,
      "grupos": 3000,
      "##udio": 3001,
      "##ry": 3002,
      "opin": 3003,
      "##zado": 3004,
      "proxi": 3005,
      "anim": 3006,
      "00": 3007,
      "23": 3008,
      "suce": 3009,
      "##gel": 3010,
      "cod": 3011,
      "alem": 3012,
      "toma": 3013,
      "queda": 3014,
      "##uelo": 3015,
      "espiri": 3016,
      "necesidad": 3017,
      "hon": 3018,
      "falta": 3019,
      "frente": 3020,
      "salir": 3021,
      "corazon": 3022,
      "agu": 3023,
      "perdon": 3024,
      "princi": 3025,
      "septi": 3026,
      "sim": 3027,
      "ren": 3028,
      "##pas": 3029,
      "autoridades": 3030,
      "descu": 3031,
      "fondo": 3032,
      "somos": 3033,
      "##amentales": 3034,
      "efica": 3035,
      "inicia": 3036,
      "ultima": 3037,
      "sosten": 3038,
      "##//": 3039,
      "energia": 3040,
      "##ka": 3041,
      "figu": 3042,
      "eran": 3043,
      "extra": 3044,
      "##pen": 3045,
      "pregunta": 3046,
      "rad": 3047,
      "chica": 3048,
      "2008": 3049,
      "local": 3050,
      "cabo": 3051,
      "##ttp": 3052,
      "julio": 3053,
      "http": 3054,
      "cuar": 3055,
      "matar": 3056,
      "##ale": 3057,
      "##vencion": 3058,
      "justicia": 3059,
      "formul": 3060,
      "##remos": 3061,
      "proteg": 3062,
      "futuro": 3063,
      "mues": 3064,
      "consecuen": 3065,
      "ale": 3066,
      "eh": 3067,
      "adecu": 3068,
      "debemos": 3069,
      "asuntos": 3070,
      "pobre": 3071,
      "materi": 3072,
      "jes": 3073,
      "victi": 3074,
      "proyectos": 3075,
      "pasar": 3076,
      "ocup": 3077,
      "##icamente": 3078,
      "rev": 3079,
      "participacion": 3080,
      "://": 3081,
      "##and": 3082,
      "produccion": 3083,
      "##tic": 3084,
      "olvid": 3085,
      "edi": 3086,
      "importancia": 3087,
      "cabeza": 3088,
      "red": 3089,
      "profesion": 3090,
      "##tamento": 3091,
      "dificil": 3092,
      "oportunidad": 3093,
      "##eb": 3094,
      "rus": 3095,
      "supuesto": 3096,
      "blan": 3097,
      "##entra": 3098,
      "hijos": 3099,
      "oficial": 3100,
      "pl": 3101,
      "nuestras": 3102,
      "especialmente": 3103,
      "espiritu": 3104,
      "##adamente": 3105,
      "##laciones": 3106,
      "##terio": 3107,
      "ejecu": 3108,
      "mantener": 3109,
      "dado": 3110,
      "##oria": 3111,
      "ur": 3112,
      "fab": 3113,
      "cuerpo": 3114,
      "mano": 3115,
      "deten": 3116,
      "##ucle": 3117,
      "cien": 3118,
      "pad": 3119,
      "elim": 3120,
      "propuesta": 3121,
      "pel": 3122,
      "##ecen": 3123,
      "incre": 3124,
      "ensen": 3125,
      "linea": 3126,
      "##puestas": 3127,
      "papel": 3128,
      "zona": 3129,
      "respuesta": 3130,
      "orien": 3131,
      "sociales": 3132,
      "sitio": 3133,
      "-¿": 3134,
      "##fir": 3135,
      "direccion": 3136,
      "50": 3137,
      "economico": 3138,
      "sra": 3139,
      "norte": 3140,
      "ambiente": 3141,
      "##vin": 3142,
      "integr": 3143,
      "reconoci": 3144,
      "mari": 3145,
      "resid": 3146,
      "diferentes": 3147,
      "hermano": 3148,
      "jurid": 3149,
      "estre": 3150,
      "##ulo": 3151,
      "senti": 3152,
      "minutos": 3153,
      "hos": 3154,
      "##izar": 3155,
      "qued": 3156,
      "principio": 3157,
      "##erva": 3158,
      "estruc": 3159,
      "instr": 3160,
      "unas": 3161,
      "invers": 3162,
      "puesto": 3163,
      "nucle": 3164,
      "arm": 3165,
      "discul": 3166,
      "siguientes": 3167,
      "##it": 3168,
      "consum": 3169,
      "medida": 3170,
      "palabra": 3171,
      "plazo": 3172,
      "##tente": 3173,
      "asp": 3174,
      "instituciones": 3175,
      "##ablemente": 3176,
      "##ecta": 3177,
      "##ental": 3178,
      "exac": 3179,
      "carta": 3180,
      "elabor": 3181,
      "tur": 3182,
      "##entas": 3183,
      "jefe": 3184,
      "independ": 3185,
      "luz": 3186,
      "isra": 3187,
      "mec": 3188,
      "tenido": 3189,
      "##tidad": 3190,
      "##tivamente": 3191,
      "##form": 3192,
      "vaya": 3193,
      "guar": 3194,
      "trabajar": 3195,
      "##pios": 3196,
      "salv": 3197,
      "nuevos": 3198,
      "##jus": 3199,
      "debido": 3200,
      "telefon": 3201,
      "sel": 3202,
      "prome": 3203,
      "evi": 3204,
      "chicos": 3205,
      "record": 3206,
      "mic": 3207,
      "precios": 3208,
      "conflic": 3209,
      "sor": 3210,
      "glo": 3211,
      "ampli": 3212,
      "militar": 3213,
      "quiza": 3214,
      "busc": 3215,
      "mensa": 3216,
      "26": 3217,
      "clase": 3218,
      "avan": 3219,
      "ue": 3220,
      "comprom": 3221,
      "efectos": 3222,
      "arri": 3223,
      "..": 3224,
      "instrum": 3225,
      "bon": 3226,
      "elem": 3227,
      "senal": 3228,
      "##unci": 3229,
      "lin": 3230,
      "reco": 3231,
      "dispar": 3232,
      "sean": 3233,
      "nuevas": 3234,
      "##gia": 3235,
      "hici": 3236,
      "31": 3237,
      "novi": 3238,
      "##onas": 3239,
      "##blos": 3240,
      "mecan": 3241,
      "comunicacion": 3242,
      "##dose": 3243,
      "##mien": 3244,
      "juego": 3245,
      "meto": 3246,
      "multi": 3247,
      "comercio": 3248,
      "abi": 3249,
      "##accion": 3250,
      "conver": 3251,
      "veo": 3252,
      "hablando": 3253,
      "pense": 3254,
      "edad": 3255,
      "bor": 3256,
      "rapido": 3257,
      "informes": 3258,
      "disf": 3259,
      "100": 3260,
      "depar": 3261,
      "##imiento": 3262,
      "sabia": 3263,
      "pronto": 3264,
      "digo": 3265,
      "maldi": 3266,
      "volun": 3267,
      "et": 3268,
      "lucha": 3269,
      "empresa": 3270,
      "##arme": 3271,
      "##cepcion": 3272,
      "partir": 3273,
      "mayo": 3274,
      "grande": 3275,
      "esfuerzos": 3276,
      "fl": 3277,
      "##iza": 3278,
      "empleo": 3279,
      "conci": 3280,
      "gustaria": 3281,
      "temp": 3282,
      "pers": 3283,
      "septiembre": 3284,
      "##entemente": 3285,
      "publica": 3286,
      "public": 3287,
      "##udo": 3288,
      "solucion": 3289,
      "benefici": 3290,
      "pie": 3291,
      "seis": 3292,
      "especific": 3293,
      "##ww": 3294,
      "are": 3295,
      "muerto": 3296,
      "--": 3297,
      "##anas": 3298,
      "extran": 3299,
      "az": 3300,
      "cier": 3301,
      "fuerza": 3302,
      "cuales": 3303,
      "mejorar": 3304,
      "##bra": 3305,
      "necesidades": 3306,
      "##lie": 3307,
      "ge": 3308,
      "##tentes": 3309,
      "cru": 3310,
      "##gamos": 3311,
      "aumento": 3312,
      "adelante": 3313,
      "##ron": 3314,
      "period": 3315,
      "##media": 3316,
      "economica": 3317,
      "documento": 3318,
      "www": 3319,
      "central": 3320,
      "espero": 3321,
      "tratamiento": 3322,
      "administracion": 3323,
      "creacion": 3324,
      "27": 3325,
      "##hn": 3326,
      "puerta": 3327,
      "escuela": 3328,
      "debo": 3329,
      "##bal": 3330,
      "relaciones": 3331,
      "##val": 3332,
      "##tubre": 3333,
      "2009": 3334,
      "marzo": 3335,
      "octubre": 3336,
      "28": 3337,
      "objeto": 3338,
      "violencia": 3339,
      "cuad": 3340,
      "serio": 3341,
      "##edo": 3342,
      "principal": 3343,
      "progres": 3344,
      "habla": 3345,
      "comunic": 3346,
      "amena": 3347,
      "previs": 3348,
      "manos": 3349,
      "recu": 3350,
      "buenas": 3351,
      "cel": 3352,
      "##ficio": 3353,
      "rap": 3354,
      "fabr": 3355,
      "principios": 3356,
      "sangre": 3357,
      "intro": 3358,
      "quizas": 3359,
      "iba": 3360,
      "corr": 3361,
      "ben": 3362,
      "carino": 3363,
      "##cales": 3364,
      "##eria": 3365,
      "##entado": 3366,
      "palabras": 3367,
      "experiencia": 3368,
      "bastante": 3369,
      "pudi": 3370,
      "dro": 3371,
      "alla": 3372,
      "instal": 3373,
      "##pec": 3374,
      "##itos": 3375,
      "juntos": 3376,
      "blo": 3377,
      "estudio": 3378,
      "practica": 3379,
      "unica": 3380,
      "29": 3381,
      "bu": 3382,
      "evaluacion": 3383,
      "##pre": 3384,
      "##dedor": 3385,
      "ka": 3386,
      "foto": 3387,
      "noviembre": 3388,
      "importantes": 3389,
      "sir": 3390,
      "limp": 3391,
      "come": 3392,
      "formacion": 3393,
      "##crimin": 3394,
      "varios": 3395,
      "archi": 3396,
      "sistemas": 3397,
      "riesgo": 3398,
      "ele": 3399,
      "podra": 3400,
      "haga": 3401,
      "##resion": 3402,
      "bal": 3403,
      "gri": 3404,
      "ira": 3405,
      "china": 3406,
      "siquiera": 3407,
      "##usi": 3408,
      "procedimiento": 3409,
      "##inos": 3410,
      "operaciones": 3411,
      "##gro": 3412,
      "##emente": 3413,
      "ini": 3414,
      "fondos": 3415,
      "##pan": 3416,
      "partici": 3417,
      "decisiones": 3418,
      "corre": 3419,
      "africa": 3420,
      "arreglo": 3421,
      "recono": 3422,
      "deleg": 3423,
      "enero": 3424,
      "estaban": 3425,
      "tercer": 3426,
      "enferme": 3427,
      "principales": 3428,
      "pequeno": 3429,
      "##uales": 3430,
      "descri": 3431,
      "segunda": 3432,
      "negoci": 3433,
      "##ecucion": 3434,
      "modific": 3435,
      "conseguir": 3436,
      "ves": 3437,
      "genial": 3438,
      "transporte": 3439,
      "posibilidad": 3440,
      "##ese": 3441,
      "orig": 3442,
      "habian": 3443,
      "##teriores": 3444,
      "haces": 3445,
      "##lici": 3446,
      "abril": 3447,
      "1999": 3448,
      "venta": 3449,
      "apr": 3450,
      "tuvi": 3451,
      "alma": 3452,
      "dio": 3453,
      "justo": 3454,
      "##____": 3455,
      "formas": 3456,
      "##cina": 3457,
      "detal": 3458,
      "fac": 3459,
      "colabor": 3460,
      "##gracion": 3461,
      "conocer": 3462,
      "dorm": 3463,
      "visi": 3464,
      "##tarse": 3465,
      "igles": 3466,
      "satis": 3467,
      "hice": 3468,
      "limi": 3469,
      "serie": 3470,
      "director": 3471,
      "##lado": 3472,
      "deja": 3473,
      "tenga": 3474,
      "civil": 3475,
      "fra": 3476,
      "conce": 3477,
      "##tificacion": 3478,
      "garantizar": 3479,
      "inmedia": 3480,
      "desemp": 3481,
      "propia": 3482,
      "ampl": 3483,
      "tio": 3484,
      "##tia": 3485,
      "##ork": 3486,
      "enter": 3487,
      "##wa": 3488,
      "fuerte": 3489,
      "##cepto": 3490,
      "comb": 3491,
      "efecto": 3492,
      "buenos": 3493,
      "junto": 3494,
      "presupuesto": 3495,
      "197": 3496,
      "##ly": 3497,
      "feder": 3498,
      "##adora": 3499,
      "encuentra": 3500,
      "zonas": 3501,
      "at": 3502,
      "##arte": 3503,
      "miedo": 3504,
      "##manas": 3505,
      "debate": 3506,
      "ll": 3507,
      "”.": 3508,
      "posicion": 3509,
      "discrimin": 3510,
      "resultado": 3511,
      "web": 3512,
      "hija": 3513,
      "ojos": 3514,
      "##lica": 3515,
      "espacio": 3516,
      "fortal": 3517,
      "superior": 3518,
      "prior": 3519,
      "40": 3520,
      "origin": 3521,
      "chico": 3522,
      "concre": 3523,
      "##isis": 3524,
      "explic": 3525,
      "##ki": 3526,
      "exig": 3527,
      "simplemente": 3528,
      "ingles": 3529,
      "pensar": 3530,
      "sesion": 3531,
      "viene": 3532,
      "alre": 3533,
      "existe": 3534,
      "adios": 3535,
      "##amas": 3536,
      "reino": 3537,
      "dij": 3538,
      "cap": 3539,
      "secretaria": 3540,
      "asunto": 3541,
      "##ete": 3542,
      "cuidado": 3543,
      "av": 3544,
      "quienes": 3545,
      "bur": 3546,
      "vid": 3547,
      "hacen": 3548,
      "comercial": 3549,
      "hubiera": 3550,
      "texto": 3551,
      "crear": 3552,
      "ital": 3553,
      "mil": 3554,
      "disfru": 3555,
      "responsabilidad": 3556,
      "##miti": 3557,
      "demos": 3558,
      "opinion": 3559,
      "##pcion": 3560,
      "refer": 3561,
      "imagen": 3562,
      "##illo": 3563,
      "doctor": 3564,
      "ultimos": 3565,
      "regu": 3566,
      "adicion": 3567,
      "##itario": 3568,
      "enc": 3569,
      "fui": 3570,
      "compan": 3571,
      "padres": 3572,
      "suf": 3573,
      "ara": 3574,
      "relig": 3575,
      "quin": 3576,
      "establecer": 3577,
      "tuvo": 3578,
      "sorp": 3579,
      "hotel": 3580,
      "imag": 3581,
      "bos": 3582,
      "##xim": 3583,
      "campo": 3584,
      "departamento": 3585,
      "suerte": 3586,
      "distrib": 3587,
      "##ny": 3588,
      "feliz": 3589,
      "ingres": 3590,
      "podia": 3591,
      "medico": 3592,
      "john": 3593,
      "representante": 3594,
      "##istan": 3595,
      "producto": 3596,
      "credi": 3597,
      "##imen": 3598,
      "cee": 3599,
      "contr": 3600,
      "expor": 3601,
      "maxi": 3602,
      "##itaria": 3603,
      "esposa": 3604,
      "entrar": 3605,
      "##tancias": 3606,
      "constr": 3607,
      "##yan": 3608,
      "bienes": 3609,
      "coche": 3610,
      "cree": 3611,
      "excl": 3612,
      "##vien": 3613,
      "creer": 3614,
      "ejecucion": 3615,
      "##ilar": 3616,
      "bre": 3617,
      "len": 3618,
      "histor": 3619,
      "##eci": 3620,
      "jovenes": 3621,
      "venir": 3622,
      "##culo": 3623,
      "regional": 3624,
      "##terna": 3625,
      "##ins": 3626,
      "prueba": 3627,
      "virtud": 3628,
      "gastos": 3629,
      "proto": 3630,
      "eleg": 3631,
      "llama": 3632,
      "estableci": 3633,
      "supongo": 3634,
      "teniendo": 3635,
      "financiacion": 3636,
      "alta": 3637,
      "##later": 3638,
      "tecnologia": 3639,
      "correspond": 3640,
      "##rad": 3641,
      "##izado": 3642,
      "ellas": 3643,
      "inm": 3644,
      "”,": 3645,
      "patr": 3646,
      "##fia": 3647,
      "trabajadores": 3648,
      "vivir": 3649,
      "recib": 3650,
      "regimen": 3651,
      "##ley": 3652,
      "##bur": 3653,
      "comunidades": 3654,
      "##una": 3655,
      "propio": 3656,
      "proces": 3657,
      "char": 3658,
      "##rido": 3659,
      "america": 3660,
      "##ko": 3661,
      "consid": 3662,
      "##brero": 3663,
      "mex": 3664,
      "##quia": 3665,
      "cli": 3666,
      "eur": 3667,
      "##eme": 3668,
      "estudios": 3669,
      "arriba": 3670,
      "iglesia": 3671,
      "crisis": 3672,
      "codigo": 3673,
      "dr": 3674,
      "referencia": 3675,
      "levan": 3676,
      "revis": 3677,
      "necesitamos": 3678,
      "##iga": 3679,
      "##cados": 3680,
      "capital": 3681,
      "sig": 3682,
      "refle": 3683,
      "rey": 3684,
      "buscar": 3685,
      "##ph": 3686,
      "##olver": 3687,
      "libro": 3688,
      "##cional": 3689,
      "hey": 3690,
      "fuerzas": 3691,
      "analisis": 3692,
      "lograr": 3693,
      "##onia": 3694,
      "incor": 3695,
      "mantenimiento": 3696,
      "ros": 3697,
      "usu": 3698,
      "permite": 3699,
      "enfr": 3700,
      "seccion": 3701,
      "frecu": 3702,
      "##enas": 3703,
      "entiendo": 3704,
      "desta": 3705,
      "interior": 3706,
      "pales": 3707,
      "manda": 3708,
      "ajus": 3709,
      "partido": 3710,
      "relativa": 3711,
      "universidad": 3712,
      "pin": 3713,
      "obtener": 3714,
      "##ty": 3715,
      "##andon": 3716,
      "exito": 3717,
      "##amental": 3718,
      "##dra": 3719,
      "pertin": 3720,
      "gobiernos": 3721,
      "ciudadanos": 3722,
      "der": 3723,
      "puedan": 3724,
      "aba": 3725,
      "##ick": 3726,
      "testi": 3727,
      "##eis": 3728,
      "##encial": 3729,
      "tendra": 3730,
      "golpe": 3731,
      ");": 3732,
      "tranqui": 3733,
      "fil": 3734,
      "documentos": 3735,
      "segura": 3736,
      "preguntas": 3737,
      "alrededor": 3738,
      "##quer": 3739,
      "##ub": 3740,
      "precio": 3741,
      "promover": 3742,
      "##char": 3743,
      "estrategia": 3744,
      "cump": 3745,
      "fron": 3746,
      "vues": 3747,
      "##ner": 3748,
      "cultur": 3749,
      "individ": 3750,
      "causa": 3751,
      "vino": 3752,
      "chi": 3753,
      "pagar": 3754,
      "##ibles": 3755,
      "haz": 3756,
      "##illa": 3757,
      "varias": 3758,
      "lleva": 3759,
      "atras": 3760,
      "ori": 3761,
      "propiedad": 3762,
      "evitar": 3763,
      "organismos": 3764,
      "afir": 3765,
      "frances": 3766,
      "territorio": 3767,
      "hare": 3768,
      "fom": 3769,
      "tare": 3770,
      "relativas": 3771,
      "ambito": 3772,
      "preocu": 3773,
      "protocol": 3774,
      "domin": 3775,
      "pruebas": 3776,
      "##uciones": 3777,
      "regionales": 3778,
      "##poco": 3779,
      "rod": 3780,
      "entien": 3781,
      "pros": 3782,
      "bri": 3783,
      "##cemos": 3784,
      "##culos": 3785,
      "japon": 3786,
      "quisi": 3787,
      "tampoco": 3788,
      "crecimiento": 3789,
      "encuen": 3790,
      "global": 3791,
      "hospi": 3792,
      "tales": 3793,
      "##oc": 3794,
      "##tamos": 3795,
      "mejores": 3796,
      "telefono": 3797,
      "##torios": 3798,
      "##imon": 3799,
      "##ira": 3800,
      "##taron": 3801,
      "bebe": 3802,
      "pobreza": 3803,
      "##gon": 3804,
      "ambos": 3805,
      "quieren": 3806,
      "jesus": 3807,
      "diciendo": 3808,
      "##elos": 3809,
      "deman": 3810,
      "actividad": 3811,
      "israel": 3812,
      "habria": 3813,
      "preci": 3814,
      "locales": 3815,
      "##umen": 3816,
      "articulos": 3817,
      "far": 3818,
      "fan": 3819,
      "acog": 3820,
      "seleccion": 3821,
      "##ps": 3822,
      "tipos": 3823,
      "##ack": 3824,
      "comida": 3825,
      "pequena": 3826,
      "vend": 3827,
      "##bres": 3828,
      "separ": 3829,
      "extr": 3830,
      "legislacion": 3831,
      "resta": 3832,
      "##yos": 3833,
      "diez": 3834,
      "autoridad": 3835,
      "##mado": 3836,
      "##ign": 3837,
      "##ciste": 3838,
      "probablemente": 3839,
      "economia": 3840,
      "viejo": 3841,
      "##gada": 3842,
      "estuvi": 3843,
      "hom": 3844,
      "vac": 3845,
      "veh": 3846,
      "abajo": 3847,
      "comien": 3848,
      "pacientes": 3849,
      "##uicio": 3850,
      "banco": 3851,
      "plen": 3852,
      "enfo": 3853,
      "2010": 3854,
      "pagina": 3855,
      "tas": 3856,
      "abog": 3857,
      "mensaje": 3858,
      "##icana": 3859,
      "conoz": 3860,
      "pesar": 3861,
      "promocion": 3862,
      "york": 3863,
      "usar": 3864,
      "vease": 3865,
      "podrian": 3866,
      "obstante": 3867,
      "asociacion": 3868,
      "corte": 3869,
      "hermos": 3870,
      "##ell": 3871,
      "semanas": 3872,
      "tecnica": 3873,
      "victimas": 3874,
      "debi": 3875,
      "##isticas": 3876,
      "viaje": 3877,
      "##zada": 3878,
      "refu": 3879,
      "alqui": 3880,
      "dich": 3881,
      "practicas": 3882,
      "##leg": 3883,
      "profes": 3884,
      "representantes": 3885,
      "seran": 3886,
      "##inado": 3887,
      "asim": 3888,
      "sue": 3889,
      "sabemos": 3890,
      "dejame": 3891,
      "conduc": 3892,
      "consigu": 3893,
      "##erno": 3894,
      "ocas": 3895,
      "##pu": 3896,
      "aire": 3897,
      "discriminacion": 3898,
      "##amento": 3899,
      "vuelta": 3900,
      "recomendaciones": 3901,
      "tro": 3902,
      "dev": 3903,
      "reduccion": 3904,
      "exactamente": 3905,
      "sam": 3906,
      "##terios": 3907,
      "desapar": 3908,
      "bra": 3909,
      "inici": 3910,
      "conjunto": 3911,
      "cantidad": 3912,
      "esperar": 3913,
      "cargo": 3914,
      "plante": 3915,
      "coordinacion": 3916,
      "sola": 3917,
      "debes": 3918,
      "##pia": 3919,
      "vigil": 3920,
      "puntos": 3921,
      "peli": 3922,
      "enci": 3923,
      "lon": 3924,
      "perten": 3925,
      "ministerio": 3926,
      "##idamente": 3927,
      "contacto": 3928,
      "trato": 3929,
      "encontr": 3930,
      "dijiste": 3931,
      "acom": 3932,
      "igualdad": 3933,
      "##sas": 3934,
      "##??": 3935,
      "calle": 3936,
      "compromiso": 3937,
      "escucha": 3938,
      "##ff": 3939,
      "mir": 3940,
      "##imos": 3941,
      "niveles": 3942,
      "penal": 3943,
      "##nas": 3944,
      "jer": 3945,
      "popul": 3946,
      "buscando": 3947,
      "##ienta": 3948,
      "estad": 3949,
      "resto": 3950,
      ".,": 3951,
      "terrorismo": 3952,
      "##jero": 3953,
      "noti": 3954,
      "ud": 3955,
      "explo": 3956,
      "conserv": 3957,
      "francia": 3958,
      "estara": 3959,
      "acciones": 3960,
      "austr": 3961,
      "##ges": 3962,
      "llamado": 3963,
      "utilizar": 3964,
      "ministro": 3965,
      "detec": 3966,
      "abandon": 3967,
      "mone": 3968,
      "##lin": 3969,
      "politicos": 3970,
      "febrero": 3971,
      "actualmente": 3972,
      "evid": 3973,
      "##her": 3974,
      "discu": 3975,
      "categ": 3976,
      "anterior": 3977,
      "quedar": 3978,
      "##...": 3979,
      "matr": 3980,
      "especiales": 3981,
      "hogar": 3982,
      "circ": 3983,
      "dem": 3984,
      "##tino": 3985,
      "civi": 3986,
      "vari": 3987,
      "muer": 3988,
      "asign": 3989,
      "numeros": 3990,
      "asegurar": 3991,
      "geor": 3992,
      "ee": 3993,
      "procedimientos": 3994,
      "medic": 3995,
      "interc": 3996,
      "cambiar": 3997,
      "electron": 3998,
      "propuestas": 3999,
      "aspectos": 4000,
      "aquellos": 4001,
      "permanente": 4002,
      "satisf": 4003,
      "presentar": 4004,
      "fij": 4005,
      "esca": 4006,
      "pasando": 4007,
      "clima": 4008,
      "acabo": 4009,
      "ido": 4010,
      "hago": 4011,
      "competencia": 4012,
      "##bernamentales": 4013,
      "proteger": 4014,
      "prision": 4015,
      "impues": 4016,
      "##omas": 4017,
      "fiesta": 4018,
      "##laz": 4019,
      "absolu": 4020,
      "mue": 4021,
      "fer": 4022,
      "hayan": 4023,
      "refiere": 4024,
      "tempor": 4025,
      "60": 4026,
      "reducir": 4027,
      "elementos": 4028,
      "dispuesto": 4029,
      "dolor": 4030,
      "fiscal": 4031,
      "perfec": 4032,
      "##tres": 4033,
      "cambios": 4034,
      "industria": 4035,
      "apor": 4036,
      "entrada": 4037,
      "agos": 4038,
      "tratar": 4039,
      "cuarto": 4040,
      "diver": 4041,
      "maes": 4042,
      "presion": 4043,
      "internet": 4044,
      "mesa": 4045,
      "##tador": 4046,
      "naturaleza": 4047,
      "rob": 4048,
      "origen": 4049,
      "suje": 4050,
      "##tiendo": 4051,
      "##entando": 4052,
      "movimiento": 4053,
      "##yas": 4054,
      "condicion": 4055,
      "venga": 4056,
      "organos": 4057,
      "##zones": 4058,
      "2011": 4059,
      "sala": 4060,
      "hiciste": 4061,
      "ofrece": 4062,
      "##orias": 4063,
      "solamente": 4064,
      "peligr": 4065,
      "agosto": 4066,
      "ed": 4067,
      "fuego": 4068,
      "expertos": 4069,
      "vos": 4070,
      "acon": 4071,
      "tradicion": 4072,
      "material": 4073,
      "conden": 4074,
      "cha": 4075,
      "##ension": 4076,
      "realizar": 4077,
      "contexto": 4078,
      "mismos": 4079,
      "##jeros": 4080,
      "pago": 4081,
      "contar": 4082,
      "destr": 4083,
      "sostenible": 4084,
      "##ciente": 4085,
      "anad": 4086,
      "llamar": 4087,
      "cielo": 4088,
      "acuerdos": 4089,
      "##quisi": 4090,
      "mara": 4091,
      "##ense": 4092,
      "normal": 4093,
      "asimismo": 4094,
      "##tarios": 4095,
      "genero": 4096,
      "##para": 4097,
      "##ide": 4098,
      "##enos": 4099,
      "##rantes": 4100,
      "habitacion": 4101,
      "##icula": 4102,
      "ste": 4103,
      "defensa": 4104,
      "manif": 4105,
      "##bamos": 4106,
      "##amer": 4107,
      "profun": 4108,
      "perder": 4109,
      "hol": 4110,
      "espan": 4111,
      "acus": 4112,
      "ada": 4113,
      "sent": 4114,
      "exten": 4115,
      "estuvo": 4116,
      "pun": 4117,
      "##citacion": 4118,
      "modelo": 4119,
      "ejercicio": 4120,
      "##tual": 4121,
      "media": 4122,
      "deberias": 4123,
      "hospital": 4124,
      "cumplir": 4125,
      "protocolo": 4126,
      "lider": 4127,
      "directamente": 4128,
      "pis": 4129,
      "perd": 4130,
      "pedir": 4131,
      "queremos": 4132,
      "gal": 4133,
      "lejos": 4134,
      "presentacion": 4135,
      "pena": 4136,
      "existen": 4137,
      "cr": 4138,
      "1998": 4139,
      "consecuencia": 4140,
      "aprobacion": 4141,
      "musica": 4142,
      "35": 4143,
      "alemania": 4144,
      "profesional": 4145,
      "deberian": 4146,
      "estim": 4147,
      "curso": 4148,
      "animales": 4149,
      "construccion": 4150,
      "pueblos": 4151,
      "adoptar": 4152,
      "##com": 4153,
      "asis": 4154,
      "gar": 4155,
      "luc": 4156,
      "nave": 4157,
      "espana": 4158,
      "cultura": 4159,
      "listo": 4160,
      "##ormente": 4161,
      "utilizacion": 4162,
      "impos": 4163,
      "obli": 4164,
      "judi": 4165,
      "equivo": 4166,
      "muestra": 4167,
      "rusia": 4168,
      "##aras": 4169,
      "mexico": 4170,
      "quisiera": 4171,
      "debera": 4172,
      "cumplimiento": 4173,
      "llamada": 4174,
      "##imonio": 4175,
      "participar": 4176,
      "dejo": 4177,
      "##entan": 4178,
      "casti": 4179,
      "deberiamos": 4180,
      "vigor": 4181,
      "##cidente": 4182,
      "):": 4183,
      "intelig": 4184,
      "propon": 4185,
      "confir": 4186,
      "adap": 4187,
      "demon": 4188,
      "llevo": 4189,
      "culpa": 4190,
      "aver": 4191,
      "temas": 4192,
      "dicen": 4193,
      "reuniones": 4194,
      "ham": 4195,
      "continuacion": 4196,
      "malo": 4197,
      "##alogo": 4198,
      "##pol": 4199,
      "##bia": 4200,
      "terc": 4201,
      "conocimiento": 4202,
      "registro": 4203,
      "gre": 4204,
      "some": 4205,
      "dur": 4206,
      "dame": 4207,
      "capitu": 4208,
      "ocu": 4209,
      "excel": 4210,
      "aten": 4211,
      "conex": 4212,
      "saben": 4213,
      "jod": 4214,
      "suel": 4215,
      "comis": 4216,
      "suminis": 4217,
      "habra": 4218,
      "pensando": 4219,
      "representa": 4220,
      "correcto": 4221,
      "valores": 4222,
      "diferente": 4223,
      "infl": 4224,
      "##aro": 4225,
      "unido": 4226,
      "convers": 4227,
      "extre": 4228,
      "aplicar": 4229,
      "gua": 4230,
      "respeto": 4231,
      "bras": 4232,
      "comba": 4233,
      "experim": 4234,
      "figura": 4235,
      "carr": 4236,
      "politico": 4237,
      "agricul": 4238,
      "##mes": 4239,
      "196": 4240,
      "##estruc": 4241,
      "deseo": 4242,
      "mala": 4243,
      "llamo": 4244,
      "##echo": 4245,
      "compania": 4246,
      "desarroll": 4247,
      "morir": 4248,
      "dime": 4249,
      "prevencion": 4250,
      "sentir": 4251,
      "capitan": 4252,
      "dra": 4253,
      "##amentos": 4254,
      "establecimiento": 4255,
      "entender": 4256,
      "##mbre": 4257,
      "##gando": 4258,
      "loco": 4259,
      "##izados": 4260,
      "emb": 4261,
      "asesina": 4262,
      "dices": 4263,
      "pide": 4264,
      "##rim": 4265,
      "convenio": 4266,
      "noticias": 4267,
      "produ": 4268,
      "poten": 4269,
      "jugar": 4270,
      "##bilidades": 4271,
      "mem": 4272,
      "estabas": 4273,
      "##teriormente": 4274,
      "mitad": 4275,
      "elev": 4276,
      "mente": 4277,
      "funciones": 4278,
      "incorpor": 4279,
      "emo": 4280,
      "actos": 4281,
      "enmien": 4282,
      "prohi": 4283,
      "regiones": 4284,
      "ejercito": 4285,
      "##esa": 4286,
      "##rian": 4287,
      "apren": 4288,
      "##lizacion": 4289,
      "ok": 4290,
      "##by": 4291,
      "##posito": 4292,
      "dialogo": 4293,
      "noches": 4294,
      "##leo": 4295,
      "maqu": 4296,
      "pelicula": 4297,
      "jack": 4298,
      "cuentas": 4299,
      "drogas": 4300,
      "ras": 4301,
      "mani": 4302,
      "salvo": 4303,
      "planes": 4304,
      "cuadro": 4305,
      "##isa": 4306,
      "generales": 4307,
      "color": 4308,
      "defini": 4309,
      "gui": 4310,
      "##table": 4311,
      "cafe": 4312,
      "iniciativa": 4313,
      "##ficul": 4314,
      "cere": 4315,
      "clientes": 4316,
      "##pro": 4317,
      "bienven": 4318,
      "dicha": 4319,
      "rio": 4320,
      "dif": 4321,
      "puestos": 4322,
      "instrumentos": 4323,
      "ofer": 4324,
      "interpre": 4325,
      "mane": 4326,
      "dificul": 4327,
      "grave": 4328,
      "solicitud": 4329,
      "duda": 4330,
      "desarrol": 4331,
      "##tividad": 4332,
      "cad": 4333,
      "##uns": 4334,
      "junta": 4335,
      "lic": 4336,
      "necesitas": 4337,
      "##ker": 4338,
      "tuve": 4339,
      "llego": 4340,
      "##izada": 4341,
      "vivo": 4342,
      "mandato": 4343,
      "32": 4344,
      "hara": 4345,
      "esperando": 4346,
      "pertinentes": 4347,
      ")*": 4348,
      "impresion": 4349,
      "pase": 4350,
      "pul": 4351,
      "siete": 4352,
      "cama": 4353,
      "##ticamente": 4354,
      "hel": 4355,
      "apre": 4356,
      "subs": 4357,
      "provision": 4358,
      "aproxim": 4359,
      "leyes": 4360,
      "##dado": 4361,
      "reserv": 4362,
      "##enso": 4363,
      "maravil": 4364,
      "establecido": 4365,
      "descub": 4366,
      "lugares": 4367,
      "hal": 4368,
      "totalmente": 4369,
      "antigu": 4370,
      "repar": 4371,
      "venido": 4372,
      "tre": 4373,
      "##gh": 4374,
      "termino": 4375,
      "##orro": 4376,
      "eficaz": 4377,
      "conozco": 4378,
      "iz": 4379,
      "asia": 4380,
      "hermana": 4381,
      "##titud": 4382,
      "##guen": 4383,
      "empezar": 4384,
      "crimen": 4385,
      "quim": 4386,
      "fuente": 4387,
      "##ane": 4388,
      "aumentar": 4389,
      "sexo": 4390,
      "bes": 4391,
      "pec": 4392,
      "resulta": 4393,
      "##capa": 4394,
      "funcionarios": 4395,
      "##este": 4396,
      "amo": 4397,
      "il": 4398,
      "idio": 4399,
      "ub": 4400,
      "gobern": 4401,
      "podrias": 4402,
      "humano": 4403,
      "financieros": 4404,
      "entren": 4405,
      "oido": 4406,
      "brasil": 4407,
      "za": 4408,
      "unidad": 4409,
      "compro": 4410,
      "peor": 4411,
      "2012": 4412,
      "contenido": 4413,
      "45": 4414,
      "vesti": 4415,
      "##oro": 4416,
      "gubernamentales": 4417,
      "colaboracion": 4418,
      "oficiales": 4419,
      "centros": 4420,
      "area": 4421,
      "aero": 4422,
      "turis": 4423,
      "arte": 4424,
      "adopcion": 4425,
      "acaba": 4426,
      "tomo": 4427,
      "##orta": 4428,
      "camara": 4429,
      "completamente": 4430,
      "obligaciones": 4431,
      "popular": 4432,
      "marcha": 4433,
      "facilitar": 4434,
      "piensa": 4435,
      "ingresos": 4436,
      "transform": 4437,
      "##udi": 4438,
      "murio": 4439,
      "...?": 4440,
      "##ferencias": 4441,
      "facili": 4442,
      "nucleares": 4443,
      "considera": 4444,
      "bru": 4445,
      "informa": 4446,
      "alimentos": 4447,
      "delegacion": 4448,
      "podran": 4449,
      "interna": 4450,
      "permi": 4451,
      "recha": 4452,
      "chicas": 4453,
      "##brio": 4454,
      "error": 4455,
      "compon": 4456,
      "intereses": 4457,
      "euros": 4458,
      "##tit": 4459,
      "llegado": 4460,
      "familias": 4461,
      "fantas": 4462,
      "enfermedad": 4463,
      "##ws": 4464,
      "depen": 4465,
      "economicos": 4466,
      "acompan": 4467,
      "##orn": 4468,
      "constitucion": 4469,
      "requier": 4470,
      "reserva": 4471,
      "radio": 4472,
      "consol": 4473,
      "arma": 4474,
      "financiera": 4475,
      "iniciativas": 4476,
      "costa": 4477,
      "perspec": 4478,
      "##mor": 4479,
      "##vamente": 4480,
      "agric": 4481,
      "wil": 4482,
      "##inario": 4483,
      "vete": 4484,
      "presupues": 4485,
      "ecu": 4486,
      "busque": 4487,
      "independiente": 4488,
      "##amientos": 4489,
      "comprome": 4490,
      "##viendo": 4491,
      "##tiz": 4492,
      "disposicion": 4493,
      "campana": 4494,
      "encima": 4495,
      "consecuencias": 4496,
      "refugi": 4497,
      "menor": 4498,
      "recibir": 4499,
      "perdido": 4500,
      "arro": 4501,
      "relativo": 4502,
      "reforma": 4503,
      "deje": 4504,
      "nina": 4505,
      "cabal": 4506,
      "inversion": 4507,
      "##jado": 4508,
      "estacion": 4509,
      "trabajando": 4510,
      "sosp": 4511,
      "lec": 4512,
      "ensa": 4513,
      "privado": 4514,
      "##dentes": 4515,
      "honor": 4516,
      "bro": 4517,
      "provo": 4518,
      "india": 4519,
      "\"?": 4520,
      "##jeron": 4521,
      "detras": 4522,
      "##tana": 4523,
      "dismin": 4524,
      "obra": 4525,
      "fines": 4526,
      "funcionamiento": 4527,
      "recibi": 4528,
      "aprov": 4529,
      "alcanzar": 4530,
      "archivo": 4531,
      "tratando": 4532,
      "presenta": 4533,
      "menudo": 4534,
      "##bu": 4535,
      "depend": 4536,
      "presencia": 4537,
      "pelo": 4538,
      "pelig": 4539,
      "video": 4540,
      "retir": 4541,
      "confianza": 4542,
      "peligro": 4543,
      "fundamental": 4544,
      "##bio": 4545,
      "escon": 4546,
      "preocupacion": 4547,
      "##blemente": 4548,
      "voz": 4549,
      "##gica": 4550,
      "acos": 4551,
      "destino": 4552,
      "##ky": 4553,
      "dedic": 4554,
      "preven": 4555,
      "completo": 4556,
      "metodo": 4557,
      "dom": 4558,
      "diario": 4559,
      "##tificado": 4560,
      "lig": 4561,
      "recuerdo": 4562,
      "capitulo": 4563,
      "##cil": 4564,
      "##grafia": 4565,
      "##ment": 4566,
      "##vera": 4567,
      "##alia": 4568,
      "relacionados": 4569,
      "seguimiento": 4570,
      "negocios": 4571,
      "permitir": 4572,
      "ropa": 4573,
      "##tero": 4574,
      "verte": 4575,
      "candida": 4576,
      "engan": 4577,
      "descon": 4578,
      "mercados": 4579,
      "elecciones": 4580,
      "desea": 4581,
      "conflicto": 4582,
      "##teras": 4583,
      "##ices": 4584,
      "adul": 4585,
      "apropi": 4586,
      "pier": 4587,
      "norma": 4588,
      "conflictos": 4589,
      "jos": 4590,
      "anun": 4591,
      "1997": 4592,
      "diferencia": 4593,
      "baja": 4594,
      "##ologia": 4595,
      "efectu": 4596,
      "##itarios": 4597,
      "duro": 4598,
      "finalmente": 4599,
      "hue": 4600,
      "##gio": 4601,
      "##zan": 4602,
      "cole": 4603,
      "gi": 4604,
      "##uma": 4605,
      "tex": 4606,
      "##oluciones": 4607,
      "##ude": 4608,
      "##torno": 4609,
      "proximo": 4610,
      "estatu": 4611,
      "dificultad": 4612,
      "esco": 4613,
      "recor": 4614,
      "reclam": 4615,
      "considerando": 4616,
      "hubo": 4617,
      "pienso": 4618,
      "siglo": 4619,
      "izquier": 4620,
      "peti": 4621,
      "humana": 4622,
      "ali": 4623,
      "agentes": 4624,
      "tengan": 4625,
      "##illas": 4626,
      "carne": 4627,
      "examinar": 4628,
      "trafico": 4629,
      "fundamentales": 4630,
      "##ok": 4631,
      "##cular": 4632,
      "sectores": 4633,
      "establece": 4634,
      "compren": 4635,
      "cliente": 4636,
      "supone": 4637,
      "##gacion": 4638,
      "##puer": 4639,
      "terr": 4640,
      "500": 4641,
      "##tidos": 4642,
      "##entarios": 4643,
      "necesarias": 4644,
      "alquiler": 4645,
      "despe": 4646,
      "circuns": 4647,
      "om": 4648,
      "aleg": 4649,
      "##licidad": 4650,
      "encontra": 4651,
      "maximo": 4652,
      "determinar": 4653,
      "rur": 4654,
      "preguntar": 4655,
      "2013": 4656,
      "incluye": 4657,
      "##uos": 4658,
      "##my": 4659,
      "##arian": 4660,
      "##irse": 4661,
      "##unid": 4662,
      "angel": 4663,
      "##usiones": 4664,
      "asus": 4665,
      "nega": 4666,
      "##quis": 4667,
      "##quisitos": 4668,
      "mia": 4669,
      "operacion": 4670,
      "##uye": 4671,
      "juicio": 4672,
      "##tida": 4673,
      "eleccion": 4674,
      "materiales": 4675,
      "##at": 4676,
      "asum": 4677,
      "motivo": 4678,
      "competi": 4679,
      "marido": 4680,
      "vosotros": 4681,
      "aeropuer": 4682,
      "iii": 4683,
      "etc": 4684,
      "##icanos": 4685,
      "division": 4686,
      "basta": 4687,
      "emerg": 4688,
      "visita": 4689,
      "##osos": 4690,
      "requisitos": 4691,
      "capacitacion": 4692,
      "recuper": 4693,
      "enfoque": 4694,
      "intencion": 4695,
      "##entaria": 4696,
      "##use": 4697,
      "empi": 4698,
      "vision": 4699,
      "##he": 4700,
      "##bes": 4701,
      "pequenos": 4702,
      "idi": 4703,
      "##pl": 4704,
      "sens": 4705,
      "incluidos": 4706,
      "##ieron": 4707,
      "##icano": 4708,
      "##iculo": 4709,
      "hagas": 4710,
      "reconocimiento": 4711,
      "capaz": 4712,
      "larga": 4713,
      "amplia": 4714,
      "inno": 4715,
      "estudiantes": 4716,
      "contrario": 4717,
      "desper": 4718,
      "artis": 4719,
      "vivi": 4720,
      "encontrado": 4721,
      "vigilancia": 4722,
      "90": 4723,
      "repro": 4724,
      "33": 4725,
      "crea": 4726,
      "infra": 4727,
      "relacionadas": 4728,
      "agente": 4729,
      "##lad": 4730,
      "blanco": 4731,
      "magn": 4732,
      "salida": 4733,
      "##lec": 4734,
      "##ft": 4735,
      "estadounid": 4736,
      "italia": 4737,
      "hacemos": 4738,
      "perj": 4739,
      "examin": 4740,
      "mecanismos": 4741,
      "manifes": 4742,
      "comprar": 4743,
      "pidio": 4744,
      "km": 4745,
      "escrito": 4746,
      "rea": 4747,
      "bio": 4748,
      "ocho": 4749,
      "impac": 4750,
      "##ducido": 4751,
      "negocio": 4752,
      "sexual": 4753,
      "34": 4754,
      "ph": 4755,
      "contrato": 4756,
      "instituto": 4757,
      "responsable": 4758,
      "prem": 4759,
      "1995": 4760,
      "trabajos": 4761,
      "lengua": 4762,
      "irlan": 4763,
      "80": 4764,
      "##tiene": 4765,
      "cualquiera": 4766,
      "gusto": 4767,
      "deri": 4768,
      "##itarias": 4769,
      "##oda": 4770,
      "##tien": 4771,
      "resoluciones": 4772,
      "poli": 4773,
      "ofrecer": 4774,
      "##rend": 4775,
      "concepto": 4776,
      "resolver": 4777,
      "terreno": 4778,
      "1996": 4779,
      "enorm": 4780,
      "perdida": 4781,
      "pequenas": 4782,
      "infer": 4783,
      "razones": 4784,
      "proxima": 4785,
      "##ys": 4786,
      "desas": 4787,
      "impul": 4788,
      "ayer": 4789,
      "rum": 4790,
      "##hesion": 4791,
      "menores": 4792,
      "religios": 4793,
      "##ego": 4794,
      "peso": 4795,
      "55": 4796,
      "##ivo": 4797,
      "##jan": 4798,
      "limpi": 4799,
      "coches": 4800,
      "respec": 4801,
      "integracion": 4802,
      "voluntad": 4803,
      "vio": 4804,
      "aprovech": 4805,
      "fas": 4806,
      "europeas": 4807,
      "necesitan": 4808,
      "terminos": 4809,
      "frank": 4810,
      "nar": 4811,
      "##idores": 4812,
      "##llas": 4813,
      "alterna": 4814,
      "opcion": 4815,
      "reno": 4816,
      "descan": 4817,
      "##terias": 4818,
      "dinam": 4819,
      "oportunidades": 4820,
      "democracia": 4821,
      "esten": 4822,
      "transpar": 4823,
      "civiles": 4824,
      "vemos": 4825,
      "##alidad": 4826,
      "prensa": 4827,
      "version": 4828,
      "##talla": 4829,
      "escala": 4830,
      "consumo": 4831,
      "portu": 4832,
      "##tern": 4833,
      "hicieron": 4834,
      "dano": 4835,
      "##nud": 4836,
      "busca": 4837,
      "dormir": 4838,
      "ocasion": 4839,
      "sum": 4840,
      "##trices": 4841,
      "revolucion": 4842,
      "edificio": 4843,
      "ul": 4844,
      "tratados": 4845,
      "visitas": 4846,
      "secu": 4847,
      "occid": 4848,
      "refugiados": 4849,
      "##tible": 4850,
      "##elas": 4851,
      "especie": 4852,
      "hid": 4853,
      "cristo": 4854,
      "delito": 4855,
      "exterior": 4856,
      "estructura": 4857,
      "##uera": 4858,
      "##ulas": 4859,
      "almacen": 4860,
      "##iva": 4861,
      "##ezas": 4862,
      "##cioso": 4863,
      "##genas": 4864,
      "uh": 4865,
      "puta": 4866,
      "vuelve": 4867,
      "oir": 4868,
      "excepcion": 4869,
      "distintos": 4870,
      "innov": 4871,
      "##ibilidad": 4872,
      "club": 4873,
      "cic": 4874,
      "tes": 4875,
      "##osas": 4876,
      "preten": 4877,
      "carga": 4878,
      "pose": 4879,
      "ire": 4880,
      "##ise": 4881,
      "##dimiento": 4882,
      "boca": 4883,
      "demonios": 4884,
      "paris": 4885,
      "miles": 4886,
      "evolucion": 4887,
      "abogado": 4888,
      "participantes": 4889,
      "36": 4890,
      "lad": 4891,
      "recibido": 4892,
      "siguen": 4893,
      "conoce": 4894,
      "restau": 4895,
      "presentado": 4896,
      "santo": 4897,
      "intento": 4898,
      "bom": 4899,
      "bano": 4900,
      "##ies": 4901,
      "entidades": 4902,
      "194": 4903,
      "criterios": 4904,
      "reglas": 4905,
      "conocido": 4906,
      "hun": 4907,
      "imper": 4908,
      "podriamos": 4909,
      "recuerda": 4910,
      "sacar": 4911,
      "democratica": 4912,
      "urg": 4913,
      "ep": 4914,
      "hechos": 4915,
      "asesor": 4916,
      "ganar": 4917,
      "escuchar": 4918,
      "avis": 4919,
      "vent": 4920,
      "caja": 4921,
      "supervision": 4922,
      "ileg": 4923,
      "provin": 4924,
      "arbol": 4925,
      "comerciales": 4926,
      "nº": 4927,
      "siente": 4928,
      "pudo": 4929,
      "minuto": 4930,
      "desarrollar": 4931,
      "maravillos": 4932,
      "##land": 4933,
      "finales": 4934,
      "credito": 4935,
      "procesos": 4936,
      "iran": 4937,
      "vul": 4938,
      "calla": 4939,
      "ambien": 4940,
      "odio": 4941,
      "encontre": 4942,
      "distribucion": 4943,
      "sar": 4944,
      "prove": 4945,
      "tren": 4946,
      "afuera": 4947,
      "legisla": 4948,
      "cumbre": 4949,
      "increible": 4950,
      "carrera": 4951,
      "?\"": 4952,
      "emision": 4953,
      "moles": 4954,
      "clave": 4955,
      "anual": 4956,
      "amar": 4957,
      "reglam": 4958,
      "claramente": 4959,
      "indigenas": 4960,
      "kil": 4961,
      "##olas": 4962,
      "letra": 4963,
      "mag": 4964,
      "velo": 4965,
      "plata": 4966,
      "isla": 4967,
      "bill": 4968,
      "##rias": 4969,
      "plenamente": 4970,
      "consiguiente": 4971,
      "##ecimiento": 4972,
      "cub": 4973,
      "adqui": 4974,
      "propios": 4975,
      "idiota": 4976,
      "##iales": 4977,
      "adoptado": 4978,
      "##unta": 4979,
      "diseno": 4980,
      "##ami": 4981,
      "util": 4982,
      "preparacion": 4983,
      "matrimonio": 4984,
      "renov": 4985,
      "haria": 4986,
      "muni": 4987,
      "planeta": 4988,
      "fotos": 4989,
      "inicial": 4990,
      "original": 4991,
      "arres": 4992,
      "caball": 4993,
      "votacion": 4994,
      "observaciones": 4995,
      "metodos": 4996,
      "oro": 4997,
      "##rados": 4998,
      "##ong": 4999,
      "continua": 5000,
      "cuya": 5001,
      "prepara": 5002,
      "fru": 5003,
      "suelo": 5004,
      "##isos": 5005,
      "##ficiencia": 5006,
      "convertir": 5007,
      "##istica": 5008,
      "estup": 5009,
      "maldita": 5010,
      "edu": 5011,
      "grado": 5012,
      "jamas": 5013,
      "doble": 5014,
      "incluir": 5015,
      "television": 5016,
      "eta": 5017,
      "pacto": 5018,
      "complem": 5019,
      "dosis": 5020,
      "cancer": 5021,
      "cristi": 5022,
      "expe": 5023,
      "fuentes": 5024,
      "negro": 5025,
      "deberan": 5026,
      "identific": 5027,
      "comunicaciones": 5028,
      "inmediatamente": 5029,
      "».": 5030,
      "vive": 5031,
      "##curso": 5032,
      "militares": 5033,
      "enem": 5034,
      "publicos": 5035,
      "alcance": 5036,
      "ps": 5037,
      "##eca": 5038,
      "leer": 5039,
      "ocurre": 5040,
      "##bon": 5041,
      "asesino": 5042,
      "57": 5043,
      "##mision": 5044,
      "##zando": 5045,
      "##enci": 5046,
      "##idacion": 5047,
      "perro": 5048,
      "minimo": 5049,
      "david": 5050,
      "##iculos": 5051,
      "##estructura": 5052,
      "ber": 5053,
      "##ificado": 5054,
      "mercan": 5055,
      "brin": 5056,
      "embara": 5057,
      "lla": 5058,
      "##wn": 5059,
      "armon": 5060,
      "herra": 5061,
      "##yn": 5062,
      "ens": 5063,
      "derecha": 5064,
      "transpor": 5065,
      "mayores": 5066,
      "modern": 5067,
      "bibl": 5068,
      "parr": 5069,
      "facul": 5070,
      "tercera": 5071,
      "revision": 5072,
      "silen": 5073,
      "mul": 5074,
      "mate": 5075,
      "clin": 5076,
      "puerto": 5077,
      "dul": 5078,
      "abord": 5079,
      "tome": 5080,
      "asesinato": 5081,
      "ciencia": 5082,
      "pobres": 5083,
      "adelan": 5084,
      "eliminacion": 5085,
      "respi": 5086,
      "colec": 5087,
      "refor": 5088,
      "preocupes": 5089,
      "titulo": 5090,
      "negociaciones": 5091,
      "vidas": 5092,
      "##enti": 5093,
      "proposito": 5094,
      "##adoras": 5095,
      "esperanza": 5096,
      "profesor": 5097,
      "convi": 5098,
      "mez": 5099,
      "terminado": 5100,
      "constituye": 5101,
      "sospech": 5102,
      "herramien": 5103,
      "70": 5104,
      "esencial": 5105,
      "funciona": 5106,
      "aus": 5107,
      "mc": 5108,
      "volumen": 5109,
      "completa": 5110,
      "familiar": 5111,
      "suena": 5112,
      "digas": 5113,
      "tenian": 5114,
      "necesarios": 5115,
      "usuarios": 5116,
      "carre": 5117,
      "riesgos": 5118,
      "##tim": 5119,
      "##ular": 5120,
      "disen": 5121,
      "195": 5122,
      "geo": 5123,
      "pone": 5124,
      "anoche": 5125,
      "conocimientos": 5126,
      "##ibe": 5127,
      "encuentran": 5128,
      "yu": 5129,
      "dire": 5130,
      "pregunto": 5131,
      "tarje": 5132,
      "##dy": 5133,
      "##uelas": 5134,
      "precis": 5135,
      "prestar": 5136,
      "darle": 5137,
      "ces": 5138,
      "##dieron": 5139,
      "petro": 5140,
      "flor": 5141,
      "##taba": 5142,
      "descar": 5143,
      "amenaza": 5144,
      "uu": 5145,
      "organismo": 5146,
      "observa": 5147,
      "docum": 5148,
      "consultas": 5149,
      "ensenanza": 5150,
      "ron": 5151,
      "##bios": 5152,
      "constante": 5153,
      "presidencia": 5154,
      "apoyar": 5155,
      "##gip": 5156,
      "victima": 5157,
      "apues": 5158,
      "abre": 5159,
      "redes": 5160,
      "plane": 5161,
      "invol": 5162,
      "sucede": 5163,
      "hues": 5164,
      "##ima": 5165,
      "fabric": 5166,
      "egip": 5167,
      "primeros": 5168,
      "opera": 5169,
      "aceptar": 5170,
      "adj": 5171,
      "pele": 5172,
      "##dera": 5173,
      "##idar": 5174,
      "salva": 5175,
      "ataque": 5176,
      "previsto": 5177,
      "37": 5178,
      "##pres": 5179,
      "##entario": 5180,
      "europeos": 5181,
      "diversos": 5182,
      "depor": 5183,
      "##idez": 5184,
      "bajos": 5185,
      "naturales": 5186,
      "lam": 5187,
      "sede": 5188,
      "equili": 5189,
      "incluyendo": 5190,
      "comunes": 5191,
      "indica": 5192,
      "cumple": 5193,
      "agricultura": 5194,
      "48": 5195,
      "presento": 5196,
      "hablo": 5197,
      "decirle": 5198,
      "santa": 5199,
      "secreto": 5200,
      "##arca": 5201,
      "##anda": 5202,
      "##gados": 5203,
      "##vista": 5204,
      "convir": 5205,
      "aleman": 5206,
      "inicio": 5207,
      "perfecto": 5208,
      "ayudas": 5209,
      "financiero": 5210,
      "profesionales": 5211,
      "nu": 5212,
      "apa": 5213,
      "diversas": 5214,
      "conciencia": 5215,
      "nic": 5216,
      "##ni": 5217,
      "##abe": 5218,
      "pesca": 5219,
      "pudiera": 5220,
      "diga": 5221,
      "respecta": 5222,
      "piel": 5223,
      "micro": 5224,
      "instrumento": 5225,
      "ec": 5226,
      "desarme": 5227,
      "##edores": 5228,
      "##gues": 5229,
      "ninas": 5230,
      "tomando": 5231,
      "economicas": 5232,
      "beneficios": 5233,
      "acto": 5234,
      "che": 5235,
      "instalaciones": 5236,
      "obliga": 5237,
      "aeropuerto": 5238,
      "##we": 5239,
      "##vidad": 5240,
      "enf": 5241,
      "##ificar": 5242,
      "defens": 5243,
      "institucion": 5244,
      "##ines": 5245,
      "conclusiones": 5246,
      "wal": 5247,
      "##han": 5248,
      "##viste": 5249,
      "##liza": 5250,
      "nie": 5251,
      "directrices": 5252,
      "eficacia": 5253,
      "extrano": 5254,
      "circunstancias": 5255,
      "56": 5256,
      "##au": 5257,
      "##cy": 5258,
      "##ienda": 5259,
      "estaria": 5260,
      "autorizacion": 5261,
      "simple": 5262,
      "regreso": 5263,
      "imposible": 5264,
      "delante": 5265,
      "excelente": 5266,
      "jim": 5267,
      "excepto": 5268,
      "obsta": 5269,
      "equipos": 5270,
      "posibles": 5271,
      "im": 5272,
      "sueno": 5273,
      "exclusi": 5274,
      "busqueda": 5275,
      "%)": 5276,
      "entra": 5277,
      "envio": 5278,
      "abrir": 5279,
      "correspondientes": 5280,
      "aproximadamente": 5281,
      "nom": 5282,
      "##uci": 5283,
      "##ccion": 5284,
      "obras": 5285,
      "cita": 5286,
      "##ficientes": 5287,
      "islas": 5288,
      "##burgo": 5289,
      "-¡": 5290,
      "tasa": 5291,
      "izquierda": 5292,
      "emergencia": 5293,
      "##tira": 5294,
      "incluida": 5295,
      "desempen": 5296,
      "42": 5297,
      "##lon": 5298,
      "multip": 5299,
      "ner": 5300,
      "sta": 5301,
      "necesaria": 5302,
      "relator": 5303,
      "disponibles": 5304,
      "celebrada": 5305,
      "##gara": 5306,
      "chris": 5307,
      "maria": 5308,
      "aprender": 5309,
      "fase": 5310,
      "wa": 5311,
      "metros": 5312,
      "incluidas": 5313,
      "===": 5314,
      "provisional": 5315,
      "sientes": 5316,
      "##ers": 5317,
      "debia": 5318,
      "publicas": 5319,
      "proporcionar": 5320,
      "extraord": 5321,
      "farma": 5322,
      "##for": 5323,
      "querido": 5324,
      "declaraciones": 5325,
      "cuyo": 5326,
      "tempran": 5327,
      "##andose": 5328,
      "sobrevi": 5329,
      "llegue": 5330,
      "intentar": 5331,
      "caracteristicas": 5332,
      "rei": 5333,
      "superfici": 5334,
      "bob": 5335,
      "adicionales": 5336,
      "vehiculos": 5337,
      "##rupcion": 5338,
      "dicta": 5339,
      "canada": 5340,
      "responder": 5341,
      "conforme": 5342,
      "nuclear": 5343,
      "espanol": 5344,
      "oli": 5345,
      "##cada": 5346,
      "monton": 5347,
      "aprobado": 5348,
      "ech": 5349,
      "##cre": 5350,
      "milen": 5351,
      "vuelto": 5352,
      "ocul": 5353,
      "lab": 5354,
      "amplio": 5355,
      "##gesimo": 5356,
      "aer": 5357,
      "##ham": 5358,
      "diablos": 5359,
      "maldito": 5360,
      "##ii": 5361,
      "##iores": 5362,
      "##var": 5363,
      "foro": 5364,
      "cienti": 5365,
      "existencia": 5366,
      "orgu": 5367,
      "intercambio": 5368,
      "dificultades": 5369,
      "epo": 5370,
      "alum": 5371,
      "llega": 5372,
      "dejado": 5373,
      "libros": 5374,
      "reform": 5375,
      "judicial": 5376,
      "hambre": 5377,
      "parecer": 5378,
      "anteriores": 5379,
      "abra": 5380,
      "principalmente": 5381,
      "asc": 5382,
      "cif": 5383,
      "incluido": 5384,
      "agencia": 5385,
      "mato": 5386,
      "pedi": 5387,
      "desplaz": 5388,
      "recordar": 5389,
      "##onos": 5390,
      "##baj": 5391,
      "##tinos": 5392,
      "disponible": 5393,
      "jam": 5394,
      "##pes": 5395,
      "##vina": 5396,
      "##bicion": 5397,
      "2015": 5398,
      "situaciones": 5399,
      "ingen": 5400,
      "##emen": 5401,
      "##tudes": 5402,
      "accidente": 5403,
      "##puestos": 5404,
      "colo": 5405,
      "medicamentos": 5406,
      "sida": 5407,
      "enla": 5408,
      "mirar": 5409,
      "pocos": 5410,
      "secund": 5411,
      "motivos": 5412,
      "1994": 5413,
      "legal": 5414,
      "mecanismo": 5415,
      "##gs": 5416,
      "##onom": 5417,
      "estare": 5418,
      "vih": 5419,
      "add": 5420,
      "islam": 5421,
      "eliminar": 5422,
      "llor": 5423,
      "duracion": 5424,
      "debajo": 5425,
      "factores": 5426,
      "tarea": 5427,
      "##zca": 5428,
      "industrial": 5429,
      "ala": 5430,
      "estabamos": 5431,
      "contiene": 5432,
      "estrategias": 5433,
      "58": 5434,
      "62": 5435,
      "bloque": 5436,
      "fen": 5437,
      "ger": 5438,
      "##ut": 5439,
      "deuda": 5440,
      "##cito": 5441,
      "permiso": 5442,
      "tamano": 5443,
      "aguas": 5444,
      "iraq": 5445,
      "##nes": 5446,
      "senorita": 5447,
      "robo": 5448,
      "obligacion": 5449,
      "demanda": 5450,
      "camb": 5451,
      "sienta": 5452,
      "##arnos": 5453,
      "contes": 5454,
      "design": 5455,
      "decirte": 5456,
      "posibilidades": 5457,
      "esfuerzo": 5458,
      "39": 5459,
      "38": 5460,
      "recons": 5461,
      "##bert": 5462,
      "culturales": 5463,
      "##rios": 5464,
      "audi": 5465,
      "recientemente": 5466,
      "2014": 5467,
      "encuentro": 5468,
      "juegos": 5469,
      "abierto": 5470,
      "vel": 5471,
      "insul": 5472,
      "controlar": 5473,
      "ideas": 5474,
      "##fes": 5475,
      "repor": 5476,
      "despi": 5477,
      "escol": 5478,
      "##sar": 5479,
      "infi": 5480,
      "##ombra": 5481,
      "afgan": 5482,
      "tecnologias": 5483,
      "oriental": 5484,
      "callate": 5485,
      "##gal": 5486,
      "##tive": 5487,
      "figuran": 5488,
      "categoria": 5489,
      "maestro": 5490,
      "mire": 5491,
      "juan": 5492,
      "elaboracion": 5493,
      "velocidad": 5494,
      "##tem": 5495,
      "conferencias": 5496,
      "distancia": 5497,
      "##tadores": 5498,
      "##emia": 5499,
      "enfermedades": 5500,
      "agen": 5501,
      "flo": 5502,
      "ken": 5503,
      "sho": 5504,
      "intervencion": 5505,
      "adon": 5506,
      "trabaja": 5507,
      "##hol": 5508,
      "amiga": 5509,
      "distintas": 5510,
      "cultural": 5511,
      "muertos": 5512,
      "dep": 5513,
      "ciudades": 5514,
      "financieras": 5515,
      "piensas": 5516,
      "inversiones": 5517,
      "##________": 5518,
      "frecuencia": 5519,
      "##cura": 5520,
      "cuba": 5521,
      "sustitu": 5522,
      "##cesion": 5523,
      "graves": 5524,
      "joe": 5525,
      "44": 5526,
      "huel": 5527,
      "sch": 5528,
      "##eli": 5529,
      "reh": 5530,
      "alo": 5531,
      "##lares": 5532,
      "cocina": 5533,
      "mejora": 5534,
      "verdadero": 5535,
      "considerar": 5536,
      "mostrar": 5537,
      "entiendes": 5538,
      "planificacion": 5539,
      "placer": 5540,
      "fle": 5541,
      "##ucar": 5542,
      "##uyo": 5543,
      "##edor": 5544,
      "existentes": 5545,
      "cientific": 5546,
      "explotacion": 5547,
      "hin": 5548,
      "ign": 5549,
      "kar": 5550,
      "raro": 5551,
      "##nie": 5552,
      "##dados": 5553,
      "novia": 5554,
      "realizacion": 5555,
      "correo": 5556,
      "george": 5557,
      "influen": 5558,
      "peticion": 5559,
      "luna": 5560,
      "mm": 5561,
      "##fos": 5562,
      "delitos": 5563,
      "impacto": 5564,
      "\"¿": 5565,
      "wo": 5566,
      "enam": 5567,
      "rem": 5568,
      "##tum": 5569,
      "terminar": 5570,
      "recomienda": 5571,
      "estilo": 5572,
      "ke": 5573,
      "complic": 5574,
      "decidio": 5575,
      "humanidad": 5576,
      "estructur": 5577,
      "41": 5578,
      "aca": 5579,
      "argen": 5580,
      "impon": 5581,
      "subra": 5582,
      "cuantos": 5583,
      "limite": 5584,
      "tab": 5585,
      "mur": 5586,
      "coin": 5587,
      "tiempos": 5588,
      "tecnicas": 5589,
      "tareas": 5590,
      "occidental": 5591,
      "milenio": 5592,
      "puso": 5593,
      "##iencias": 5594,
      "dijeron": 5595,
      "impe": 5596,
      "involuc": 5597,
      "##lada": 5598,
      "##kistan": 5599,
      "marca": 5600,
      "firm": 5601,
      "micha": 5602,
      "##ash": 5603,
      "embaj": 5604,
      "investigaciones": 5605,
      "300": 5606,
      "75": 5607,
      "##torias": 5608,
      "comisario": 5609,
      "59": 5610,
      "cena": 5611,
      "masa": 5612,
      "veras": 5613,
      "adonde": 5614,
      "hero": 5615,
      "otor": 5616,
      "lamento": 5617,
      "infan": 5618,
      "##tional": 5619,
      "registr": 5620,
      "##bus": 5621,
      "ped": 5622,
      "oficinas": 5623,
      "automa": 5624,
      "contamin": 5625,
      "##tique": 5626,
      "dign": 5627,
      "escal": 5628,
      "ama": 5629,
      "discapa": 5630,
      "comporta": 5631,
      "hermanos": 5632,
      "alguno": 5633,
      "contac": 5634,
      "azul": 5635,
      "1990": 5636,
      "ofrec": 5637,
      "guia": 5638,
      "pensaba": 5639,
      "vulner": 5640,
      "nervi": 5641,
      "##agesimo": 5642,
      "##ks": 5643,
      "cuo": 5644,
      "traer": 5645,
      "pies": 5646,
      "hagan": 5647,
      "publicacion": 5648,
      "01": 5649,
      "##ical": 5650,
      "garantia": 5651,
      "inferior": 5652,
      "##rada": 5653,
      "seas": 5654,
      "new": 5655,
      "celeb": 5656,
      "abierta": 5657,
      "impuestos": 5658,
      "semin": 5659,
      "##toral": 5660,
      "##taste": 5661,
      "reciente": 5662,
      "##ington": 5663,
      "realizado": 5664,
      "dichas": 5665,
      "divertido": 5666,
      "##pr": 5667,
      "apenas": 5668,
      "catal": 5669,
      "hipo": 5670,
      "##mitir": 5671,
      "emocion": 5672,
      "##hu": 5673,
      "##feras": 5674,
      "escuelas": 5675,
      "arabe": 5676,
      "demues": 5677,
      "gor": 5678,
      "acad": 5679,
      "federal": 5680,
      "educa": 5681,
      "##viamente": 5682,
      "##segu": 5683,
      "tienda": 5684,
      "aspecto": 5685,
      "##dores": 5686,
      "irme": 5687,
      "efectivo": 5688,
      "contribucion": 5689,
      "detalles": 5690,
      "federacion": 5691,
      "adi": 5692,
      "##diendo": 5693,
      "org": 5694,
      "peter": 5695,
      "cans": 5696,
      "srta": 5697,
      "exportacion": 5698,
      "requiere": 5699,
      "dictamen": 5700,
      "meta": 5701,
      "incluyen": 5702,
      "oferta": 5703,
      "alex": 5704,
      "apare": 5705,
      "vivien": 5706,
      "querida": 5707,
      "puesta": 5708,
      "interesante": 5709,
      "barco": 5710,
      "cruz": 5711,
      "log": 5712,
      "depende": 5713,
      "irlanda": 5714,
      "##uo": 5715,
      "cancion": 5716,
      "cooper": 5717,
      "ilici": 5718,
      "##enciales": 5719,
      "dim": 5720,
      "quieras": 5721,
      "estuve": 5722,
      "##aremos": 5723,
      "reaccion": 5724,
      "preve": 5725,
      "presidenta": 5726,
      "consulta": 5727,
      "aconte": 5728,
      "mg": 5729,
      "congres": 5730,
      "##vie": 5731,
      "pub": 5732,
      "juz": 5733,
      "opciones": 5734,
      "bil": 5735,
      "coordin": 5736,
      "encanta": 5737,
      "##cla": 5738,
      "repe": 5739,
      "exteriores": 5740,
      "compos": 5741,
      "prima": 5742,
      "actuales": 5743,
      "49": 5744,
      "danos": 5745,
      "probar": 5746,
      "respal": 5747,
      "michael": 5748,
      "relativos": 5749,
      "ninguno": 5750,
      "juris": 5751,
      "introduccion": 5752,
      "jard": 5753,
      "##dres": 5754,
      "##yun": 5755,
      "cuidad": 5756,
      "distr": 5757,
      "especies": 5758,
      "violacion": 5759,
      "imagenes": 5760,
      "sensi": 5761,
      "conoces": 5762,
      "archivos": 5763,
      "potencial": 5764,
      "##ht": 5765,
      "decia": 5766,
      "##acciones": 5767,
      "##gria": 5768,
      "movil": 5769,
      "bai": 5770,
      "tendria": 5771,
      "incom": 5772,
      "dichos": 5773,
      "##arle": 5774,
      "muse": 5775,
      "exposicion": 5776,
      "importacion": 5777,
      "piern": 5778,
      "progresos": 5779,
      "rin": 5780,
      "nueve": 5781,
      "banda": 5782,
      "##fas": 5783,
      "sil": 5784,
      "prefi": 5785,
      "viven": 5786,
      "ambas": 5787,
      "recomendacion": 5788,
      "compromisos": 5789,
      "rapidamente": 5790,
      "oi": 5791,
      "restric": 5792,
      "necesitar": 5793,
      "jug": 5794,
      "areas": 5795,
      "eu": 5796,
      "nombres": 5797,
      "propias": 5798,
      "fortalecer": 5799,
      "dando": 5800,
      "alian": 5801,
      "estabilidad": 5802,
      "cubi": 5803,
      "aplicable": 5804,
      "culp": 5805,
      "expresion": 5806,
      "britan": 5807,
      "satisfaccion": 5808,
      "deriv": 5809,
      "05": 5810,
      "usa": 5811,
      "43": 5812,
      "lech": 5813,
      "podido": 5814,
      "felici": 5815,
      "54": 5816,
      "bul": 5817,
      "ran": 5818,
      "win": 5819,
      "dispone": 5820,
      "adecuada": 5821,
      "avion": 5822,
      "correspondiente": 5823,
      "cro": 5824,
      "tol": 5825,
      "##bel": 5826,
      "##cidos": 5827,
      "##tus": 5828,
      "arru": 5829,
      "##udas": 5830,
      "triste": 5831,
      "animal": 5832,
      "londres": 5833,
      "unicamente": 5834,
      "##idi": 5835,
      "##tral": 5836,
      "creado": 5837,
      "compu": 5838,
      "organo": 5839,
      "iv": 5840,
      "auton": 5841,
      "##tadora": 5842,
      "1992": 5843,
      "crimin": 5844,
      "reservas": 5845,
      "perspectiva": 5846,
      "46": 5847,
      "um": 5848,
      "condu": 5849,
      "transicion": 5850,
      "comenzo": 5851,
      "disfrutar": 5852,
      "##tz": 5853,
      "discip": 5854,
      "denun": 5855,
      "clara": 5856,
      "##abilidades": 5857,
      "productores": 5858,
      "beb": 5859,
      "ki": 5860,
      "##macion": 5861,
      "conec": 5862,
      "loca": 5863,
      "sustan": 5864,
      "adu": 5865,
      "comunitario": 5866,
      "interesados": 5867,
      "determinacion": 5868,
      "aprendi": 5869,
      "##tch": 5870,
      "miras": 5871,
      "trate": 5872,
      "adoptadas": 5873,
      "competentes": 5874,
      "adicional": 5875,
      "preparado": 5876,
      "terceros": 5877,
      "famos": 5878,
      "##erras": 5879,
      "quiera": 5880,
      "instruc": 5881,
      "visitar": 5882,
      "flu": 5883,
      "encontramos": 5884,
      "##ang": 5885,
      "##tarias": 5886,
      "##iber": 5887,
      "carcel": 5888,
      "luchar": 5889,
      "actuar": 5890,
      "juridica": 5891,
      "grad": 5892,
      "sopor": 5893,
      ".)": 5894,
      "##tui": 5895,
      "##mer": 5896,
      "porc": 5897,
      "##landia": 5898,
      "fisica": 5899,
      "averigu": 5900,
      "quedo": 5901,
      "creen": 5902,
      "verlo": 5903,
      "veci": 5904,
      "basicos": 5905,
      "enamor": 5906,
      "incon": 5907,
      "presta": 5908,
      "asociados": 5909,
      "revel": 5910,
      "ace": 5911,
      "seres": 5912,
      "verano": 5913,
      "lineas": 5914,
      "preocupa": 5915,
      "kilome": 5916,
      "96": 5917,
      "plas": 5918,
      "##yen": 5919,
      "recl": 5920,
      "##ilares": 5921,
      "##grad": 5922,
      "calma": 5923,
      "silencio": 5924,
      "cn": 5925,
      "interven": 5926,
      "inscri": 5927,
      "malas": 5928,
      "transferencia": 5929,
      "municip": 5930,
      "61": 5931,
      "cue": 5932,
      "##ware": 5933,
      "mac": 5934,
      "misiones": 5935,
      "vacaciones": 5936,
      "##tiles": 5937,
      "##rieron": 5938,
      "comunitaria": 5939,
      "tomado": 5940,
      "limites": 5941,
      "anuncio": 5942,
      "glor": 5943,
      "rig": 5944,
      "wh": 5945,
      "##tima": 5946,
      "apos": 5947,
      "argu": 5948,
      "universal": 5949,
      "familiares": 5950,
      "turquia": 5951,
      "llen": 5952,
      "»,": 5953,
      "##llos": 5954,
      "compra": 5955,
      "decirme": 5956,
      "denomin": 5957,
      "##ologica": 5958,
      "profund": 5959,
      "recuerdas": 5960,
      "territorios": 5961,
      "tempera": 5962,
      "unidades": 5963,
      "protes": 5964,
      "momentos": 5965,
      "detener": 5966,
      "ubic": 5967,
      "##rid": 5968,
      "esferas": 5969,
      "##inte": 5970,
      "dipl": 5971,
      "especta": 5972,
      "preciso": 5973,
      "electronico": 5974,
      "costos": 5975,
      "directa": 5976,
      "parecia": 5977,
      "prefer": 5978,
      "##ting": 5979,
      "cerc": 5980,
      "particularmente": 5981,
      "agradable": 5982,
      "salvar": 5983,
      "doy": 5984,
      "fres": 5985,
      "fum": 5986,
      "tun": 5987,
      "##tom": 5988,
      "requer": 5989,
      "sinto": 5990,
      "mismas": 5991,
      "emiti": 5992,
      "##ualmente": 5993,
      "##--": 5994,
      "acce": 5995,
      "verde": 5996,
      "##gante": 5997,
      "hermosa": 5998,
      "superficie": 5999,
      "agar": 6000,
      "##culacion": 6001,
      "tierras": 6002,
      "podamos": 6003,
      "carbon": 6004,
      "continuar": 6005,
      "tribunales": 6006,
      "recog": 6007,
      "uc": 6008,
      "##ecido": 6009,
      "destruccion": 6010,
      "##ezco": 6011,
      "corea": 6012,
      "1993": 6013,
      "periodos": 6014,
      "violaciones": 6015,
      "esfera": 6016,
      "##pens": 6017,
      "paul": 6018,
      "adhesion": 6019,
      "paciente": 6020,
      "azucar": 6021,
      "adultos": 6022,
      "##tuvo": 6023,
      "##rup": 6024,
      "seguros": 6025,
      "clases": 6026,
      "empleados": 6027,
      "especificas": 6028,
      "epoca": 6029,
      "##cimientos": 6030,
      "auten": 6031,
      "colomb": 6032,
      "utiliza": 6033,
      "contribuir": 6034,
      "conclusion": 6035,
      "juridico": 6036,
      "%.": 6037,
      "respuestas": 6038,
      "cho": 6039,
      "cerebro": 6040,
      "],": 6041,
      "oce": 6042,
      "mig": 6043,
      "##iles": 6044,
      "fuiste": 6045,
      "contribuciones": 6046,
      "entorno": 6047,
      "arbi": 6048,
      "contribuy": 6049,
      "entendido": 6050,
      "bril": 6051,
      "acord": 6052,
      "insta": 6053,
      "bla": 6054,
      "##20": 6055,
      "fomento": 6056,
      "iny": 6057,
      "pedido": 6058,
      "medicos": 6059,
      "##rump": 6060,
      "corto": 6061,
      "prohibicion": 6062,
      "zapa": 6063,
      "95": 6064,
      "alco": 6065,
      "lanz": 6066,
      "rol": 6067,
      "##ivos": 6068,
      "parque": 6069,
      "divid": 6070,
      "intentando": 6071,
      "adecuado": 6072,
      "israeli": 6073,
      "rapida": 6074,
      "itali": 6075,
      "##gin": 6076,
      "delin": 6077,
      "paque": 6078,
      "prioridad": 6079,
      "##laterales": 6080,
      "##ance": 6081,
      "siga": 6082,
      "sustancias": 6083,
      "193": 6084,
      "adoles": 6085,
      "diferencias": 6086,
      "responsables": 6087,
      "compartir": 6088,
      "##ernes": 6089,
      "administr": 6090,
      "adolesc": 6091,
      "roma": 6092,
      "escas": 6093,
      "convo": 6094,
      "verdadera": 6095,
      "horri": 6096,
      "hem": 6097,
      "canal": 6098,
      "evan": 6099,
      "opiniones": 6100,
      "estatuto": 6101,
      "reafir": 6102,
      "etique": 6103,
      "##pla": 6104,
      "##vencia": 6105,
      "##fil": 6106,
      "costo": 6107,
      "plantas": 6108,
      "espal": 6109,
      "determinados": 6110,
      "vuelo": 6111,
      "##brado": 6112,
      "##ther": 6113,
      "bancos": 6114,
      "regular": 6115,
      "eno": 6116,
      "cartas": 6117,
      "cabe": 6118,
      "brome": 6119,
      "mercancias": 6120,
      "das": 6121,
      "##eren": 6122,
      "camion": 6123,
      "determinadas": 6124,
      "etn": 6125,
      "progreso": 6126,
      "intens": 6127,
      "argentina": 6128,
      "rico": 6129,
      "activos": 6130,
      "tuyo": 6131,
      "adm": 6132,
      "mostr": 6133,
      "antiguo": 6134,
      "tera": 6135,
      "##tano": 6136,
      "gratui": 6137,
      "tendran": 6138,
      "egipto": 6139,
      "diri": 6140,
      "sorpres": 6141,
      "ventana": 6142,
      "piso": 6143,
      "##ertos": 6144,
      "dile": 6145,
      "dipu": 6146,
      "hier": 6147,
      "delincu": 6148,
      "sha": 6149,
      "viste": 6150,
      "##eramos": 6151,
      "soluciones": 6152,
      "sind": 6153,
      "martin": 6154,
      "basado": 6155,
      "escribir": 6156,
      "vienen": 6157,
      "australia": 6158,
      "premio": 6159,
      "colombia": 6160,
      "rue": 6161,
      "aper": 6162,
      "viernes": 6163,
      "47": 6164,
      "atrib": 6165,
      "viendo": 6166,
      "salio": 6167,
      "contempl": 6168,
      "juez": 6169,
      "tranquilo": 6170,
      "secues": 6171,
      "##orra": 6172,
      "inoc": 6173,
      "segundos": 6174,
      "recuperacion": 6175,
      "fomentar": 6176,
      "logro": 6177,
      "socio": 6178,
      "exh": 6179,
      "legiti": 6180,
      "ejecutivo": 6181,
      "consig": 6182,
      "casas": 6183,
      "regalo": 6184,
      "grab": 6185,
      "ram": 6186,
      "apel": 6187,
      "importe": 6188,
      "motor": 6189,
      "independencia": 6190,
      "memoria": 6191,
      "enmiendas": 6192,
      "lun": 6193,
      "##idor": 6194,
      "##amin": 6195,
      "plano": 6196,
      "cerv": 6197,
      "elemento": 6198,
      "51": 6199,
      "##lu": 6200,
      "##cida": 6201,
      "reda": 6202,
      "sale": 6203,
      "escuche": 6204,
      "tortura": 6205,
      "enorme": 6206,
      "porcenta": 6207,
      "ox": 6208,
      "##tios": 6209,
      "incu": 6210,
      "implic": 6211,
      "llevado": 6212,
      "aprobo": 6213,
      "pacifico": 6214,
      "asociaciones": 6215,
      "arreglar": 6216,
      "enviar": 6217,
      "periodico": 6218,
      "sien": 6219,
      "retras": 6220,
      "desc": 6221,
      "crei": 6222,
      "luch": 6223,
      "estupido": 6224,
      "labora": 6225,
      "rich": 6226,
      "##cien": 6227,
      "##dias": 6228,
      "explos": 6229,
      "definicion": 6230,
      "pleno": 6231,
      "combus": 6232,
      "diploma": 6233,
      "##tieron": 6234,
      "##abas": 6235,
      "antigua": 6236,
      "tonto": 6237,
      "disculpe": 6238,
      "construir": 6239,
      "inmun": 6240,
      "licencia": 6241,
      "##andia": 6242,
      "fotogra": 6243,
      "alcohol": 6244,
      "65": 6245,
      "##ional": 6246,
      "acel": 6247,
      "hablas": 6248,
      "ordenes": 6249,
      "celebracion": 6250,
      "nacion": 6251,
      "##tarme": 6252,
      "##izadas": 6253,
      "oriente": 6254,
      "voto": 6255,
      "vehiculo": 6256,
      "conservacion": 6257,
      "climatico": 6258,
      "ucran": 6259,
      "ku": 6260,
      "novio": 6261,
      "mike": 6262,
      "anteriormente": 6263,
      "tenias": 6264,
      "contemp": 6265,
      "bienestar": 6266,
      "ko": 6267,
      "##timos": 6268,
      "1991": 6269,
      "ministros": 6270,
      "actualidad": 6271,
      "tonel": 6272,
      "charlie": 6273,
      "infraestructura": 6274,
      "estadounidense": 6275,
      "53": 6276,
      "detencion": 6277,
      "comentarios": 6278,
      "normalmente": 6279,
      "brus": 6280,
      "##tm": 6281,
      "clic": 6282,
      "hen": 6283,
      "quedan": 6284,
      "inspi": 6285,
      "utilizado": 6286,
      "experiencias": 6287,
      "uniform": 6288,
      "regresar": 6289,
      "identidad": 6290,
      "dulce": 6291,
      "perdi": 6292,
      "abor": 6293,
      "planta": 6294,
      "aplicables": 6295,
      "gustan": 6296,
      "cambiado": 6297,
      "orientacion": 6298,
      "suici": 6299,
      "mons": 6300,
      "quedate": 6301,
      "sugi": 6302,
      "##guar": 6303,
      "costes": 6304,
      "mono": 6305,
      "evaluar": 6306,
      "privada": 6307,
      "muchachos": 6308,
      "52": 6309,
      "aud": 6310,
      "##teles": 6311,
      "entrega": 6312,
      "##ologico": 6313,
      "victoria": 6314,
      "vender": 6315,
      "##ple": 6316,
      "##torial": 6317,
      "poderos": 6318,
      "bonito": 6319,
      "elegir": 6320,
      "austria": 6321,
      "combatir": 6322,
      "emisiones": 6323,
      "ciento": 6324,
      "eslo": 6325,
      "##ung": 6326,
      "mapa": 6327,
      "ocupado": 6328,
      "91": 6329,
      "parlam": 6330,
      "producir": 6331,
      "##ello": 6332,
      "explor": 6333,
      "probable": 6334,
      "fortalecimiento": 6335,
      "eras": 6336,
      "fras": 6337,
      "##forma": 6338,
      "inver": 6339,
      "sufr": 6340,
      "##tri": 6341,
      "soft": 6342,
      "exter": 6343,
      "aclar": 6344,
      "traje": 6345,
      "decidido": 6346,
      "terroristas": 6347,
      "ampliacion": 6348,
      "mirando": 6349,
      "04": 6350,
      "63": 6351,
      "85": 6352,
      "fol": 6353,
      "mando": 6354,
      "##uri": 6355,
      "##cando": 6356,
      "##zados": 6357,
      "##ben": 6358,
      "ord": 6359,
      "vayan": 6360,
      "tendremos": 6361,
      "dirigida": 6362,
      "levanta": 6363,
      "bis": 6364,
      "##tidades": 6365,
      "suger": 6366,
      "suiza": 6367,
      "caliente": 6368,
      "colum": 6369,
      "navidad": 6370,
      "espere": 6371,
      "entidad": 6372,
      "comenzar": 6373,
      "simbol": 6374,
      "manifi": 6375,
      "afganistan": 6376,
      "suces": 6377,
      "acces": 6378,
      "soldados": 6379,
      "apartamento": 6380,
      "##asion": 6381,
      "##ted": 6382,
      "ing": 6383,
      "usando": 6384,
      "reconocer": 6385,
      "prioridades": 6386,
      "etapa": 6387,
      "escena": 6388,
      "causas": 6389,
      "terrible": 6390,
      "extranjero": 6391,
      "aran": 6392,
      "reina": 6393,
      "encontro": 6394,
      "cuantas": 6395,
      "preparar": 6396,
      "palestina": 6397,
      "##wo": 6398,
      "modelos": 6399,
      "plena": 6400,
      "extranjeros": 6401,
      "maquina": 6402,
      "reper": 6403,
      "contratos": 6404,
      "mover": 6405,
      "firma": 6406,
      "##teo": 6407,
      "inspec": 6408,
      "beneficio": 6409,
      "encargado": 6410,
      "io": 6411,
      "##ds": 6412,
      "##pado": 6413,
      "##uelos": 6414,
      "dig": 6415,
      "##lip": 6416,
      "ciru": 6417,
      "coleg": 6418,
      "98": 6419,
      "vam": 6420,
      "##ciar": 6421,
      "diria": 6422,
      "interno": 6423,
      "batalla": 6424,
      "hablado": 6425,
      "haremos": 6426,
      "esposo": 6427,
      "transparencia": 6428,
      "tramp": 6429,
      "sacri": 6430,
      "ocupar": 6431,
      "prevenir": 6432,
      "leche": 6433,
      "digi": 6434,
      "##pie": 6435,
      "consumidores": 6436,
      "religion": 6437,
      "variedad": 6438,
      "caballeros": 6439,
      "jen": 6440,
      "playa": 6441,
      "conexion": 6442,
      "boda": 6443,
      "##eres": 6444,
      "##dencias": 6445,
      "##ernos": 6446,
      "baj": 6447,
      "temo": 6448,
      "##tizacion": 6449,
      "tarjeta": 6450,
      "##inaria": 6451,
      "##emn": 6452,
      "arre": 6453,
      "comparacion": 6454,
      "usuario": 6455,
      "##eos": 6456,
      "##eramente": 6457,
      "proli": 6458,
      "##terran": 6459,
      "tengas": 6460,
      "bailar": 6461,
      "##viene": 6462,
      "fenom": 6463,
      "latina": 6464,
      "culo": 6465,
      "desgra": 6466,
      "hable": 6467,
      "piens": 6468,
      "puertas": 6469,
      "petroleo": 6470,
      "92": 6471,
      "vine": 6472,
      "##tbol": 6473,
      "prestacion": 6474,
      "fabricacion": 6475,
      "enmienda": 6476,
      "agricolas": 6477,
      "gine": 6478,
      "##itas": 6479,
      "alf": 6480,
      "despa": 6481,
      "insu": 6482,
      "hermoso": 6483,
      "infantil": 6484,
      "comportamiento": 6485,
      "wi": 6486,
      "suma": 6487,
      "##olo": 6488,
      "alb": 6489,
      "corrupcion": 6490,
      "permita": 6491,
      "frio": 6492,
      "comenz": 6493,
      "hidro": 6494,
      "wes": 6495,
      "comand": 6496,
      "##tarte": 6497,
      "apun": 6498,
      "pude": 6499,
      "directo": 6500,
      "comienzo": 6501,
      "##eracion": 6502,
      "esperan": 6503,
      "solicitudes": 6504,
      "renta": 6505,
      "anunci": 6506,
      "tiro": 6507,
      "##ariamente": 6508,
      "##endio": 6509,
      "dura": 6510,
      "##ney": 6511,
      "importaciones": 6512,
      "atrac": 6513,
      "similar": 6514,
      "flores": 6515,
      "concer": 6516,
      "div": 6517,
      "##die": 6518,
      "caribe": 6519,
      "gene": 6520,
      "llame": 6521,
      "bolsa": 6522,
      "ignor": 6523,
      "##rimiento": 6524,
      "##taran": 6525,
      "activa": 6526,
      "resumen": 6527,
      "liqu": 6528,
      "supervis": 6529,
      "claus": 6530,
      "estuviera": 6531,
      "estric": 6532,
      "acre": 6533,
      "decide": 6534,
      "servir": 6535,
      "ponente": 6536,
      "lideres": 6537,
      "carretera": 6538,
      "defici": 6539,
      "##gus": 6540,
      "##tarlo": 6541,
      "amis": 6542,
      "##enses": 6543,
      "personales": 6544,
      "habitantes": 6545,
      "establecidos": 6546,
      "provincia": 6547,
      "cientificos": 6548,
      "precisamente": 6549,
      "vice": 6550,
      "congo": 6551,
      "##ulos": 6552,
      "max": 6553,
      "decidir": 6554,
      "informo": 6555,
      "bote": 6556,
      "jardin": 6557,
      "sara": 6558,
      "##lis": 6559,
      "##tencias": 6560,
      "escen": 6561,
      "indis": 6562,
      "enferm": 6563,
      "suplem": 6564,
      "roman": 6565,
      "fracas": 6566,
      "maxima": 6567,
      "suecia": 6568,
      "orgullos": 6569,
      "ginebra": 6570,
      "pab": 6571,
      "##esto": 6572,
      "coher": 6573,
      "minas": 6574,
      "ataques": 6575,
      "derro": 6576,
      "inteligente": 6577,
      "basura": 6578,
      "millon": 6579,
      "destinados": 6580,
      "indicadores": 6581,
      "lleno": 6582,
      "comercializacion": 6583,
      "##arla": 6584,
      "reca": 6585,
      "parecen": 6586,
      "tum": 6587,
      "presentes": 6588,
      "adver": 6589,
      "partida": 6590,
      "##icidad": 6591,
      "tecnico": 6592,
      "similares": 6593,
      "sorprend": 6594,
      "congreso": 6595,
      "ais": 6596,
      "oeste": 6597,
      "##ade": 6598,
      "##zaje": 6599,
      "enviado": 6600,
      "cumpleanos": 6601,
      "¡¿": 6602,
      "senalo": 6603,
      "posteriormente": 6604,
      "suministro": 6605,
      "].": 6606,
      "tia": 6607,
      "inh": 6608,
      "amable": 6609,
      "muchacho": 6610,
      "chile": 6611,
      "caballo": 6612,
      "rural": 6613,
      "alianza": 6614,
      "opon": 6615,
      "pend": 6616,
      "##erge": 6617,
      "cola": 6618,
      "##inea": 6619,
      "agradecer": 6620,
      "inmediato": 6621,
      "bara": 6622,
      "##aje": 6623,
      "##vent": 6624,
      "##enten": 6625,
      "pagos": 6626,
      "basada": 6627,
      "intelec": 6628,
      "estudiar": 6629,
      "vuestro": 6630,
      "estadisticas": 6631,
      "##etas": 6632,
      "concen": 6633,
      "compens": 6634,
      "volvio": 6635,
      "esperaba": 6636,
      "ganado": 6637,
      "diversidad": 6638,
      "reconoce": 6639,
      "##lateral": 6640,
      "categorias": 6641,
      "angeles": 6642,
      "cine": 6643,
      "duen": 6644,
      "##iel": 6645,
      "resistencia": 6646,
      "infancia": 6647,
      "senci": 6648,
      "modos": 6649,
      "alimentacion": 6650,
      "celebrar": 6651,
      "afectados": 6652,
      "afirma": 6653,
      "##rores": 6654,
      "componentes": 6655,
      "infierno": 6656,
      "sintomas": 6657,
      "sorpresa": 6658,
      "99": 6659,
      "pnud": 6660,
      "##dre": 6661,
      "##aso": 6662,
      "mutu": 6663,
      "##tanas": 6664,
      "internos": 6665,
      "calor": 6666,
      "hablamos": 6667,
      "situado": 6668,
      "pilo": 6669,
      "ocurrio": 6670,
      "distrito": 6671,
      "rica": 6672,
      "wash": 6673,
      "alar": 6674,
      "donantes": 6675,
      "francis": 6676,
      "sucedio": 6677,
      "documentacion": 6678,
      "##tte": 6679,
      "lee": 6680,
      "recurso": 6681,
      "intenta": 6682,
      "cursos": 6683,
      "salvador": 6684,
      "hicimos": 6685,
      "tuviera": 6686,
      "discapacidad": 6687,
      "peda": 6688,
      "rato": 6689,
      "futbol": 6690,
      "esperamos": 6691,
      "procedentes": 6692,
      "poblaciones": 6693,
      "asegur": 6694,
      "estrellas": 6695,
      "inteligencia": 6696,
      "grecia": 6697,
      "apertura": 6698,
      "dll": 6699,
      "##tidas": 6700,
      "estatal": 6701,
      "estes": 6702,
      "sober": 6703,
      "igualmente": 6704,
      "mensajes": 6705,
      "vuestra": 6706,
      "absoluto": 6707,
      "candidatos": 6708,
      "##xion": 6709,
      "compues": 6710,
      "2016": 6711,
      "ambitos": 6712,
      "porcentaje": 6713,
      "##dis": 6714,
      "notific": 6715,
      "prote": 6716,
      "##abili": 6717,
      "ahor": 6718,
      "vuelva": 6719,
      "prolifer": 6720,
      "##pera": 6721,
      "redu": 6722,
      "estaran": 6723,
      "##entales": 6724,
      "##illos": 6725,
      "habido": 6726,
      "tecnicos": 6727,
      "97": 6728,
      "kg": 6729,
      "##uta": 6730,
      "suficientes": 6731,
      "hacerse": 6732,
      "suficientemente": 6733,
      "facilmente": 6734,
      "coron": 6735,
      "cantidades": 6736,
      "companias": 6737,
      "temprano": 6738,
      "temperatura": 6739,
      ".”": 6740,
      "ater": 6741,
      "rid": 6742,
      "##uira": 6743,
      "eventos": 6744,
      "estrella": 6745,
      "detective": 6746,
      "cadena": 6747,
      "geogra": 6748,
      "afi": 6749,
      "##iamente": 6750,
      "sudan": 6751,
      "garantias": 6752,
      "limita": 6753,
      "absolutamente": 6754,
      "bomba": 6755,
      "lamenta": 6756,
      "bruselas": 6757,
      "sp": 6758,
      "##lico": 6759,
      "##cientes": 6760,
      "aspi": 6761,
      "tocar": 6762,
      "cierta": 6763,
      "vengan": 6764,
      "decre": 6765,
      "equival": 6766,
      "consolidacion": 6767,
      "agricola": 6768,
      "tej": 6769,
      "maldicion": 6770,
      "tendre": 6771,
      "ideal": 6772,
      "desafi": 6773,
      "vincul": 6774,
      "acum": 6775,
      "madera": 6776,
      "espiritual": 6777,
      "fronteras": 6778,
      "entiende": 6779,
      "horrible": 6780,
      "ago": 6781,
      "pic": 6782,
      "##cara": 6783,
      "conv": 6784,
      "incen": 6785,
      "paral": 6786,
      "adentro": 6787,
      "residuos": 6788,
      "recibio": 6789,
      "frontera": 6790,
      "intercam": 6791,
      "turismo": 6792,
      "##peccion": 6793,
      "dibu": 6794,
      "##cedentes": 6795,
      "insis": 6796,
      "felicidad": 6797,
      "efectiva": 6798,
      "poderes": 6799,
      "##????": 6800,
      "autonom": 6801,
      "toneladas": 6802,
      "gab": 6803,
      "transmision": 6804,
      "confia": 6805,
      "firme": 6806,
      "%,": 6807,
      "hones": 6808,
      "sco": 6809,
      "meter": 6810,
      "pala": 6811,
      "alimentaria": 6812,
      "humanitaria": 6813,
      "convertido": 6814,
      "factor": 6815,
      "ciclo": 6816,
      "instrucciones": 6817,
      "##remo": 6818,
      "proh": 6819,
      "ador": 6820,
      "ray": 6821,
      "sanciones": 6822,
      "vistas": 6823,
      "responsabilidades": 6824,
      "##tions": 6825,
      "aquella": 6826,
      "vieja": 6827,
      "medicamento": 6828,
      "ingeni": 6829,
      "sientate": 6830,
      "repercu": 6831,
      "relo": 6832,
      "partidos": 6833,
      "volvi": 6834,
      "mundiales": 6835,
      "empezo": 6836,
      "considero": 6837,
      "asesoramiento": 6838,
      "abordar": 6839,
      "##dian": 6840,
      "abur": 6841,
      "dejen": 6842,
      "votos": 6843,
      "autobus": 6844,
      "propie": 6845,
      "software": 6846,
      "washington": 6847,
      "##ward": 6848,
      "compa": 6849,
      "generacion": 6850,
      "errores": 6851,
      "establecen": 6852,
      "demostrado": 6853,
      "escapar": 6854,
      "proliferacion": 6855,
      "##tibles": 6856,
      "lou": 6857,
      "##entre": 6858,
      "##ezca": 6859,
      "sabias": 6860,
      "evento": 6861,
      "breve": 6862,
      "88": 6863,
      "it": 6864,
      "mental": 6865,
      "tari": 6866,
      "parcial": 6867,
      "##tare": 6868,
      "##echos": 6869,
      "mentir": 6870,
      "pareja": 6871,
      "aprue": 6872,
      "companero": 6873,
      "enfrenta": 6874,
      "desastre": 6875,
      "##teli": 6876,
      "teniente": 6877,
      "intergu": 6878,
      "creia": 6879,
      "llevan": 6880,
      "procede": 6881,
      "##cismo": 6882,
      "armados": 6883,
      "perdidas": 6884,
      "02": 6885,
      "comprender": 6886,
      "traduc": 6887,
      "estructuras": 6888,
      "individual": 6889,
      "preocupar": 6890,
      "convirtio": 6891,
      "acontecimientos": 6892,
      "fes": 6893,
      "entro": 6894,
      "concesion": 6895,
      "leon": 6896,
      "discurso": 6897,
      "##ily": 6898,
      "polonia": 6899,
      "87": 6900,
      "##ore": 6901,
      "energe": 6902,
      "remo": 6903,
      "arras": 6904,
      "habeis": 6905,
      "posterior": 6906,
      "##grado": 6907,
      "##titucion": 6908,
      "nacimiento": 6909,
      "indemn": 6910,
      "rojo": 6911,
      "previstas": 6912,
      "sirve": 6913,
      "delegaciones": 6914,
      "jurisdic": 6915,
      "stan": 6916,
      "....": 6917,
      "solia": 6918,
      "viva": 6919,
      "caer": 6920,
      "##ficios": 6921,
      "coste": 6922,
      "habitaciones": 6923,
      "##gir": 6924,
      "circulacion": 6925,
      "titulado": 6926,
      "ciertas": 6927,
      "propone": 6928,
      "ucrania": 6929,
      "93": 6930,
      "cria": 6931,
      "margen": 6932,
      "modificacion": 6933,
      "beber": 6934,
      "carajo": 6935,
      "##iculas": 6936,
      "reforzar": 6937,
      "dale": 6938,
      "##estas": 6939,
      "arqui": 6940,
      "solidar": 6941,
      "obser": 6942,
      "trabajan": 6943,
      "belle": 6944,
      "james": 6945,
      "impedir": 6946,
      "##ites": 6947,
      "expon": 6948,
      "lleve": 6949,
      "bases": 6950,
      "pensado": 6951,
      "boli": 6952,
      "avances": 6953,
      "conducta": 6954,
      "descubrir": 6955,
      "influencia": 6956,
      "##abamos": 6957,
      "activo": 6958,
      "##cebo": 6959,
      "pasara": 6960,
      "##bernamental": 6961,
      "bosque": 6962,
      "portugal": 6963,
      "espalda": 6964,
      "##esper": 6965,
      "trae": 6966,
      "senala": 6967,
      "pasada": 6968,
      "controles": 6969,
      "publicado": 6970,
      "baile": 6971,
      "comandante": 6972,
      "aplica": 6973,
      "lux": 6974,
      "inspeccion": 6975,
      "identificacion": 6976,
      "recordando": 6977,
      "ambiental": 6978,
      "atre": 6979,
      "oracion": 6980,
      "##tativo": 6981,
      "##usos": 6982,
      "##tora": 6983,
      "vea": 6984,
      "juridicos": 6985,
      "pisto": 6986,
      "##pal": 6987,
      "rele": 6988,
      "creciente": 6989,
      "sonido": 6990,
      "##tones": 6991,
      "cargos": 6992,
      "campos": 6993,
      "calles": 6994,
      "listos": 6995,
      "urb": 6996,
      "increm": 6997,
      "maravilloso": 6998,
      "juro": 6999,
      "inci": 7000,
      "impres": 7001,
      "andre": 7002,
      "bosques": 7003,
      "idioma": 7004,
      "equilibrio": 7005,
      "kilometros": 7006,
      "pene": 7007,
      "##bs": 7008,
      "miren": 7009,
      "mantiene": 7010,
      "implem": 7011,
      "comisionado": 7012,
      "taller": 7013,
      "electoral": 7014,
      "tendras": 7015,
      "rit": 7016,
      "norue": 7017,
      "conjun": 7018,
      "creditos": 7019,
      "alegro": 7020,
      "herramientas": 7021,
      "ine": 7022,
      "sua": 7023,
      "abuela": 7024,
      "reformas": 7025,
      "##lizar": 7026,
      "constituyen": 7027,
      "disculpa": 7028,
      "bienvenida": 7029,
      "##kin": 7030,
      "##fin": 7031,
      "##iccion": 7032,
      "reti": 7033,
      "metal": 7034,
      "peru": 7035,
      "arti": 7036,
      "vean": 7037,
      "evidencia": 7038,
      "difusion": 7039,
      "arquitec": 7040,
      "##line": 7041,
      "permitan": 7042,
      "composicion": 7043,
      "museo": 7044,
      "locura": 7045,
      "pakistan": 7046,
      "tel": 7047,
      "resis": 7048,
      "##ulacion": 7049,
      "aparece": 7050,
      "broma": 7051,
      "testigo": 7052,
      "jose": 7053,
      "idiomas": 7054,
      "03": 7055,
      "ojo": 7056,
      "##wan": 7057,
      "dieron": 7058,
      "##ficos": 7059,
      "justific": 7060,
      "desayun": 7061,
      "daniel": 7062,
      "blog": 7063,
      "sentencia": 7064,
      "extrem": 7065,
      "reales": 7066,
      "suda": 7067,
      "altura": 7068,
      "sitios": 7069,
      "##teros": 7070,
      "interro": 7071,
      "defender": 7072,
      "corresponde": 7073,
      "correcta": 7074,
      "tradicionales": 7075,
      "lectura": 7076,
      "77": 7077,
      "bomb": 7078,
      "##iro": 7079,
      "##pp": 7080,
      "constit": 7081,
      "resca": 7082,
      "##trocin": 7083,
      "##jate": 7084,
      "irre": 7085,
      "capaces": 7086,
      "especificos": 7087,
      "comienza": 7088,
      "ocasiones": 7089,
      "edicion": 7090,
      "deposi": 7091,
      "unice": 7092,
      "noticia": 7093,
      "deliber": 7094,
      "interrump": 7095,
      "gracioso": 7096,
      "##cidentes": 7097,
      "tasas": 7098,
      "temporal": 7099,
      "ensayos": 7100,
      "fel": 7101,
      "##uf": 7102,
      "##ecio": 7103,
      "creemos": 7104,
      "prisa": 7105,
      "vere": 7106,
      "llamas": 7107,
      "##vida": 7108,
      "tim": 7109,
      "rendimiento": 7110,
      "elaborar": 7111,
      "prometo": 7112,
      "vestido": 7113,
      "unicef": 7114,
      "acta": 7115,
      "##uck": 7116,
      "pasos": 7117,
      "potencia": 7118,
      "contratacion": 7119,
      "viajes": 7120,
      "senalar": 7121,
      "profundo": 7122,
      "solidaridad": 7123,
      "vera": 7124,
      "##alidades": 7125,
      "abri": 7126,
      "post": 7127,
      "acabado": 7128,
      "laboral": 7129,
      "borra": 7130,
      "explicar": 7131,
      "nicara": 7132,
      "tv": 7133,
      "tac": 7134,
      "##ali": 7135,
      "retro": 7136,
      "impar": 7137,
      "empresari": 7138,
      "jefes": 7139,
      "amenazas": 7140,
      "palestino": 7141,
      "aloj": 7142,
      "cuotas": 7143,
      "koso": 7144,
      "elig": 7145,
      "altos": 7146,
      "realizados": 7147,
      "parrafos": 7148,
      "sociedades": 7149,
      "blanca": 7150,
      "georgia": 7151,
      "llave": 7152,
      "vecinos": 7153,
      "ib": 7154,
      "##ld": 7155,
      "lac": 7156,
      "muerta": 7157,
      "##liacion": 7158,
      "##izas": 7159,
      "##eles": 7160,
      "salon": 7161,
      "##brar": 7162,
      "escla": 7163,
      "sacer": 7164,
      "representacion": 7165,
      "considerado": 7166,
      "competente": 7167,
      "proximos": 7168,
      "peligroso": 7169,
      "rurales": 7170,
      "biblio": 7171,
      "bille": 7172,
      "dara": 7173,
      "fues": 7174,
      "##tian": 7175,
      "alter": 7176,
      "disco": 7177,
      "##ioso": 7178,
      "##risto": 7179,
      "aparte": 7180,
      "barr": 7181,
      "seguido": 7182,
      "observacion": 7183,
      "ruta": 7184,
      "piedra": 7185,
      "##ure": 7186,
      "advers": 7187,
      "##tismo": 7188,
      "firmado": 7189,
      "madrid": 7190,
      "recoger": 7191,
      "previstos": 7192,
      "demostrar": 7193,
      "willi": 7194,
      "oj": 7195,
      "hagamos": 7196,
      "alm": 7197,
      "consis": 7198,
      "empu": 7199,
      "querias": 7200,
      "objetos": 7201,
      "decen": 7202,
      "universo": 7203,
      "libertades": 7204,
      "residencia": 7205,
      "entero": 7206,
      "sacerdo": 7207,
      "##zcan": 7208,
      "##erse": 7209,
      "##ides": 7210,
      "entregar": 7211,
      "gratis": 7212,
      "##gnos": 7213,
      "medicina": 7214,
      "plataforma": 7215,
      "##ey": 7216,
      "exces": 7217,
      "tox": 7218,
      "obviamente": 7219,
      "cielos": 7220,
      "caminar": 7221,
      "racial": 7222,
      "bah": 7223,
      "expul": 7224,
      "configu": 7225,
      "ayudarte": 7226,
      "logrado": 7227,
      "temporada": 7228,
      "oposicion": 7229,
      "##alos": 7230,
      "conducir": 7231,
      "##embol": 7232,
      "construc": 7233,
      "##vido": 7234,
      "resuel": 7235,
      "informar": 7236,
      "llaman": 7237,
      "explica": 7238,
      "oscu": 7239,
      "enfermo": 7240,
      "frag": 7241,
      "mueve": 7242,
      "international": 7243,
      "ensayo": 7244,
      "medica": 7245,
      "recientes": 7246,
      "escribio": 7247,
      "confiar": 7248,
      "preocupado": 7249,
      "mencionado": 7250,
      "peliculas": 7251,
      "cifras": 7252,
      "laboratorio": 7253,
      "##tamentos": 7254,
      "fuertes": 7255,
      "movimientos": 7256,
      "luces": 7257,
      "permiten": 7258,
      "ilegal": 7259,
      "enemigo": 7260,
      "brillante": 7261,
      "sudafr": 7262,
      "bec": 7263,
      "eficiencia": 7264,
      "tin": 7265,
      "will": 7266,
      "quede": 7267,
      "alcal": 7268,
      "sierra": 7269,
      "acor": 7270,
      "consiste": 7271,
      "consenso": 7272,
      "teniamos": 7273,
      "bienio": 7274,
      "you": 7275,
      "sentimientos": 7276,
      "arabes": 7277,
      "duer": 7278,
      "dare": 7279,
      "fri": 7280,
      "##adero": 7281,
      "apara": 7282,
      "consciente": 7283,
      "cato": 7284,
      "191": 7285,
      "raza": 7286,
      "cerrar": 7287,
      "##risa": 7288,
      "##than": 7289,
      "agre": 7290,
      "positivo": 7291,
      "institucional": 7292,
      "extraordinario": 7293,
      "##ua": 7294,
      "##lio": 7295,
      "##cian": 7296,
      "eng": 7297,
      "notas": 7298,
      "divor": 7299,
      "anda": 7300,
      "##garia": 7301,
      "cocin": 7302,
      "calif": 7303,
      "##onesia": 7304,
      "certificado": 7305,
      "##terial": 7306,
      "liberacion": 7307,
      "1989": 7308,
      "tuvieron": 7309,
      "combinacion": 7310,
      "##presid": 7311,
      "academ": 7312,
      "!\"": 7313,
      "##rando": 7314,
      "nove": 7315,
      "##tracion": 7316,
      "##uria": 7317,
      "aplicaciones": 7318,
      "utilic": 7319,
      "aprobada": 7320,
      "disparo": 7321,
      "descripcion": 7322,
      "concretas": 7323,
      "produce": 7324,
      "restaurante": 7325,
      "##teca": 7326,
      "ani": 7327,
      "pelea": 7328,
      "colon": 7329,
      "oscur": 7330,
      "viento": 7331,
      "congel": 7332,
      "##bili": 7333,
      "teatro": 7334,
      "primeras": 7335,
      "siguiendo": 7336,
      "##gosla": 7337,
      "consideracion": 7338,
      "gloria": 7339,
      "ritmo": 7340,
      "kosovo": 7341,
      "400": 7342,
      "echar": 7343,
      "##sh": 7344,
      "##zadas": 7345,
      "teoria": 7346,
      "copa": 7347,
      "ultimas": 7348,
      "barb": 7349,
      "mortal": 7350,
      "saberlo": 7351,
      "celulas": 7352,
      "testigos": 7353,
      "luxem": 7354,
      "68": 7355,
      "zo": 7356,
      "##).": 7357,
      "parar": 7358,
      "##triz": 7359,
      "##bilizacion": 7360,
      "senorias": 7361,
      "expan": 7362,
      "llevara": 7363,
      "aguan": 7364,
      "corriente": 7365,
      "devolver": 7366,
      "interpretacion": 7367,
      "yugosla": 7368,
      "colegio": 7369,
      "william": 7370,
      "californ": 7371,
      "##eld": 7372,
      "coger": 7373,
      "campe": 7374,
      "indice": 7375,
      "paginas": 7376,
      "##entimiento": 7377,
      "eva": 7378,
      "##tter": 7379,
      "##gadas": 7380,
      "##pora": 7381,
      "##econom": 7382,
      "metro": 7383,
      "artes": 7384,
      "tip": 7385,
      "determinado": 7386,
      "ong": 7387,
      "ventajas": 7388,
      "agenda": 7389,
      "jane": 7390,
      "##uras": 7391,
      "suya": 7392,
      "suenos": 7393,
      "pocas": 7394,
      "abuelo": 7395,
      "certific": 7396,
      "ponga": 7397,
      "palestinos": 7398,
      "evidente": 7399,
      "destruir": 7400,
      "definitivamente": 7401,
      "vivienda": 7402,
      "cerveza": 7403,
      "64": 7404,
      "htm": 7405,
      "var": 7406,
      "reemp": 7407,
      "ans": 7408,
      "superiores": 7409,
      "celebro": 7410,
      "capacidades": 7411,
      "romper": 7412,
      "establecidas": 7413,
      "ferro": 7414,
      "colegas": 7415,
      "psic": 7416,
      "noruega": 7417,
      "ia": 7418,
      "##ald": 7419,
      "##ecera": 7420,
      "estatales": 7421,
      "##logia": 7422,
      "crey": 7423,
      "minorias": 7424,
      "rock": 7425,
      "##tty": 7426,
      "pantal": 7427,
      "bl": 7428,
      "##leta": 7429,
      "bang": 7430,
      "intente": 7431,
      "expresa": 7432,
      "eficaces": 7433,
      "integrado": 7434,
      "guardia": 7435,
      "ciertos": 7436,
      "conversacion": 7437,
      "innovacion": 7438,
      "paquete": 7439,
      "66": 7440,
      "lav": 7441,
      "##taje": 7442,
      "##tren": 7443,
      "apla": 7444,
      "barcel": 7445,
      "llena": 7446,
      "hogares": 7447,
      "comprob": 7448,
      "colega": 7449,
      "cuello": 7450,
      "avi": 7451,
      "##cacion": 7452,
      "##zz": 7453,
      "siria": 7454,
      "regla": 7455,
      "acabar": 7456,
      "invita": 7457,
      "satisfa": 7458,
      "##itor": 7459,
      "##sto": 7460,
      "##!!": 7461,
      "##imas": 7462,
      "patrocin": 7463,
      "prestamos": 7464,
      "ayude": 7465,
      "vayas": 7466,
      "subcom": 7467,
      "vienes": 7468,
      "onu": 7469,
      "elegido": 7470,
      "reflexion": 7471,
      "devuel": 7472,
      "rehabili": 7473,
      "culpable": 7474,
      "aprendizaje": 7475,
      "california": 7476,
      "##jada": 7477,
      "esenciales": 7478,
      "##rie": 7479,
      "puedas": 7480,
      "tuya": 7481,
      "transmiti": 7482,
      "plaza": 7483,
      "instalacion": 7484,
      "encamin": 7485,
      "ajuste": 7486,
      "testimon": 7487,
      "individuales": 7488,
      "pecado": 7489,
      "richard": 7490,
      "ventas": 7491,
      "injus": 7492,
      "porta": 7493,
      "metas": 7494,
      "##tuales": 7495,
      "puente": 7496,
      "sateli": 7497,
      "especifica": 7498,
      "##cidencia": 7499,
      "sarg": 7500,
      "belleza": 7501,
      "##nia": 7502,
      "suyo": 7503,
      "darte": 7504,
      "trasero": 7505,
      "dificiles": 7506,
      "concreto": 7507,
      "crimenes": 7508,
      "diputados": 7509,
      "ai": 7510,
      "pista": 7511,
      "we": 7512,
      "wor": 7513,
      "##cc": 7514,
      "cober": 7515,
      "espec": 7516,
      "libano": 7517,
      "jugando": 7518,
      "superar": 7519,
      "legales": 7520,
      "celebra": 7521,
      "africana": 7522,
      "independientes": 7523,
      "correr": 7524,
      "quincu": 7525,
      "dependencia": 7526,
      "henry": 7527,
      "94": 7528,
      "pusi": 7529,
      "sepa": 7530,
      "##uerzo": 7531,
      "chan": 7532,
      "libres": 7533,
      "##tista": 7534,
      "perfecta": 7535,
      "almacenamiento": 7536,
      "quincuagesimo": 7537,
      "delic": 7538,
      "##uyendo": 7539,
      "debates": 7540,
      "belgica": 7541,
      "lindo": 7542,
      "imbe": 7543,
      "toler": 7544,
      "anci": 7545,
      "actitud": 7546,
      "utilizando": 7547,
      "banc": 7548,
      "dirigentes": 7549,
      "llu": 7550,
      "domingo": 7551,
      "rode": 7552,
      "impuesto": 7553,
      "##tienen": 7554,
      "cientifico": 7555,
      "gro": 7556,
      "perros": 7557,
      "infec": 7558,
      "copi": 7559,
      "veter": 7560,
      "montana": 7561,
      "automo": 7562,
      "competencias": 7563,
      "viena": 7564,
      "incremento": 7565,
      "lunes": 7566,
      "jan": 7567,
      "sy": 7568,
      "##ug": 7569,
      "##landes": 7570,
      "irse": 7571,
      "utilizan": 7572,
      "errad": 7573,
      "formular": 7574,
      "ventaja": 7575,
      "acoge": 7576,
      "equivocado": 7577,
      "perjuicio": 7578,
      "sargento": 7579,
      "lid": 7580,
      "ruido": 7581,
      "##dente": 7582,
      "##icar": 7583,
      "generalmente": 7584,
      "declaro": 7585,
      "escuchame": 7586,
      "escolar": 7587,
      "monstr": 7588,
      "dor": 7589,
      "nick": 7590,
      "##ose": 7591,
      "hayas": 7592,
      "priva": 7593,
      "##gros": 7594,
      "consultar": 7595,
      "moneda": 7596,
      "coinci": 7597,
      "ofrecen": 7598,
      "fla": 7599,
      "lago": 7600,
      "produci": 7601,
      "podian": 7602,
      "corpor": 7603,
      "veamos": 7604,
      "guinea": 7605,
      "liberal": 7606,
      "renunci": 7607,
      "historias": 7608,
      "acostum": 7609,
      "multiples": 7610,
      "##wood": 7611,
      "joy": 7612,
      "##berg": 7613,
      "##ertas": 7614,
      "##eses": 7615,
      "##gular": 7616,
      "socios": 7617,
      "llamadas": 7618,
      "merece": 7619,
      "especifico": 7620,
      "fundacion": 7621,
      "refiero": 7622,
      "sensacion": 7623,
      "dinamarca": 7624,
      "##seguida": 7625,
      "ojala": 7626,
      "barcelona": 7627,
      "ei": 7628,
      "fores": 7629,
      "gama": 7630,
      "inqui": 7631,
      "##usa": 7632,
      "comunitarias": 7633,
      "interesadas": 7634,
      "intent": 7635,
      "ciertamente": 7636,
      "avent": 7637,
      "##ode": 7638,
      "##traste": 7639,
      "diagnos": 7640,
      "conting": 7641,
      "representan": 7642,
      "alegra": 7643,
      "bonita": 7644,
      "convertirse": 7645,
      "enlace": 7646,
      "secundaria": 7647,
      "pido": 7648,
      "##bos": 7649,
      "##restre": 7650,
      "mand": 7651,
      "harry": 7652,
      "ofertas": 7653,
      "acceder": 7654,
      "intelectual": 7655,
      "by": 7656,
      "mili": 7657,
      "acaso": 7658,
      "malos": 7659,
      "necesitaba": 7660,
      "ejemplos": 7661,
      "celebrado": 7662,
      "linda": 7663,
      "encom": 7664,
      "brazo": 7665,
      "atender": 7666,
      "aprovechar": 7667,
      "identificar": 7668,
      "obstaculos": 7669,
      "78": 7670,
      "gr": 7671,
      "192": 7672,
      "polvo": 7673,
      "indonesia": 7674,
      "numerosas": 7675,
      "##ford": 7676,
      "##uele": 7677,
      "##ini": 7678,
      "##int": 7679,
      "##ceu": 7680,
      "previa": 7681,
      "mary": 7682,
      "camar": 7683,
      "##echas": 7684,
      "gracia": 7685,
      "inclusion": 7686,
      "jean": 7687,
      "modificar": 7688,
      "##mando": 7689,
      "rebel": 7690,
      "niger": 7691,
      "##ings": 7692,
      "organizado": 7693,
      "registros": 7694,
      "conseguido": 7695,
      "exige": 7696,
      "guatem": 7697,
      "demuestra": 7698,
      "06": 7699,
      "##fera": 7700,
      "marcas": 7701,
      "cerrado": 7702,
      "quedarse": 7703,
      "tuvimos": 7704,
      "hazlo": 7705,
      "debian": 7706,
      "perfectamente": 7707,
      "ultra": 7708,
      "cientos": 7709,
      "enseguida": 7710,
      "integ": 7711,
      "estais": 7712,
      "##garse": 7713,
      "copia": 7714,
      "mark": 7715,
      "abar": 7716,
      "diablo": 7717,
      "funcionar": 7718,
      "torno": 7719,
      "ampliar": 7720,
      "droga": 7721,
      "empieza": 7722,
      "show": 7723,
      "aceite": 7724,
      "femen": 7725,
      "##rey": 7726,
      "sigan": 7727,
      "cierra": 7728,
      "venez": 7729,
      "##guay": 7730,
      "piezas": 7731,
      "utilizados": 7732,
      "150": 7733,
      "realiza": 7734,
      "humanitario": 7735,
      "sorpren": 7736,
      "abogados": 7737,
      "alumnos": 7738,
      "hinca": 7739,
      "coronel": 7740,
      "sudafrica": 7741,
      "gano": 7742,
      "##tat": 7743,
      "instancia": 7744,
      "robert": 7745,
      "radi": 7746,
      "cuarta": 7747,
      "promedio": 7748,
      "cierre": 7749,
      "##ternidad": 7750,
      "aceler": 7751,
      "hincapie": 7752,
      "89": 7753,
      "pra": 7754,
      "##pil": 7755,
      "reto": 7756,
      "repi": 7757,
      "llegada": 7758,
      "decirlo": 7759,
      "##guir": 7760,
      "dispositivo": 7761,
      "campes": 7762,
      "vistazo": 7763,
      "arries": 7764,
      "combin": 7765,
      "##ifico": 7766,
      "##omo": 7767,
      "cayo": 7768,
      "obr": 7769,
      "##ganda": 7770,
      "##grama": 7771,
      "repente": 7772,
      "humil": 7773,
      "roja": 7774,
      "expresar": 7775,
      "principe": 7776,
      "numerosos": 7777,
      "##guenza": 7778,
      "varia": 7779,
      "##tein": 7780,
      "hacerte": 7781,
      "bajar": 7782,
      "pregunte": 7783,
      "tendencia": 7784,
      "consultiva": 7785,
      "quedado": 7786,
      "apuesto": 7787,
      "adolescentes": 7788,
      "reloj": 7789,
      "subir": 7790,
      "##log": 7791,
      "##barde": 7792,
      "fisico": 7793,
      "afecta": 7794,
      "olvide": 7795,
      "edificios": 7796,
      "fabrica": 7797,
      "##nis": 7798,
      "##cad": 7799,
      "ang": 7800,
      "soc": 7801,
      "sere": 7802,
      "motiv": 7803,
      "formula": 7804,
      "##ologicos": 7805,
      "permanecer": 7806,
      "exportaciones": 7807,
      "combustible": 7808,
      "hamb": 7809,
      "##entarias": 7810,
      "art": 7811,
      "decidi": 7812,
      "vay": 7813,
      "denunci": 7814,
      "secretos": 7815,
      "darme": 7816,
      "totalidad": 7817,
      "privadas": 7818,
      "profunda": 7819,
      "cambia": 7820,
      "fid": 7821,
      "oy": 7822,
      "pud": 7823,
      "tru": 7824,
      "##dras": 7825,
      "perra": 7826,
      "vege": 7827,
      "autores": 7828,
      "actuacion": 7829,
      "ocurrido": 7830,
      "absor": 7831,
      "anadir": 7832,
      "cubrir": 7833,
      "cron": 7834,
      "##yu": 7835,
      "##bar_": 7836,
      "##tha": 7837,
      "interesado": 7838,
      "traslad": 7839,
      "disponibilidad": 7840,
      "ejecutiva": 7841,
      "transformacion": 7842,
      "recuperar": 7843,
      "cirugia": 7844,
      "##dome": 7845,
      "##jera": 7846,
      "encer": 7847,
      "cuch": 7848,
      "##entracion": 7849,
      "compla": 7850,
      "march": 7851,
      "volvere": 7852,
      "proporciona": 7853,
      "respectivamente": 7854,
      "vuelos": 7855,
      "ded": 7856,
      "maneras": 7857,
      "especializados": 7858,
      "apoya": 7859,
      "realizadas": 7860,
      "solicitar": 7861,
      "virus": 7862,
      "atlan": 7863,
      "quinto": 7864,
      "##laterra": 7865,
      "domesti": 7866,
      "desconoci": 7867,
      "exped": 7868,
      "##gido": 7869,
      "##one": 7870,
      "pared": 7871,
      "propa": 7872,
      "...\"": 7873,
      "senores": 7874,
      "basa": 7875,
      "transfer": 7876,
      "##duras": 7877,
      "seguira": 7878,
      "realizada": 7879,
      "significado": 7880,
      "ocupacion": 7881,
      "perspectivas": 7882,
      "inglaterra": 7883,
      "escenario": 7884,
      "##ral": 7885,
      "##15": 7886,
      "producido": 7887,
      "##lique": 7888,
      "acero": 7889,
      "veremos": 7890,
      "recien": 7891,
      "cenar": 7892,
      "constitucional": 7893,
      "danny": 7894,
      "adecuadas": 7895,
      "revista": 7896,
      "ques": 7897,
      "supi": 7898,
      "##aricion": 7899,
      "miser": 7900,
      "nuevamente": 7901,
      "comprend": 7902,
      "preocupaciones": 7903,
      "haras": 7904,
      "integridad": 7905,
      "modificado": 7906,
      "adaptacion": 7907,
      "joder": 7908,
      "facultad": 7909,
      "vulnerables": 7910,
      "croa": 7911,
      "##iendose": 7912,
      "mete": 7913,
      "verme": 7914,
      "entrevista": 7915,
      "doce": 7916,
      "estandar": 7917,
      "poniendo": 7918,
      "tribu": 7919,
      "limitar": 7920,
      "jueves": 7921,
      "molesta": 7922,
      "residentes": 7923,
      "maquinas": 7924,
      "comprendido": 7925,
      "restricciones": 7926,
      "audiencia": 7927,
      "vicepresid": 7928,
      "war": 7929,
      "##ortun": 7930,
      "sigo": 7931,
      "desen": 7932,
      "##tane": 7933,
      "cau": 7934,
      "sinc": 7935,
      "dejes": 7936,
      "pensamiento": 7937,
      "interesa": 7938,
      "practicamente": 7939,
      "norteamer": 7940,
      "disminucion": 7941,
      "descanso": 7942,
      "zapatos": 7943,
      "72": 7944,
      "##ecia": 7945,
      "mila": 7946,
      "sovie": 7947,
      "arran": 7948,
      "tanta": 7949,
      "quise": 7950,
      "querer": 7951,
      "recibe": 7952,
      "comprension": 7953,
      "organizada": 7954,
      "presentara": 7955,
      "concentracion": 7956,
      "textos": 7957,
      "ausencia": 7958,
      "publicidad": 7959,
      "calend": 7960,
      "juvent": 7961,
      "##isimo": 7962,
      "companeros": 7963,
      "cp": 7964,
      "##ix": 7965,
      "##mm": 7966,
      "degrad": 7967,
      "asiento": 7968,
      "viviendo": 7969,
      "##way": 7970,
      "bienvenido": 7971,
      "cobertura": 7972,
      "dientes": 7973,
      "psi": 7974,
      "ruso": 7975,
      "##up": 7976,
      "condado": 7977,
      "alde": 7978,
      "##dedores": 7979,
      "##tuvi": 7980,
      "anton": 7981,
      "##fique": 7982,
      "estaras": 7983,
      "organizar": 7984,
      "conocida": 7985,
      "introducir": 7986,
      "pertenece": 7987,
      "##quisicion": 7988,
      "urgente": 7989,
      "enfad": 7990,
      "criminal": 7991,
      "album": 7992,
      "##pio": 7993,
      "##ji": 7994,
      "##ono": 7995,
      "##timo": 7996,
      "into": 7997,
      "hielo": 7998,
      "comisiones": 7999,
      "confun": 8000,
      "economias": 8001,
      "hubiese": 8002,
      "cuerpos": 8003,
      "epis": 8004,
      "ambientales": 8005,
      "proveedores": 8006,
      "jord": 8007,
      "##lados": 8008,
      "##tilla": 8009,
      "propuesto": 8010,
      "amig": 8011,
      "camin": 8012,
      "llevas": 8013,
      "supervi": 8014,
      "moral": 8015,
      "##ity": 8016,
      "guarda": 8017,
      "historico": 8018,
      "policias": 8019,
      "farmaceu": 8020,
      "dimension": 8021,
      "delincuencia": 8022,
      "jurisdiccion": 8023,
      "##riendo": 8024,
      "##guas": 8025,
      "traido": 8026,
      "##celar": 8027,
      "vital": 8028,
      "prorro": 8029,
      "menti": 8030,
      "irnos": 8031,
      "##tiste": 8032,
      "administrativos": 8033,
      "bole": 8034,
      "espacial": 8035,
      "aprend": 8036,
      "tradicional": 8037,
      "arboles": 8038,
      "nicaragua": 8039,
      "gras": 8040,
      "pn": 8041,
      "##usal": 8042,
      "generos": 8043,
      "formulacion": 8044,
      "extension": 8045,
      "pistola": 8046,
      "juventud": 8047,
      "_bar_": 8048,
      "st": 8049,
      "formar": 8050,
      "ocupa": 8051,
      "piernas": 8052,
      "amp": 8053,
      "gir": 8054,
      "##mis": 8055,
      "##esas": 8056,
      "exitos": 8057,
      "materias": 8058,
      "asilo": 8059,
      "cabello": 8060,
      "alej": 8061,
      "negociacion": 8062,
      "referencias": 8063,
      "sujeto": 8064,
      "rehabilitacion": 8065,
      "09": 8066,
      "nombra": 8067,
      "tw": 8068,
      "haiti": 8069,
      "quita": 8070,
      "decada": 8071,
      "ayudara": 8072,
      "1988": 8073,
      "mencionados": 8074,
      "estadounidenses": 8075,
      "evangel": 8076,
      "pablo": 8077,
      "damas": 8078,
      "perci": 8079,
      "desh": 8080,
      "##ilandia": 8081,
      "sustit": 8082,
      "##fron": 8083,
      "entrara": 8084,
      "presentan": 8085,
      "ponerse": 8086,
      "trampa": 8087,
      "duele": 8088,
      "##trados": 8089,
      "##letas": 8090,
      "salido": 8091,
      "llamare": 8092,
      "transito": 8093,
      "##the": 8094,
      "considerable": 8095,
      "revisar": 8096,
      "comprobar": 8097,
      "aves": 8098,
      "cero": 8099,
      "reduci": 8100,
      "traicion": 8101,
      "##quilla": 8102,
      "##tornos": 8103,
      "cham": 8104,
      "hacerle": 8105,
      "estaremos": 8106,
      "##haus": 8107,
      "gasto": 8108,
      "turno": 8109,
      "publicaciones": 8110,
      "fuimos": 8111,
      "iniciar": 8112,
      "condena": 8113,
      "huevos": 8114,
      "my": 8115,
      "ina": 8116,
      "particulares": 8117,
      "practi": 8118,
      "presentada": 8119,
      "expreso": 8120,
      "permitido": 8121,
      "permitira": 8122,
      "periodistas": 8123,
      "descubri": 8124,
      "herramienta": 8125,
      "francisco": 8126,
      "luxemburgo": 8127,
      "sentado": 8128,
      "##10": 8129,
      "decepcion": 8130,
      "unc": 8131,
      "susp": 8132,
      "paseo": 8133,
      "llamamiento": 8134,
      "robar": 8135,
      "muestras": 8136,
      "introdu": 8137,
      "quimicos": 8138,
      "star": 8139,
      "subre": 8140,
      "finlandia": 8141,
      "colores": 8142,
      "invito": 8143,
      "##tillas": 8144,
      "campanas": 8145,
      "electricidad": 8146,
      "embarazada": 8147,
      "jimmy": 8148,
      "amistad": 8149,
      "abr": 8150,
      "##==": 8151,
      "consta": 8152,
      "##fias": 8153,
      "prevista": 8154,
      "manual": 8155,
      "vacio": 8156,
      "dejare": 8157,
      "saque": 8158,
      "positiva": 8159,
      "conjunta": 8160,
      "estrecha": 8161,
      "ty": 8162,
      "##ish": 8163,
      "seras": 8164,
      "##selo": 8165,
      "adn": 8166,
      "primaria": 8167,
      "franco": 8168,
      "gay": 8169,
      "dignidad": 8170,
      "imbecil": 8171,
      "##tid": 8172,
      "interme": 8173,
      "caida": 8174,
      "habida": 8175,
      "saco": 8176,
      "critica": 8177,
      "promue": 8178,
      "sexuales": 8179,
      "virgen": 8180,
      "##coles": 8181,
      "propiedades": 8182,
      "francesa": 8183,
      "jerusal": 8184,
      "##rimir": 8185,
      "manipul": 8186,
      "##cebook": 8187,
      "nam": 8188,
      "##ela": 8189,
      "##ku": 8190,
      "##arlos": 8191,
      "##telo": 8192,
      "deli": 8193,
      "timor": 8194,
      "implica": 8195,
      "facebook": 8196,
      "tantos": 8197,
      "tantas": 8198,
      "##ologicas": 8199,
      "pese": 8200,
      "rique": 8201,
      "destinado": 8202,
      "titular": 8203,
      "perdona": 8204,
      "buques": 8205,
      "perteneci": 8206,
      "ilum": 8207,
      "reglamentos": 8208,
      "cercano": 8209,
      "fuese": 8210,
      "sentar": 8211,
      "##ivas": 8212,
      "perdio": 8213,
      "desha": 8214,
      "##mej": 8215,
      "##bral": 8216,
      "sher": 8217,
      "desempleo": 8218,
      "discusion": 8219,
      "componente": 8220,
      "desastres": 8221,
      "flexi": 8222,
      "sindica": 8223,
      "oscuridad": 8224,
      "08": 8225,
      "69": 8226,
      "kel": 8227,
      "nas": 8228,
      "##fio": 8229,
      "concep": 8230,
      "silla": 8231,
      "custo": 8232,
      "##....": 8233,
      "privi": 8234,
      "nacido": 8235,
      "continuo": 8236,
      "bretana": 8237,
      "ecus": 8238,
      "alternativa": 8239,
      "convierte": 8240,
      "desafios": 8241,
      "\"¡": 8242,
      "86": 8243,
      "iremos": 8244,
      "##rida": 8245,
      "inn": 8246,
      "anillo": 8247,
      "preserv": 8248,
      "##gantes": 8249,
      "entrevis": 8250,
      "mentira": 8251,
      "liter": 8252,
      "ejercer": 8253,
      "afortun": 8254,
      "respetar": 8255,
      "imaginar": 8256,
      "filoso": 8257,
      "imperio": 8258,
      "seminario": 8259,
      "vamonos": 8260,
      "fos": 8261,
      "rog": 8262,
      "##uida": 8263,
      "eli": 8264,
      "proxim": 8265,
      "armen": 8266,
      "adquisicion": 8267,
      "pantalla": 8268,
      "invierno": 8269,
      "1987": 8270,
      "musul": 8271,
      "pronunci": 8272,
      "ciencias": 8273,
      "indemnizacion": 8274,
      "observo": 8275,
      "desayuno": 8276,
      "##zgo": 8277,
      "##),": 8278,
      "notificacion": 8279,
      "anuales": 8280,
      "compras": 8281,
      "190": 8282,
      "informaciones": 8283,
      "calculo": 8284,
      "hecha": 8285,
      "fueran": 8286,
      "pira": 8287,
      "tay": 8288,
      "invitados": 8289,
      "vendra": 8290,
      "exclusivamente": 8291,
      "estructurales": 8292,
      "subray": 8293,
      "bromeando": 8294,
      "digital": 8295,
      "fenomeno": 8296,
      "unctad": 8297,
      "subreg": 8298,
      "cra": 8299,
      "pil": 8300,
      "alienta": 8301,
      "discre": 8302,
      "##ucristo": 8303,
      "aman": 8304,
      "medioambien": 8305,
      "destinadas": 8306,
      "muestran": 8307,
      "homici": 8308,
      "brazos": 8309,
      "74": 8310,
      "diam": 8311,
      "viet": 8312,
      "adam": 8313,
      "corta": 8314,
      "mediano": 8315,
      "convencer": 8316,
      "razonable": 8317,
      "jesucristo": 8318,
      "bosnia": 8319,
      "pedro": 8320,
      "lidera": 8321,
      "##izon": 8322,
      "personalmente": 8323,
      "raiz": 8324,
      "haberlo": 8325,
      "barrio": 8326,
      "preparados": 8327,
      "tony": 8328,
      "exacto": 8329,
      "satisfac": 8330,
      "gana": 8331,
      "##dria": 8332,
      "much": 8333,
      "coleccion": 8334,
      "filip": 8335,
      "consideran": 8336,
      "reunir": 8337,
      "naturalmente": 8338,
      "fiscales": 8339,
      "estrategico": 8340,
      "asegura": 8341,
      "estudiante": 8342,
      "judiciales": 8343,
      "horm": 8344,
      "conviene": 8345,
      "rece": 8346,
      "parame": 8347,
      "sube": 8348,
      "perpe": 8349,
      "toca": 8350,
      "marr": 8351,
      "asesin": 8352,
      "benepla": 8353,
      "indican": 8354,
      "olvidar": 8355,
      "conversaciones": 8356,
      "ubicacion": 8357,
      "rumania": 8358,
      "contaminacion": 8359,
      "anivers": 8360,
      "beneplacito": 8361,
      "nena": 8362,
      "##dam": 8363,
      "envas": 8364,
      "matado": 8365,
      "majes": 8366,
      "llegara": 8367,
      "ganan": 8368,
      "adelantados": 8369,
      "cientifica": 8370,
      "nervioso": 8371,
      "profundamente": 8372,
      "\"...": 8373,
      "gira": 8374,
      "haran": 8375,
      "##tamin": 8376,
      "incapa": 8377,
      "exce": 8378,
      "martes": 8379,
      "##ificados": 8380,
      "modalidades": 8381,
      "llevando": 8382,
      "apartados": 8383,
      "termina": 8384,
      "limpio": 8385,
      "modificaciones": 8386,
      "patrimonio": 8387,
      "pertinente": 8388,
      "tranquila": 8389,
      "drama": 8390,
      "apreci": 8391,
      "aduan": 8392,
      "migrantes": 8393,
      "guatemala": 8394,
      "67": 8395,
      "73": 8396,
      "800": 8397,
      "dudas": 8398,
      "ann": 8399,
      "asal": 8400,
      "tendencias": 8401,
      "cigar": 8402,
      "neu": 8403,
      "campamento": 8404,
      "viejos": 8405,
      "cometido": 8406,
      "detalle": 8407,
      "tercero": 8408,
      "embajador": 8409,
      "calendario": 8410,
      "hil": 8411,
      "jama": 8412,
      "py": 8413,
      "##lle": 8414,
      "indo": 8415,
      "##elle": 8416,
      "checa": 8417,
      "ganas": 8418,
      "hiciera": 8419,
      "chipre": 8420,
      "reproduc": 8421,
      "subcomision": 8422,
      "##har": 8423,
      "comod": 8424,
      "choc": 8425,
      "cantar": 8426,
      "miercoles": 8427,
      "atmos": 8428,
      "encontraron": 8429,
      "mirada": 8430,
      "entrenamiento": 8431,
      "llaves": 8432,
      "reconstruccion": 8433,
      "sencillo": 8434,
      "decreto": 8435,
      "festiv": 8436,
      "##alla": 8437,
      "muere": 8438,
      "rayos": 8439,
      "##igrantes": 8440,
      "verdaderamente": 8441,
      "cadaver": 8442,
      "afron": 8443,
      "captur": 8444,
      "asignacion": 8445,
      "ronda": 8446,
      "defensor": 8447,
      "espectaculo": 8448,
      "##fronter": 8449,
      "peces": 8450,
      "##dero": 8451,
      "##osamente": 8452,
      "reembol": 8453,
      "sul": 8454,
      "marina": 8455,
      "dejalo": 8456,
      "tardar": 8457,
      "investigar": 8458,
      "agradezco": 8459,
      "seguramente": 8460,
      "difun": 8461,
      "columna": 8462,
      "76": 8463,
      "intim": 8464,
      "alerta": 8465,
      "ana": 8466,
      "verla": 8467,
      "chino": 8468,
      "salga": 8469,
      "##ficas": 8470,
      "formato": 8471,
      "boton": 8472,
      "escuchado": 8473,
      "deseos": 8474,
      "alegria": 8475,
      "reconocido": 8476,
      "reparacion": 8477,
      "despierta": 8478,
      "heroe": 8479,
      "uniforme": 8480,
      "lados": 8481,
      "##vemente": 8482,
      "reacciones": 8483,
      "horizon": 8484,
      "cuidar": 8485,
      "consigue": 8486,
      "palacio": 8487,
      "world": 8488,
      "##ridos": 8489,
      "##adera": 8490,
      "entran": 8491,
      "simon": 8492,
      "transfronter": 8493,
      "guard": 8494,
      "proceder": 8495,
      "reconci": 8496,
      "encuentre": 8497,
      "dirigido": 8498,
      "aquellas": 8499,
      "avanzar": 8500,
      "artista": 8501,
      "magis": 8502,
      "84": 8503,
      "fib": 8504,
      "##anim": 8505,
      "##rique": 8506,
      "##bai": 8507,
      "leo": 8508,
      "vias": 8509,
      "negra": 8510,
      "senoria": 8511,
      "irte": 8512,
      "efectivamente": 8513,
      "ordenacion": 8514,
      "complejo": 8515,
      "ayudarme": 8516,
      "discutir": 8517,
      "quedarme": 8518,
      "asumir": 8519,
      "venezuela": 8520,
      "aniversario": 8521,
      "recepcion": 8522,
      "##bierto": 8523,
      "pata": 8524,
      "sabado": 8525,
      "##ariamos": 8526,
      "nacio": 8527,
      "dejando": 8528,
      "cerem": 8529,
      "##ville": 8530,
      "octa": 8531,
      "##key": 8532,
      "armadas": 8533,
      "disfrute": 8534,
      "enfrentar": 8535,
      "comisaria": 8536,
      "use": 8537,
      "##mada": 8538,
      "##vante": 8539,
      "##enda": 8540,
      "perfil": 8541,
      "arena": 8542,
      "saliendo": 8543,
      "coloc": 8544,
      "valle": 8545,
      "observar": 8546,
      "celebrara": 8547,
      "examenes": 8548,
      "olvidado": 8549,
      "periodicos": 8550,
      "conceder": 8551,
      "normativa": 8552,
      "sospechoso": 8553,
      "salvaguar": 8554,
      "windo": 8555,
      "piloto": 8556,
      "decenio": 8557,
      "71": 8558,
      "listas": 8559,
      "ester": 8560,
      "abuso": 8561,
      "##iosa": 8562,
      "##gencias": 8563,
      "realizo": 8564,
      "definir": 8565,
      "acusado": 8566,
      "enemigos": 8567,
      "adjunto": 8568,
      "averiguar": 8569,
      "tos": 8570,
      "##ster": 8571,
      "##ms": 8572,
      "##render": 8573,
      "##odio": 8574,
      "volar": 8575,
      "sigues": 8576,
      "urban": 8577,
      "periodista": 8578,
      "manejar": 8579,
      "hungria": 8580,
      "reiter": 8581,
      "alojamiento": 8582,
      "reempla": 8583,
      "socorro": 8584,
      "07": 8585,
      "eri": 8586,
      "##esh": 8587,
      "cuyos": 8588,
      "##riamos": 8589,
      "prestaciones": 8590,
      "tommy": 8591,
      "mediterran": 8592,
      "jugue": 8593,
      "haberse": 8594,
      "viajar": 8595,
      "alcanzado": 8596,
      "destaca": 8597,
      "longi": 8598,
      "impulso": 8599,
      "nutr": 8600,
      "desempenar": 8601,
      "bala": 8602,
      "torm": 8603,
      "##caron": 8604,
      "recep": 8605,
      "procur": 8606,
      "cuentan": 8607,
      "##entados": 8608,
      "informado": 8609,
      "basica": 8610,
      "confid": 8611,
      "equip": 8612,
      "proceda": 8613,
      "perfeccion": 8614,
      "artistas": 8615,
      "felices": 8616,
      "##ek": 8617,
      "inmi": 8618,
      "desesper": 8619,
      "sois": 8620,
      "comunitarios": 8621,
      "racismo": 8622,
      "princes": 8623,
      "hubieran": 8624,
      "centrales": 8625,
      "americanos": 8626,
      "steve": 8627,
      "impresionante": 8628,
      "limpieza": 8629,
      "intervenciones": 8630,
      "**": 8631,
      "hall": 8632,
      "jorn": 8633,
      "##gol": 8634,
      "##uecos": 8635,
      "entus": 8636,
      "semej": 8637,
      "simpli": 8638,
      "##ters": 8639,
      "anfi": 8640,
      "servid": 8641,
      "obed": 8642,
      "##lantes": 8643,
      "sabido": 8644,
      "sincer": 8645,
      "vacun": 8646,
      "apropiado": 8647,
      "primavera": 8648,
      "derivados": 8649,
      "oceano": 8650,
      "inu": 8651,
      "altas": 8652,
      "debio": 8653,
      "verguenza": 8654,
      "senales": 8655,
      "carol": 8656,
      "ciudadano": 8657,
      "thomas": 8658,
      "##vanse": 8659,
      "permanentes": 8660,
      "entendimiento": 8661,
      "reciben": 8662,
      "aereo": 8663,
      "famoso": 8664,
      "traduccion": 8665,
      "entusias": 8666,
      ",...": 8667,
      "fria": 8668,
      "##clam": 8669,
      "##inta": 8670,
      "##ecemos": 8671,
      "##cus": 8672,
      "paga": 8673,
      "solar": 8674,
      "debidamente": 8675,
      "podremos": 8676,
      "sand": 8677,
      "monitor": 8678,
      "quedara": 8679,
      "corriendo": 8680,
      "velar": 8681,
      "seminarios": 8682,
      "liderazgo": 8683,
      "79": 8684,
      "82": 8685,
      "bran": 8686,
      "entera": 8687,
      "redon": 8688,
      "supe": 8689,
      "cuesta": 8690,
      "leona": 8691,
      "##izaciones": 8692,
      "pred": 8693,
      "##estia": 8694,
      "judios": 8695,
      "activamente": 8696,
      "llevare": 8697,
      "falle": 8698,
      "observadores": 8699,
      "adecuados": 8700,
      "memor": 8701,
      "computadora": 8702,
      "inocente": 8703,
      "tarifas": 8704,
      "satisfacer": 8705,
      "marruecos": 8706,
      "cd": 8707,
      "##pur": 8708,
      "mel": 8709,
      "##lamiento": 8710,
      "ponen": 8711,
      "logros": 8712,
      "gato": 8713,
      "integral": 8714,
      "disculp": 8715,
      "pudieran": 8716,
      "sufrido": 8717,
      "charles": 8718,
      "rastre": 8719,
      "independientemente": 8720,
      "matema": 8721,
      "fia": 8722,
      "##mb": 8723,
      "##liar": 8724,
      "pate": 8725,
      "consentimiento": 8726,
      "solos": 8727,
      "soldado": 8728,
      "ordenador": 8729,
      "atrap": 8730,
      "voluntarios": 8731,
      "desapareci": 8732,
      "castigo": 8733,
      "desarrollado": 8734,
      "requieren": 8735,
      "windows": 8736,
      "##chel": 8737,
      "asenta": 8738,
      "tratos": 8739,
      "serbia": 8740,
      "carlos": 8741,
      "##jeras": 8742,
      "hiper": 8743,
      "llevaba": 8744,
      "hoteles": 8745,
      "aument": 8746,
      "concluir": 8747,
      "limpia": 8748,
      "refleja": 8749,
      "demand": 8750,
      "manejo": 8751,
      "ecuador": 8752,
      "600": 8753,
      "bern": 8754,
      "zel": 8755,
      "##tta": 8756,
      "##mamente": 8757,
      "enca": 8758,
      "cumpl": 8759,
      "vivos": 8760,
      "casado": 8761,
      "habiendo": 8762,
      "futuras": 8763,
      "##titudes": 8764,
      "promesa": 8765,
      "##mith": 8766,
      "guardar": 8767,
      "huespe": 8768,
      "denuncias": 8769,
      "html": 8770,
      "jerusalen": 8771,
      "kim": 8772,
      "pur": 8773,
      "##rea": 8774,
      "##deci": 8775,
      "pajar": 8776,
      "ted": 8777,
      "coca": 8778,
      "##ificada": 8779,
      "modifica": 8780,
      "##quina": 8781,
      "llevaron": 8782,
      "trabajado": 8783,
      "termine": 8784,
      "desafio": 8785,
      "presentadas": 8786,
      "dirigir": 8787,
      "detenido": 8788,
      "contactos": 8789,
      "ordinario": 8790,
      "prohib": 8791,
      "oscuro": 8792,
      "darse": 8793,
      "jas": 8794,
      "ml": 8795,
      "mr": 8796,
      "##wer": 8797,
      "rein": 8798,
      "recip": 8799,
      "##ambia": 8800,
      "podras": 8801,
      "coge": 8802,
      "hablan": 8803,
      "finanzas": 8804,
      "habias": 8805,
      "considerarse": 8806,
      "indirec": 8807,
      "atrapar": 8808,
      "atraves": 8809,
      "templo": 8810,
      "individuos": 8811,
      "uds": 8812,
      "elevado": 8813,
      "lenguaje": 8814,
      "aviso": 8815,
      "constantemente": 8816,
      "obligatorio": 8817,
      "ilicito": 8818,
      "bulgaria": 8819,
      "terapia": 8820,
      "sarah": 8821,
      "fbi": 8822,
      "estres": 8823,
      "relie": 8824,
      "pareces": 8825,
      "prolon": 8826,
      "perse": 8827,
      "teneis": 8828,
      "conveniente": 8829,
      "escribi": 8830,
      "1985": 8831,
      "privados": 8832,
      "combate": 8833,
      "pecados": 8834,
      "cristianos": 8835,
      "frase": 8836,
      "repercusiones": 8837,
      "alcalde": 8838,
      "pantalones": 8839,
      "81": 8840,
      "pc": 8841,
      "ricos": 8842,
      "uru": 8843,
      "##rador": 8844,
      "##inarios": 8845,
      "comentario": 8846,
      "mata": 8847,
      "net": 8848,
      "volvera": 8849,
      "visual": 8850,
      "siguio": 8851,
      "conocen": 8852,
      "pescado": 8853,
      "barcos": 8854,
      "coopera": 8855,
      "operadores": 8856,
      "intentado": 8857,
      "bols": 8858,
      "distinto": 8859,
      "bordo": 8860,
      "ingreso": 8861,
      "eficiente": 8862,
      "##uidos": 8863,
      "##orden": 8864,
      "inad": 8865,
      "##tesis": 8866,
      "##umer": 8867,
      "decisi": 8868,
      "monte": 8869,
      "finalidad": 8870,
      "sentia": 8871,
      "1º": 8872,
      "83": 8873,
      "frac": 8874,
      "id": 8875,
      "##ogo": 8876,
      "latino": 8877,
      "usado": 8878,
      "pura": 8879,
      "bastar": 8880,
      "##ciosa": 8881,
      "##gaste": 8882,
      "##uyen": 8883,
      "relativamente": 8884,
      "votar": 8885,
      "pasajeros": 8886,
      "administrativas": 8887,
      "torre": 8888,
      "contenidos": 8889,
      "##igual": 8890,
      "rechazo": 8891,
      "fabricante": 8892,
      "indispens": 8893,
      "retiro": 8894,
      "suspension": 8895,
      "##cidas": 8896,
      "infrac": 8897,
      "verificacion": 8898,
      "marcos": 8899,
      "herz": 8900,
      "criterio": 8901,
      "glob": 8902,
      "quinta": 8903,
      "suele": 8904,
      "tropas": 8905,
      "gobernador": 8906,
      "auditoria": 8907,
      "empresarial": 8908,
      "lenta": 8909,
      "##didos": 8910,
      "##kh": 8911,
      "##zi": 8912,
      "rean": 8913,
      "suscri": 8914,
      "hacerme": 8915,
      "cortar": 8916,
      "autos": 8917,
      "##geno": 8918,
      "responde": 8919,
      "existente": 8920,
      "simul": 8921,
      "rostro": 8922,
      "sujetos": 8923,
      "antiguos": 8924,
      "alemanes": 8925,
      "dama": 8926,
      "##uu": 8927,
      "enrique": 8928,
      "##tifica": 8929,
      "##icales": 8930,
      "park": 8931,
      "habilidades": 8932,
      "forman": 8933,
      "nacionalidad": 8934,
      "posiciones": 8935,
      "iguales": 8936,
      "invitado": 8937,
      "caballero": 8938,
      "conjuntamente": 8939,
      "kir": 8940,
      "qa": 8941,
      "deposito": 8942,
      "sobr": 8943,
      "asom": 8944,
      "##udia": 8945,
      "volv": 8946,
      "herido": 8947,
      "clasificacion": 8948,
      "vinculos": 8949,
      "democratico": 8950,
      "participa": 8951,
      "phil": 8952,
      "pierna": 8953,
      "ridiculo": 8954,
      "equivalente": 8955,
      "inmigracion": 8956,
      "aven": 8957,
      "bir": 8958,
      "pecho": 8959,
      "techo": 8960,
      "##ux": 8961,
      "##iera": 8962,
      "##ls": 8963,
      "##lina": 8964,
      "##jon": 8965,
      "##fur": 8966,
      "debil": 8967,
      "estando": 8968,
      "argel": 8969,
      "adopto": 8970,
      "establecio": 8971,
      "entradas": 8972,
      "analizar": 8973,
      "integrada": 8974,
      "explicacion": 8975,
      "inquie": 8976,
      "ego": 8977,
      "mens": 8978,
      "##cadas": 8979,
      "##camente": 8980,
      "decl": 8981,
      "porno": 8982,
      "##limin": 8983,
      "consa": 8984,
      "pasan": 8985,
      "chu": 8986,
      "eramos": 8987,
      "futur": 8988,
      "productor": 8989,
      "saudi": 8990,
      "penso": 8991,
      "120": 8992,
      "seguimos": 8993,
      "signific": 8994,
      "1986": 8995,
      "especificamente": 8996,
      "treinta": 8997,
      "majestad": 8998,
      "sun": 8999,
      "##ij": 9000,
      "deterior": 9001,
      "desi": 9002,
      "restr": 9003,
      "prescri": 9004,
      "consejos": 9005,
      "corazones": 9006,
      "conducto": 9007,
      "dedicado": 9008,
      "pretende": 9009,
      "estupendo": 9010,
      "berlin": 9011,
      "lanzamiento": 9012,
      "italiano": 9013,
      "kuwa": 9014,
      "divul": 9015,
      "longitud": 9016,
      "mich": 9017,
      "sw": 9018,
      "##vol": 9019,
      "##tie": 9020,
      "conto": 9021,
      "toque": 9022,
      "estancia": 9023,
      "controvers": 9024,
      "vuelvo": 9025,
      "escribe": 9026,
      "causar": 9027,
      "aceptacion": 9028,
      "americano": 9029,
      "manifesta": 9030,
      "asistir": 9031,
      "gravedad": 9032,
      "beso": 9033,
      "huellas": 9034,
      "carbono": 9035,
      "inyeccion": 9036,
      "yendo": 9037,
      "##ling": 9038,
      "##cula": 9039,
      "letras": 9040,
      "estoma": 9041,
      "empe": 9042,
      "mejoras": 9043,
      "plazos": 9044,
      "relacionado": 9045,
      "pensamientos": 9046,
      "continente": 9047,
      "reclamaciones": 9048,
      "urgencia": 9049,
      "certificados": 9050,
      "vayamos": 9051,
      "gala": 9052,
      "racional": 9053,
      "vom": 9054,
      "##camiento": 9055,
      "dedo": 9056,
      "##enes": 9057,
      "##ciado": 9058,
      "##istico": 9059,
      "##field": 9060,
      "camaras": 9061,
      "estuviste": 9062,
      "utilizarse": 9063,
      "aviones": 9064,
      "consiguio": 9065,
      "competitividad": 9066,
      "islamica": 9067,
      "israelies": 9068,
      "dueno": 9069,
      "lluvia": 9070,
      "bici": 9071,
      "digamos": 9072,
      "crecer": 9073,
      "tiendas": 9074,
      "esperen": 9075,
      "ayudame": 9076,
      "pesc": 9077,
      "adopten": 9078,
      "participan": 9079,
      "olvida": 9080,
      "taxi": 9081,
      "1980": 9082,
      "espacios": 9083,
      "afectadas": 9084,
      "patron": 9085,
      "caballos": 9086,
      "bab": 9087,
      "bac": 9088,
      "dada": 9089,
      "cura": 9090,
      "migra": 9091,
      "humor": 9092,
      "semillas": 9093,
      "eric": 9094,
      "mencionar": 9095,
      "iraqui": 9096,
      "separacion": 9097,
      "incorporacion": 9098,
      "fantastico": 9099,
      "dirige": 9100,
      "redac": 9101,
      "croacia": 9102,
      "evangelio": 9103,
      "rosa": 9104,
      "taba": 9105,
      "##jando": 9106,
      "deporte": 9107,
      "telec": 9108,
      "poca": 9109,
      "veinte": 9110,
      "minima": 9111,
      "optim": 9112,
      "agres": 9113,
      "cristal": 9114,
      "oficialmente": 9115,
      "dormi": 9116,
      "concretos": 9117,
      "construido": 9118,
      "electronica": 9119,
      "castillo": 9120,
      "##quisito": 9121,
      "arbitr": 9122,
      "herzego": 9123,
      "cy": 9124,
      "mam": 9125,
      "##didas": 9126,
      "##erador": 9127,
      "retos": 9128,
      "##undi": 9129,
      "sigui": 9130,
      "##restres": 9131,
      "##mping": 9132,
      "consign": 9133,
      "llegamos": 9134,
      "ponte": 9135,
      "pongas": 9136,
      "montanas": 9137,
      "dens": 9138,
      "proyec": 9139,
      "torn": 9140,
      "pidiendo": 9141,
      "empezando": 9142,
      "afectan": 9143,
      "indicado": 9144,
      "desplie": 9145,
      "limitado": 9146,
      "suelen": 9147,
      "rab": 9148,
      "sto": 9149,
      "##eral": 9150,
      "##traje": 9151,
      "canciones": 9152,
      "aprobar": 9153,
      "posiblemente": 9154,
      "online": 9155,
      "sentimiento": 9156,
      "eddie": 9157,
      "aconse": 9158,
      "subsidi": 9159,
      "omc": 9160,
      "exhorta": 9161,
      "relieve": 9162,
      "herzegovina": 9163,
      "##bran": 9164,
      "##11": 9165,
      "##oras": 9166,
      "law": 9167,
      "locos": 9168,
      "exa": 9169,
      "actores": 9170,
      "toc": 9171,
      "cae": 9172,
      "##ensiones": 9173,
      "abarca": 9174,
      "quiso": 9175,
      "malta": 9176,
      "llamando": 9177,
      "santos": 9178,
      "aparentemente": 9179,
      "claridad": 9180,
      "administrativo": 9181,
      "encargados": 9182,
      "indicar": 9183,
      "encantaria": 9184,
      "contrad": 9185,
      "estadistica": 9186,
      "gobernanza": 9187,
      "cc": 9188,
      "stu": 9189,
      "##venta": 9190,
      "##teza": 9191,
      "##tidi": 9192,
      "##izan": 9193,
      "chis": 9194,
      "conocemos": 9195,
      "acepta": 9196,
      "restaurantes": 9197,
      "manifiesto": 9198,
      "inspector": 9199,
      "chocola": 9200,
      "echo": 9201,
      "kris": 9202,
      "##uicios": 9203,
      "##vias": 9204,
      "serian": 9205,
      "terra": 9206,
      "ayudo": 9207,
      "litu": 9208,
      "merid": 9209,
      "subvencion": 9210,
      "recuerdos": 9211,
      "estima": 9212,
      "desearia": 9213,
      "detallada": 9214,
      "frecuentes": 9215,
      "agricultores": 9216,
      "comprende": 9217,
      "respira": 9218,
      "botella": 9219,
      "incrementar": 9220,
      "gil": 9221,
      "ryan": 9222,
      "##ind": 9223,
      "inmo": 9224,
      "##lido": 9225,
      "oral": 9226,
      "dejan": 9227,
      "aplicara": 9228,
      "dioses": 9229,
      "juli": 9230,
      "habitual": 9231,
      "pieza": 9232,
      "considerablemente": 9233,
      "mirame": 9234,
      "disponer": 9235,
      "llegaron": 9236,
      "jueces": 9237,
      "hong": 9238,
      "preciosa": 9239,
      "imagin": 9240,
      "monedas": 9241,
      "desarrollados": 9242,
      "denuncia": 9243,
      "testimonio": 9244,
      "##inidad": 9245,
      "desn": 9246,
      "prelimin": 9247,
      "distra": 9248,
      "empa": 9249,
      "cable": 9250,
      "convenios": 9251,
      "investigadores": 9252,
      "presentados": 9253,
      "fundament": 9254,
      "bella": 9255,
      "==*": 9256,
      "multilateral": 9257,
      "plantea": 9258,
      "definitiva": 9259,
      "pierde": 9260,
      "posee": 9261,
      "llorar": 9262,
      "princesa": 9263,
      "villa": 9264,
      "xx": 9265,
      "##ju": 9266,
      "##allas": 9267,
      "almas": 9268,
      "astr": 9269,
      "papi": 9270,
      "dispuestos": 9271,
      "admi": 9272,
      "escand": 9273,
      "querria": 9274,
[...]
