{
  "version": "1.0",
  "truncation": null,
  "padding": null,
  "added_tokens": [
    {
      "id": 0,
      "content": "<unk>",
      "single_word": false,
      "lstrip": false,
      "rstrip": false,
      "normalized": false,
      "special": true
    },
    {
      "id": 1,
      "content": "<pad>",
      "single_word": false,
      "lstrip": false,
      "rstrip": false,
      "normalized": false,
      "special": true
    },
    {
      "id": 2,
      "content": "<bos>",
      "single_word": false,
      "lstrip": false,
      "rstrip": false,
      "normalized": false,
      "special": true
    },
    {
      "id": 3,
      "content": "<eos>",
      "single_word": false,
      "lstrip": false,
      "rstrip": false,
      "normalized": false,
      "special": true
    }
  ],
  "normalizer": {
    "type": "Sequence",
    "normalizers": [
      {
        "type": "NFD"
      },
      {
        "type": "Lowercase"
      },
      {
        "type": "StripAccents"
      }
    ]
  },
  "pre_tokenizer": {
    "type": "Whitespace"
  },
  "post_processor": null,
  "decoder": {
    "type": "WordPiece",
    "prefix": "##",
    "cleanup": true
  },
  "model": {
    "type": "WordPiece",
    "unk_token": "<unk>",
    "continuing_subword_prefix": "##",
    "max_input_chars_per_word": 100,
    "vocab": {
      "<unk>": 0,
      "<pad>": 1,
      "<bos>": 2,
      "<eos>": 3,
      "!": 4,
      "\"": 5,
      "#": 6,
      "$": 7,
      "%": 8,
      "&": 9,
      "'": 10,
      "(": 11,
      ")": 12,
      "*": 13,
      "+": 14,
      ",": 15,
      "-": 16,
      ".": 17,
      "/": 18,
      "0": 19,
      "1": 20,
      "2": 21,
      "3": 22,
      "4": 23,
      "5": 24,
      "6": 25,
      "7": 26,
      "8": 27,
      "9": 28,
      ":": 29,
      ";": 30,
      "<": 31,
      "=": 32,
      ">": 33,
      "?": 34,
      "@": 35,
      "[": 36,
      "\\": 37,
      "]": 38,
      "^": 39,
      "_": 40,
      "`": 41,
      "a": 42,
      "b": 43,
      "c": 44,
      "d": 45,
      "e": 46,
      "f": 47,
      "g": 48,
      "h": 49,
      "i": 50,
      "j": 51,
      "k": 52,
      "l": 53,
      "m": 54,
      "n": 55,
      "o": 56,
      "p": 57,
      "q": 58,
      "r": 59,
      "s": 60,
      "t": 61,
      "u": 62,
      "v": 63,
      "w": 64,
      "x": 65,
      "y": 66,
      "z": 67,
      "{": 68,
      "}": 69,
      "~": 70,
      "": 71,
      "": 72,
      "": 73,
      "": 74,
      "": 75,
      "": 76,
      "": 77,
      "": 78,
      "": 79,
      "": 80,
      "": 81,
      "": 82,
      "": 83,
      "¡": 84,
      "¢": 85,
      "£": 86,
      "¤": 87,
      "¥": 88,
      "¦": 89,
      "§": 90,
      "¨": 91,
      "©": 92,
      "ª": 93,
      "«": 94,
      "¬": 95,
      "­": 96,
      "®": 97,
      "¯": 98,
      "°": 99,
      "±": 100,
      "²": 101,
      "³": 102,
      "´": 103,
      "µ": 104,
      "¶": 105,
      "·": 106,
      "¸": 107,
      "¹": 108,
      "º": 109,
      "»": 110,
      "¼": 111,
      "½": 112,
      "¾": 113,
      "¿": 114,
      "×": 115,
      "ß": 116,
      "æ": 117,
      "ð": 118,
      "÷": 119,
      "ø": 120,
      "þ": 121,
      "đ": 122,
      "ı": 123,
      "ł": 124,
      "œ": 125,
      "ƒ": 126,
      "ə": 127,
      "ɛ": 128,
      "ɪ": 129,
      "ʻ": 130,
      "ʼ": 131,
      "ʾ": 132,
      "ʿ": 133,
      "ˆ": 134,
      "ː": 135,
      "˚": 136,
      "ˮ": 137,
      "΄": 138,
      "α": 139,
      "β": 140,
      "γ": 141,
      "δ": 142,
      "ε": 143,
      "ζ": 144,
      "η": 145,
      "θ": 146,
      "ι": 147,
      "κ": 148,
      "λ": 149,
      "μ": 150,
      "ν": 151,
      "ξ": 152,
      "ο": 153,
      "π": 154,
      "ρ": 155,
      "ς": 156,
      "σ": 157,
      "τ": 158,
      "υ": 159,
      "φ": 160,
      "χ": 161,
      "ψ": 162,
      "ω": 163,
      "а": 164,
      "б": 165,
      "в": 166,
      "г": 167,
      "д": 168,
      "е": 169,
      "ж": 170,
      "з": 171,
      "и": 172,
      "к": 173,
      "л": 174,
      "м": 175,
      "н": 176,
      "о": 177,
      "п": 178,
      "р": 179,
      "с": 180,
      "т": 181,
      "у": 182,
      "ф": 183,
      "х": 184,
      "ц": 185,
      "ч": 186,
      "ш": 187,
      "щ": 188,
      "ъ": 189,
      "ы": 190,
      "ь": 191,
      "э": 192,
      "ю": 193,
      "я": 194,
      "ђ": 195,
      "ѕ": 196,
      "і": 197,
      "ј": 198,
      "ґ": 199,
      "қ": 200,
      "ү": 201,
      "ҳ": 202,
      "һ": 203,
      "ө": 204,
      "א": 205,
      "י": 206,
      "،": 207,
      "ء": 208,
      "ا": 209,
      "ب": 210,
      "ة": 211,
      "ت": 212,
      "ث": 213,
      "ج": 214,
      "ح": 215,
      "خ": 216,
      "د": 217,
      "ذ": 218,
      "ر": 219,
      "ز": 220,
      "س": 221,
      "ش": 222,
      "ص": 223,
      "ض": 224,
      "ط": 225,
      "ظ": 226,
      "ع": 227,
      "غ": 228,
      "ـ": 229,
      "ف": 230,
      "ق": 231,
      "ك": 232,
      "ل": 233,
      "م": 234,
      "ن": 235,
      "ه": 236,
      "و": 237,
      "ى": 238,
      "ي": 239,
      "ی": 240,
      "अ": 241,
      "आ": 242,
      "इ": 243,
      "ई": 244,
      "उ": 245,
      "ए": 246,
      "ऑ": 247,
      "ओ": 248,
      "औ": 249,
      "क": 250,
      "ख": 251,
      "ग": 252,
      "घ": 253,
      "च": 254,
      "छ": 255,
      "ज": 256,
      "झ": 257,
      "ट": 258,
      "ठ": 259,
      "ड": 260,
      "ढ": 261,
      "ण": 262,
      "त": 263,
      "थ": 264,
      "द": 265,
      "ध": 266,
      "न": 267,
      "प": 268,
      "फ": 269,
      "ब": 270,
      "भ": 271,
      "म": 272,
      "य": 273,
      "र": 274,
      "ल": 275,
      "व": 276,
      "श": 277,
      "ष": 278,
      "स": 279,
      "ह": 280,
      "ॐ": 281,
      "।": 282,
      "ত": 283,
      "ন": 284,
      "শ": 285,
      "ਹ": 286,
      "ಮ": 287,
      "ರ": 288,
      "ಸ": 289,
      "ഊ": 290,
      "മ": 291,
      "ඉ": 292,
      "ට": 293,
      "ද": 294,
      "න": 295,
      "ඳ": 296,
      "฀": 297,
      "ค": 298,
      "บ": 299,
      "พ": 300,
      "ม": 301,
      "ร": 302,
      "ห": 303,
      "อ": 304,
      "า": 305,
      "ა": 306,
      "ი": 307,
      "მ": 308,
      "ნ": 309,
      "ო": 310,
      "რ": 311,
      "ს": 312,
      "ფ": 313,
      "ᄀ": 314,
      "ᄃ": 315,
      "ᄅ": 316,
      "ᄆ": 317,
      "ᄇ": 318,
      "ᄉ": 319,
      "ᄋ": 320,
      "ᄌ": 321,
      "ᄏ": 322,
      "ᄐ": 323,
      "ᄑ": 324,
      "ᅡ": 325,
      "ᅥ": 326,
      "ᅦ": 327,
      "ᅩ": 328,
      "ᅭ": 329,
      "ᅮ": 330,
      "ᅯ": 331,
      "ᅱ": 332,
      "ᅳ": 333,
      "ᅵ": 334,
      "ᆨ": 335,
      "ᆫ": 336,
      "ᆯ": 337,
      "ᆷ": 338,
      "ᆸ": 339,
      "ᆼ": 340,
      "​": 341,
      "‎": 342,
      "‏": 343,
      "‐": 344,
      "‑": 345,
      "–": 346,
      "—": 347,
      "―": 348,
      "‘": 349,
      "’": 350,
      "‚": 351,
      "“": 352,
      "”": 353,
      "„": 354,
      "†": 355,
      "‡": 356,
      "•": 357,
      "…": 358,
      "‪": 359,
      "‫": 360,
      "‬": 361,
      "‭": 362,
      "‰": 363,
      "′": 364,
      "″": 365,
      "›": 366,
      "‾": 367,
      "⁄": 368,
      "₀": 369,
      "₁": 370,
      "₤": 371,
      "€": 372,
      "₷": 373,
      "ℓ": 374,
      "№": 375,
      "™": 376,
      "↑": 377,
      "→": 378,
      "↓": 379,
      "↔": 380,
      "∂": 381,
      "−": 382,
      "∗": 383,
      "∞": 384,
      "∰": 385,
      "∽": 386,
      "≡": 387,
      "≤": 388,
      "≥": 389,
      "⌘": 390,
      "⎥": 391,
      "⎦": 392,
      "①": 393,
      "③": 394,
      "⑤": 395,
      "─": 396,
      "■": 397,
      "□": 398,
      "▪": 399,
      "►": 400,
      "▼": 401,
      "◄": 402,
      "●": 403,
      "◾": 404,
      "☑": 405,
      "☺": 406,
      "☻": 407,
      "♥": 408,
      "♦": 409,
      "♪": 410,
      "♫": 411,
      "♬": 412,
      "⚡": 413,
      "✈": 414,
      "❤": 415,
      "➢": 416,
      "➾": 417,
      "⦶": 418,
      "ⰰ": 419,
      "ⰲ": 420,
      "ⴞ": 421,
      "ⴭ": 422,
      "⼼": 423,
      "、": 424,
      "。": 425,
      "《": 426,
      "》": 427,
      "〰": 428,
      "〵": 429,
      "〺": 430,
      "あ": 431,
      "い": 432,
      "う": 433,
      "え": 434,
      "お": 435,
      "か": 436,
      "く": 437,
      "こ": 438,
      "し": 439,
      "す": 440,
      "そ": 441,
      "た": 442,
      "ち": 443,
      "つ": 444,
      "て": 445,
      "と": 446,
      "な": 447,
      "に": 448,
      "の": 449,
      "ひ": 450,
      "ふ": 451,
      "も": 452,
      "よ": 453,
      "ら": 454,
      "る": 455,
      "ろ": 456,
      "わ": 457,
      "を": 458,
      "ん": 459,
      "ァ": 460,
      "ア": 461,
      "イ": 462,
      "カ": 463,
      "キ": 464,
      "ク": 465,
      "コ": 466,
      "サ": 467,
      "シ": 468,
      "ス": 469,
      "タ": 470,
      "ッ": 471,
      "テ": 472,
      "ト": 473,
      "ナ": 474,
      "ノ": 475,
      "ハ": 476,
      "ヒ": 477,
      "フ": 478,
      "ホ": 479,
      "ミ": 480,
      "ム": 481,
      "モ": 482,
      "ャ": 483,
      "ラ": 484,
      "ル": 485,
      "レ": 486,
      "ヮ": 487,
      "ン": 488,
      "・": 489,
      "ー": 490,
      "㐱": 491,
      "㤊": 492,
      "㤹": 493,
      "㨰": 494,
      "㰊": 495,
      "㵥": 496,
      "一": 497,
      "七": 498,
      "上": 499,
      "下": 500,
      "不": 501,
      "专": 502,
      "世": 503,
      "业": 504,
      "个": 505,
      "中": 506,
      "丸": 507,
      "为": 508,
      "乐": 509,
      "九": 510,
      "也": 511,
      "习": 512,
      "书": 513,
      "买": 514,
      "了": 515,
      "事": 516,
      "于": 517,
      "五": 518,
      "些": 519,
      "亭": 520,
      "人": 521,
      "仄": 522,
      "今": 523,
      "从": 524,
      "仓": 525,
      "他": 526,
      "令": 527,
      "以": 528,
      "们": 529,
      "件": 530,
      "任": 531,
      "企": 532,
      "会": 533,
      "伶": 534,
      "但": 535,
      "位": 536,
      "体": 537,
      "何": 538,
      "作": 539,
      "你": 540,
      "佳": 541,
      "使": 542,
      "來": 543,
      "供": 544,
      "假": 545,
      "做": 546,
      "先": 547,
      "克": 548,
      "党": 549,
      "內": 550,
      "公": 551,
      "六": 552,
      "兰": 553,
      "共": 554,
      "关": 555,
      "兵": 556,
      "其": 557,
      "兼": 558,
      "军": 559,
      "凡": 560,
      "処": 561,
      "凱": 562,
      "出": 563,
      "分": 564,
      "刘": 565,
      "刚": 566,
      "创": 567,
      "初": 568,
      "加": 569,
      "务": 570,
      "助": 571,
      "動": 572,
      "北": 573,
      "卷": 574,
      "厦": 575,
      "又": 576,
      "发": 577,
      "口": 578,
      "另": 579,
      "只": 580,
      "可": 581,
      "史": 582,
      "叶": 583,
      "司": 584,
      "名": 585,
      "后": 586,
      "员": 587,
      "和": 588,
      "哀": 589,
      "品": 590,
      "售": 591,
      "商": 592,
      "啊": 593,
      "四": 594,
      "回": 595,
      "因": 596,
      "团": 597,
      "园": 598,
      "国": 599,
      "图": 600,
      "國": 601,
      "圣": 602,
      "在": 603,
      "地": 604,
      "场": 605,
      "坛": 606,
      "型": 607,
      "增": 608,
      "外": 609,
      "多": 610,
      "夢": 611,
      "大": 612,
      "天": 613,
      "夫": 614,
      "失": 615,
      "女": 616,
      "好": 617,
      "如": 618,
      "始": 619,
      "委": 620,
      "姝": 621,
      "媽": 622,
      "子": 623,
      "学": 624,
      "宇": 625,
      "安": 626,
      "宙": 627,
      "定": 628,
      "实": 629,
      "室": 630,
      "家": 631,
      "密": 632,
      "實": 633,
      "寻": 634,
      "専": 635,
      "将": 636,
      "小": 637,
      "尼": 638,
      "局": 639,
      "屋": 640,
      "展": 641,
      "属": 642,
      "山": 643,
      "嶧": 644,
      "己": 645,
      "已": 646,
      "市": 647,
      "希": 648,
      "帐": 649,
      "帮": 650,
      "常": 651,
      "年": 652,
      "庄": 653,
      "库": 654,
      "应": 655,
      "底": 656,
      "庙": 657,
      "度": 658,
      "廠": 659,
      "延": 660,
      "式": 661,
      "张": 662,
      "影": 663,
      "後": 664,
      "得": 665,
      "心": 666,
      "快": 667,
      "怕": 668,
      "性": 669,
      "恐": 670,
      "息": 671,
      "情": 672,
      "想": 673,
      "愁": 674,
      "意": 675,
      "愛": 676,
      "懂": 677,
      "成": 678,
      "我": 679,
      "或": 680,
      "戦": 681,
      "户": 682,
      "所": 683,
      "手": 684,
      "扵": 685,
      "找": 686,
      "技": 687,
      "把": 688,
      "投": 689,
      "拖": 690,
      "拳": 691,
      "挠": 692,
      "据": 693,
      "收": 694,
      "改": 695,
      "放": 696,
      "教": 697,
      "数": 698,
      "斗": 699,
      "斯": 700,
      "新": 701,
      "方": 702,
      "旋": 703,
      "族": 704,
      "日": 705,
      "时": 706,
      "昣": 707,
      "春": 708,
      "是": 709,
      "昼": 710,
      "晦": 711,
      "景": 712,
      "暗": 713,
      "更": 714,
      "曾": 715,
      "最": 716,
      "月": 717,
      "有": 718,
      "望": 719,
      "期": 720,
      "未": 721,
      "本": 722,
      "术": 723,
      "杀": 724,
      "权": 725,
      "村": 726,
      "束": 727,
      "条": 728,
      "来": 729,
      "杨": 730,
      "构": 731,
      "析": 732,
      "果": 733,
      "枯": 734,
      "核": 735,
      "格": 736,
      "棘": 737,
      "植": 738,
      "楴": 739,
      "構": 740,
      "槟": 741,
      "樣": 742,
      "機": 743,
      "次": 744,
      "款": 745,
      "歌": 746,
      "正": 747,
      "死": 748,
      "氏": 749,
      "民": 750,
      "水": 751,
      "汯": 752,
      "汴": 753,
      "法": 754,
      "活": 755,
      "派": 756,
      "济": 757,
      "海": 758,
      "渮": 759,
      "满": 760,
      "潦": 761,
      "爱": 762,
      "版": 763,
      "物": 764,
      "牯": 765,
      "猠": 766,
      "献": 767,
      "獥": 768,
      "獶": 769,
      "王": 770,
      "现": 771,
      "玲": 772,
      "現": 773,
      "琮": 774,
      "琳": 775,
      "瑞": 776,
      "瑠": 777,
      "瑥": 778,
      "瑮": 779,
      "瓣": 780,
      "甚": 781,
      "生": 782,
      "産": 783,
      "用": 784,
      "田": 785,
      "电": 786,
      "町": 787,
      "留": 788,
      "白": 789,
      "的": 790,
      "盟": 791,
      "監": 792,
      "目": 793,
      "看": 794,
      "真": 795,
      "眾": 796,
      "督": 797,
      "睷": 798,
      "知": 799,
      "研": 800,
      "示": 801,
      "社": 802,
      "神": 803,
      "票": 804,
      "私": 805,
      "科": 806,
      "程": 807,
      "穩": 808,
      "究": 809,
      "童": 810,
      "笑": 811,
      "第": 812,
      "笼": 813,
      "等": 814,
      "签": 815,
      "糖": 816,
      "系": 817,
      "紧": 818,
      "結": 819,
      "經": 820,
      "緣": 821,
      "约": 822,
      "纽": 823,
      "经": 824,
      "结": 825,
      "给": 826,
      "绝": 827,
      "统": 828,
      "编": 829,
      "置": 830,
      "耀": 831,
      "老": 832,
      "者": 833,
      "而": 834,
      "职": 835,
      "聯": 836,
      "聽": 837,
      "能": 838,
      "脇": 839,
      "自": 840,
      "至": 841,
      "與": 842,
      "興": 843,
      "花": 844,
      "若": 845,
      "范": 846,
      "茅": 847,
      "萄": 848,
      "葡": 849,
      "薛": 850,
      "虎": 851,
      "虚": 852,
      "蛮": 853,
      "蜜": 854,
      "螺": 855,
      "行": 856,
      "装": 857,
      "要": 858,
      "解": 859,
      "討": 860,
      "試": 861,
      "說": 862,
      "誰": 863,
      "論": 864,
      "计": 865,
      "讯": 866,
      "论": 867,
      "识": 868,
      "话": 869,
      "诞": 870,
      "语": 871,
      "说": 872,
      "请": 873,
      "谷": 874,
      "贼": 875,
      "赢": 876,
      "足": 877,
      "跟": 878,
      "路": 879,
      "身": 880,
      "軍": 881,
      "輝": 882,
      "载": 883,
      "过": 884,
      "迈": 885,
      "这": 886,
      "进": 887,
      "迦": 888,
      "适": 889,
      "造": 890,
      "過": 891,
      "道": 892,
      "部": 893,
      "都": 894,
      "鄭": 895,
      "醤": 896,
      "釋": 897,
      "量": 898,
      "銃": 899,
      "长": 900,
      "開": 901,
      "门": 902,
      "阿": 903,
      "陈": 904,
      "限": 905,
      "陸": 906,
      "难": 907,
      "雨": 908,
      "零": 909,
      "電": 910,
      "青": 911,
      "面": 912,
      "首": 913,
      "香": 914,
      "験": 915,
      "騰": 916,
      "高": 917,
      "麦": 918,
      "麼": 919,
      "": 920,
      "": 921,
      "": 922,
      "": 923,
      "": 924,
      "": 925,
      "": 926,
      "": 927,
      "": 928,
      "": 929,
      "": 930,
      "": 931,
      "": 932,
      "": 933,
      "": 934,
      "": 935,
      "": 936,
      "": 937,
      "": 938,
      "": 939,
      "ﬁ": 940,
      "ﬂ": 941,
      "﻿": 942,
      "％": 943,
      "（": 944,
      "）": 945,
      "，": 946,
      "：": 947,
      "；": 948,
      "＜": 949,
      "＞": 950,
      "�": 951,
      "🇬": 952,
      "🇭": 953,
      "🇯": 954,
      "🇲": 955,
      "🎨": 956,
      "📿": 957,
      "🕋": 958,
      "😂": 959,
      "😔": 960,
      "🙏": 961,
      "##c": 962,
      "##o": 963,
      "##r": 964,
      "##n": 965,
      "##e": 966,
      "##s": 967,
      "##y": 968,
      "##t": 969,
      "##h": 970,
      "##a": 971,
      "##g": 972,
      "##l": 973,
      "##m": 974,
      "##i": 975,
      "##5": 976,
      "##9": 977,
      "##3": 978,
      "##f": 979,
      "##d": 980,
      "##b": 981,
      "##u": 982,
      "##2": 983,
      "##4": 984,
      "##8": 985,
      "##1": 986,
      "##k": 987,
      "##z": 988,
      "##v": 989,
      "##j": 990,
      "##w": 991,
      "##6": 992,
      "##p": 993,
      "##x": 994,
      "##(": 995,
      "##-": 996,
      "##{": 997,
      "##0": 998,
      "##q": 999,
      "##ο": 1000,
      "##υ": 1001,
      "##7": 1002,
      "##_": 1003,
      "##<": 1004,
      "##ي": 1005,
      "##ل": 1006,
      "##ة": 1007,
      "##,": 1008,
      "##р": 1009,
      "##ч": 1010,
      "##ф": 1011,
      "##е": 1012,
      "##ю": 1013,
      "##с": 1014,
      "##ш": 1015,
      "##т": 1016,
      "##→": 1017,
      "##)": 1018,
      "##ن": 1019,
      "##ب": 1020,
      "##ت": 1021,
      "##ف": 1022,
      "##ز": 1023,
      "##و": 1024,
      "##`": 1025,
      "##ग": 1026,
      "##य": 1027,
      "##¹": 1028,
      "##.": 1029,
      "##ł": 1030,
      "##−": 1031,
      "##ح": 1032,
      "##ν": 1033,
      "##α": 1034,
      "##\"": 1035,
      "##:": 1036,
      "##त": 1037,
      "##प": 1038,
      "##ष": 1039,
      "##]": 1040,
      "##د": 1041,
      "##ا": 1042,
      "###": 1043,
      "##к": 1044,
      "##о": 1045,
      "##л": 1046,
      "##а": 1047,
      "##%": 1048,
      "##!": 1049,
      "##–": 1050,
      "##ξ": 1051,
      "##æ": 1052,
      "##茅": 1053,
      "##海": 1054,
      "##的": 1055,
      "##歌": 1056,
      "##>": 1057,
      "##º": 1058,
      "##र": 1059,
      "##भ": 1060,
      "##क": 1061,
      "##ر": 1062,
      "##خ": 1063,
      "##م": 1064,
      "##'": 1065,
      "##;": 1066,
      "##曾": 1067,
      "##經": 1068,
      "##愛": 1069,
      "##過": 1070,
      "##н": 1071,
      "##я": 1072,
      "##\\": 1073,
      "##’": 1074,
      "##媽": 1075,
      "##監": 1076,
      "##督": 1077,
      "##核": 1078,
      "##電": 1079,
      "##廠": 1080,
      "##聯": 1081,
      "##盟": 1082,
      "##ø": 1083,
      "##=": 1084,
      "##+": 1085,
      "##?": 1086,
      "##~": 1087,
      "##¡": 1088,
      "##ð": 1089,
      "##¶": 1090,
      "##з": 1091,
      "##ы": 1092,
      "##耀": 1093,
      "##[": 1094,
      "##đ": 1095,
      "##瑮": 1096,
      "##與": 1097,
      "##哀": 1098,
      "##愁": 1099,
      "##语": 1100,
      "##घ": 1101,
      "##غ": 1102,
      "##ث": 1103,
      "##π": 1104,
      "##ρ": 1105,
      "##ς": 1106,
      "##у": 1107,
      "##х": 1108,
      "##μ": 1109,
      "##ι": 1110,
      "##η": 1111,
      "##и": 1112,
      "##в": 1113,
      "##»": 1114,
      "##ص": 1115,
      "##χ": 1116,
      "##σ": 1117,
      "##”": 1118,
      "##ह": 1119,
      "##э": 1120,
      "##*": 1121,
      "##ı": 1122,
      "##ع": 1123,
      "##…": 1124,
      "##च": 1125,
      "##/": 1126,
      "##ك": 1127,
      "##д": 1128,
      "##ж": 1129,
      "##“": 1130,
      "##щ": 1131,
      "##戦": 1132,
      "##型": 1133,
      "##サ": 1134,
      "##ク": 1135,
      "##г": 1136,
      "##産": 1137,
      "##カ": 1138,
      "##ン": 1139,
      "##タ": 1140,
      "##ल": 1141,
      "##♪": 1142,
      "##थ": 1143,
      "##—": 1144,
      "##ق": 1145,
      "##½": 1146,
      "##ε": 1147,
      "##­": 1148,
      "##■": 1149,
      "##м": 1150,
      "##‘": 1151,
      "##论": 1152,
      "##坛": 1153,
      "##τ": 1154,
      "##·": 1155,
      "##処": 1156,
      "##て": 1157,
      "##す": 1158,
      "##か": 1159,
      "##қ": 1160,
      "##س": 1161,
      "##㨰": 1162,
      "##ⰲ": 1163,
      "##µ": 1164,
      "##ь": 1165,
      "##生": 1166,
      "##活": 1167,
      "##日": 1168,
      "##子": 1169,
      "##œ": 1170,
      "##フ": 1171,
      "##ラ": 1172,
      "##イ": 1173,
      "##ト": 1174,
      "##ش": 1175,
      "##ª": 1176,
      "##§": 1177,
      "##►": 1178,
      "##ร": 1179,
      "##บ": 1180,
      "##ค": 1181,
      "##อ": 1182,
      "##ม": 1183,
      "##ﬂ": 1184,
      "##刚": 1185,
      "##在": 1186,
      "##路": 1187,
      "##上": 1188,
      "##お": 1189,
      "##よ": 1190,
      "##ひ": 1191,
      "##ض": 1192,
      "##ى": 1193,
      "##$": 1194,
      "##室": 1195,
      "##町": 1196,
      "##„": 1197,
      "##п": 1198,
      "##ন": 1199,
      "##ত": 1200,
      "##न": 1201,
      "##λ": 1202,
      "##β": 1203,
      "##ω": 1204,
      "##ई": 1205,
      "##ड": 1206,
      "##´": 1207,
      "##ध": 1208,
      "##म": 1209,
      "##ß": 1210,
      "##ओ": 1211,
      "##श": 1212,
      "##व": 1213,
      "##द": 1214,
      "##•": 1215,
      "##स": 1216,
      "##ː": 1217,
      "##ज": 1218,
      "##∞": 1219,
      "##": 1220,
      "##う": 1221,
      "##し": 1222,
      "##い": 1223,
      "##ら": 1224,
      "##な": 1225,
      "##κ": 1226,
      "##®": 1227,
      "##⌘": 1228,
      "##田": 1229,
      "##玲": 1230,
      "##司": 1231,
      "##ه": 1232,
      "##×": 1233,
      "##都": 1234,
      "##說": 1235,
      "##不": 1236,
      "##得": 1237,
      "##ッ": 1238,
      "##ಸ": 1239,
      "##ರ": 1240,
      "##δ": 1241,
      "##þ": 1242,
      "##छ": 1243,
      "##ट": 1244,
      "##ख": 1245,
      "##能": 1246,
      "##过": 1247,
      "##于": 1248,
      "##笼": 1249,
      "##统": 1250,
      "##ъ": 1251,
      "##ब": 1252,
      "##≡": 1253,
      "##†": 1254,
      "##们": 1255,
      "##使": 1256,
      "##我": 1257,
      "##紧": 1258,
      "##张": 1259,
      "##ц": 1260,
      "##£": 1261,
      "##ط": 1262,
      "##¿": 1263,
      "##ム": 1264,
      "##怕": 1265,
      "##以": 1266,
      "##后": 1267,
      "##要": 1268,
      "##杀": 1269,
      "##死": 1270,
      "##他": 1271,
      "##&": 1272,
      "##ء": 1273,
      "##°": 1274,
      "##ᅦ": 1275,
      "##ᄌ": 1276,
      "##ᅮ": 1277,
      "##ᄋ": 1278,
      "##ᅥ": 1279,
      "##四": 1280,
      "##式": 1281,
      "##拳": 1282,
      "##銃": 1283,
      "##长": 1284,
      "##谷": 1285,
      "##底": 1286,
      "##植": 1287,
      "##物": 1288,
      "##是": 1289,
      "##任": 1290,
      "##何": 1291,
      "##公": 1292,
      "##共": 1293,
      "##团": 1294,
      "##体": 1295,
      "##会": 1296,
      "##员": 1297,
      "##真": 1298,
      "##市": 1299,
      "##场": 1300,
      "##若": 1301,
      "##琳": 1302,
      "##": 1303,
      "##る": 1304,
      "##ー": 1305,
      "##ァ": 1306,
      "##家": 1307,
      "##民": 1308,
      "##族": 1309,
      "##事": 1310,
      "##务": 1311,
      "##委": 1312,
      "##经": 1313,
      "##济": 1314,
      "##发": 1315,
      "##展": 1316,
      "##名": 1317,
      "##条": 1318,
      "##款": 1319,
      "##解": 1320,
      "##析": 1321,
      "##ス": 1322,
      "##を": 1323,
      "##作": 1324,
      "##成": 1325,
      "##⚡": 1326,
      "##♥": 1327,
      "##ʿ": 1328,
      "##±": 1329,
      "##झ": 1330,
      "##": 1331,
      "##ナ": 1332,
      "##ハ": 1333,
      "##こ": 1334,
      "##γ": 1335,
      "##«": 1336,
      "##图": 1337,
      "##适": 1338,
      "##应": 1339,
      "##书": 1340,
      "##电": 1341,
      "##影": 1342,
      "##陈": 1343,
      "##姝": 1344,
      "##伶": 1345,
      "##@": 1346,
      "##春": 1347,
      "##手": 1348,
      "##卷": 1349,
      "##ψ": 1350,
      "##ѕ": 1351,
      "##ذ": 1352,
      "##φ": 1353,
      "##∗": 1354,
      "##嶧": 1355,
      "##意": 1356,
      "##进": 1357,
      "##军": 1358,
      "##零": 1359,
      "##售": 1360,
      "##业": 1361,
      "##结": 1362,
      "##束": 1363,
      "##兰": 1364,
      "##花": 1365,
      "##兼": 1366,
      "##职": 1367,
      "##�": 1368,
      "##装": 1369,
      "##纽": 1370,
      "##约": 1371,
      "##。": 1372,
      "##暗": 1373,
      "##水": 1374,
      "##の": 1375,
      "##果": 1376,
      "##你": 1377,
      "##给": 1378,
      "##个": 1379,
      "##说": 1380,
      "##法": 1381,
      "##本": 1382,
      "##大": 1383,
      "##小": 1384,
      "##或": 1385,
      "##位": 1386,
      "##置": 1387,
      "##程": 1388,
      "##下": 1389,
      "##载": 1390,
      "##道": 1391,
      "##口": 1392,
      "##¾": 1393,
      "##€": 1394,
      "##ﬁ": 1395,
      "##і": 1396,
      "##ण": 1397,
      "##һ": 1398,
      "##": 1399,
      "##¦": 1400,
      "##克": 1401,
      "##": 1402,
      "##": 1403,
      "##ᆫ": 1404,
      "##ᅯ": 1405,
      "##ᄅ": 1406,
      "##ᅳ": 1407,
      "##ᆼ": 1408,
      "##🇭": 1409,
      "##ө": 1410,
      "##ү": 1411,
      "##б": 1412,
      "##难": 1413,
      "##望": 1414,
      "##帮": 1415,
      "##助": 1416,
      "##一": 1417,
      "##些": 1418,
      "##老": 1419,
      "##兵": 1420,
      "##等": 1421,
      "##國": 1422,
      "##可": 1423,
      "##¨": 1424,
      "##™": 1425,
      "##ی": 1426,
      "##ル": 1427,
      "##専": 1428,
      "##用": 1429,
      "##↑": 1430,
      "##ए": 1431,
      "##：": 1432,
      "##♫": 1433,
      "##月": 1434,
      "##आ": 1435,
      "##¢": 1436,
      "##寻": 1437,
      "##常": 1438,
      "##ი": 1439,
      "##რ": 1440,
      "##ო": 1441,
      "##ს": 1442,
      "##მ": 1443,
      "##ა": 1444,
      "##ნ": 1445,
      "##ج": 1446,
      "##ˮ": 1447,
      "##行": 1448,
      "##量": 1449,
      "##ホ": 1450,
      "##高": 1451,
      "##興": 1452,
      "##‏": 1453,
      "##性": 1454,
      "##輝": 1455,
      "##く": 1456,
      "##社": 1457,
      "##‎": 1458,
      "##ə": 1459,
      "##另": 1460,
      "##方": 1461,
      "##面": 1462,
      "##^": 1463,
      "##私": 1464,
      "##人": 1465,
      "##讯": 1466,
      "##息": 1467,
      "##θ": 1468,
      "##つ": 1469,
      "##ろ": 1470,
      "##期": 1471,
      "##シ": 1472,
      "##〰": 1473,
      "##}": 1474,
      "##关": 1475,
      "##系": 1476,
      "##笑": 1477,
      "##话": 1478,
      "##そ": 1479,
      "##¤": 1480,
      "##മ": 1481,
      "##ഊ": 1482,
      "##㤊": 1483,
      "##㤹": 1484,
      "##ਹ": 1485,
      "##構": 1486,
      "##拖": 1487,
      "##延": 1488,
      "##¬": 1489,
      "##キ": 1490,
      "##ャ": 1491,
      "##ノ": 1492,
      "##ʼ": 1493,
      "##ђ": 1494,
      "##商": 1495,
      "##示": 1496,
      "##范": 1497,
      "##有": 1498,
      "##计": 1499,
      "##局": 1500,
      "##和": 1501,
      "##科": 1502,
      "##技": 1503,
      "##©": 1504,
      "##後": 1505,
      "##た": 1506,
      "##供": 1507,
      "##に": 1508,
      "##教": 1509,
      "##え": 1510,
      "##と": 1511,
      "##所": 1512,
      "##属": 1513,
      "##開": 1514,
      "##始": 1515,
      "##地": 1516,
      "##↓": 1517,
      "##ठ": 1518,
      "##件": 1519,
      "##放": 1520,
      "##心": 1521,
      "##出": 1522,
      "##自": 1523,
      "##己": 1524,
      "##阿": 1525,
      "##密": 1526,
      "##献": 1527,
      "##瑞": 1528,
      "##😂": 1529,
      "##♦": 1530,
      "##🕋": 1531,
      "##📿": 1532,
      "##³": 1533,
      "##晦": 1534,
      "##": 1535,
      "##න": 1536,
      "##ඳ": 1537,
      "##ද": 1538,
      "##迦": 1539,
      "##也": 1540,
      "##失": 1541,
      "##ⴞ": 1542,
      "##屋": 1543,
      "##氏": 1544,
      "##瓣": 1545,
      "##雨": 1546,
      "##ˆ": 1547,
      "##﻿": 1548,
      "##虚": 1549,
      "##构": 1550,
      "##帐": 1551,
      "##目": 1552,
      "##‐": 1553,
      "##‫": 1554,
      "##ミ": 1555,
      "##レ": 1556,
      "##モ": 1557,
      "##门": 1558,
      "##ґ": 1559,
      "##潦": 1560,
      "##挠": 1561,
      "##汯": 1562,
      "##牯": 1563,
      "##瑠": 1564,
      "##י": 1565,
      "##ち": 1566,
      "##白": 1567,
      "##昼": 1568,
      "##夢": 1569,
      "##增": 1570,
      "##加": 1571,
      "##六": 1572,
      "##新": 1573,
      "##叶": 1574,
      "##限": 1575,
      "##第": 1576,
      "##七": 1577,
      "##仓": 1578,
      "##安": 1579,
      "##格": 1580,
      "##": 1581,
      "##ј": 1582,
      "##ढ": 1583,
      "##学": 1584,
      "##习": 1585,
      "##ظ": 1586,
      "##¥": 1587,
      "##术": 1588,
      "##版": 1589,
      "##​": 1590,
      "##ᅵ": 1591,
      "##ᆷ": 1592,
      "##ᄉ": 1593,
      "##ᅡ": 1594,
      "##ᅩ": 1595,
      "##ᆨ": 1596,
      "##來": 1597,
      "##爱": 1598,
      "##时": 1599,
      "##世": 1600,
      "##情": 1601,
      "##緣": 1602,
      "##¼": 1603,
      "##从": 1604,
      "##ᄆ": 1605,
      "##ᄐ": 1606,
      "##ᄃ": 1607,
      "##ᆯ": 1608,
      "##¯": 1609,
      "##わ": 1610,
      "##部": 1611,
      "##分": 1612,
      "##啊": 1613,
      "##फ": 1614,
      "##इ": 1615,
      "##希": 1616,
      "##赢": 1617,
      "##更": 1618,
      "##多": 1619,
      "##知": 1620,
      "##识": 1621,
      "##ⰰ": 1622,
      "##〵": 1623,
      "##฀": 1624,
      "##": 1625,
      "##至": 1626,
      "##定": 1627,
      "##留": 1628,
      "##权": 1629,
      "##ふ": 1630,
      "##ん": 1631,
      "##贼": 1632,
      "##首": 1633,
      "##討": 1634,
      "##論": 1635,
      "##天": 1636,
      "##ᄀ": 1637,
      "##ᅱ": 1638,
      "##🇲": 1639,
      "##🎨": 1640,
      "##度": 1641,
      "##ـ": 1642,
      "##村": 1643,
      "##ヮ": 1644,
      "##穩": 1645,
      "##㵥": 1646,
      "##㐱": 1647,
      "##眾": 1648,
      "##睷": 1649,
      "##琮": 1650,
      "##獶": 1651,
      "##扵": 1652,
      "##楴": 1653,
      "##汴": 1654,
      "##獥": 1655,
      "##渮": 1656,
      "##瑥": 1657,
      "##≥": 1658,
      "##實": 1659,
      "##懂": 1660,
      "##实": 1661,
      "##改": 1662,
      "##编": 1663,
      "##斯": 1664,
      "##满": 1665,
      "##足": 1666,
      "##ҳ": 1667,
      "##≤": 1668,
      "##ᅭ": 1669,
      "##ᄇ": 1670,
      "##ᆸ": 1671,
      "##蛮": 1672,
      "##า": 1673,
      "##景": 1674,
      "##亭": 1675,
      "##庄": 1676,
      "##‚": 1677,
      "##只": 1678,
      "##令": 1679,
      "##票": 1680,
      "##²": 1681,
      "##宙": 1682,
      "##機": 1683,
      "##動": 1684,
      "##試": 1685,
      "##験": 1686,
      "##诞": 1687,
      "##快": 1688,
      "##乐": 1689,
      "##为": 1690,
      "##次": 1691,
      "##又": 1692,
      "##回": 1693,
      "##绝": 1694,
      "##了": 1695,
      "##买": 1696,
      "##找": 1697,
      "##户": 1698,
      "##投": 1699,
      "##最": 1700,
      "##佳": 1701,
      "##数": 1702,
      "##据": 1703,
      "##库": 1704,
      "##创": 1705,
      "##造": 1706,
      "##醤": 1707,
      "##品": 1708,
      "##旋": 1709,
      "##丸": 1710,
      "##已": 1711,
      "##做": 1712,
      "##年": 1713,
      "##虎": 1714,
      "##庙": 1715,
      "##好": 1716,
      "##研": 1717,
      "##究": 1718,
      "##者": 1719,
      "##史": 1720,
      "##騰": 1721,
      "##未": 1722,
      "##甚": 1723,
      "##麼": 1724,
      "##樣": 1725,
      "##誰": 1726,
      "##蜜": 1727,
      "##夫": 1728,
      "##糖": 1729,
      "##槟": 1730,
      "##来": 1731,
      "##国": 1732,
      "##葡": 1733,
      "##萄": 1734,
      "##园": 1735,
      "##如": 1736,
      "##今": 1737,
      "##棘": 1738,
      "##枯": 1739,
      "##斗": 1740,
      "##₀": 1741,
      "##コ": 1742,
      "th": 1743,
      "the": 1744,
      "##er": 1745,
      "##on": 1746,
      "##in": 1747,
      "##at": 1748,
      "##ou": 1749,
      "##en": 1750,
      "##es": 1751,
      "##or": 1752,
      "##an": 1753,
      "##ed": 1754,
      "of": 1755,
      "an": 1756,
      "to": 1757,
      "##ing": 1758,
      "in": 1759,
      "##it": 1760,
      "##al": 1761,
      "##ion": 1762,
      "##ar": 1763,
      "##is": 1764,
      "and": 1765,
      "you": 1766,
      "##re": 1767,
      "##ic": 1768,
      "##om": 1769,
      "##as": 1770,
      "##ll": 1771,
      "##ent": 1772,
      "re": 1773,
      "##le": 1774,
      "##ve": 1775,
      "wh": 1776,
      "be": 1777,
      "##ot": 1778,
      "it": 1779,
      "##ation": 1780,
      "##st": 1781,
      "##et": 1782,
      "##ct": 1783,
      "##ow": 1784,
      "that": 1785,
      "##ut": 1786,
      "on": 1787,
      "for": 1788,
      "is": 1789,
      "##ro": 1790,
      "##id": 1791,
      "##ly": 1792,
      "##ay": 1793,
      "##ig": 1794,
      "##ur": 1795,
      "##ce": 1796,
      "st": 1797,
      "we": 1798,
      "##se": 1799,
      "##ld": 1800,
      "he": 1801,
      "##ad": 1802,
      "me": 1803,
      "com": 1804,
      "##ch": 1805,
      "##im": 1806,
      "##ith": 1807,
      "##ir": 1808,
      "con": 1809,
      "##am": 1810,
      "##ver": 1811,
      "with": 1812,
      "sh": 1813,
      "de": 1814,
      "as": 1815,
      "##ment": 1816,
      "##ter": 1817,
      "ha": 1818,
      "pro": 1819,
      "this": 1820,
      "##th": 1821,
      "go": 1822,
      "se": 1823,
      "##il": 1824,
      "##ol": 1825,
      "##igh": 1826,
      "not": 1827,
      "do": 1828,
      "##ess": 1829,
      "are": 1830,
      "##ere": 1831,
      "##ke": 1832,
      "su": 1833,
      "##op": 1834,
      "##ul": 1835,
      "##ill": 1836,
      "##ra": 1837,
      "un": 1838,
      "was": 1839,
      "ch": 1840,
      "##ight": 1841,
      "or": 1842,
      "ne": 1843,
      "##ri": 1844,
      "##ate": 1845,
      "##ant": 1846,
      "have": 1847,
      "##od": 1848,
      "##oun": 1849,
      "##est": 1850,
      "##pp": 1851,
      "##ust": 1852,
      "##..": 1853,
      "what": 1854,
      "##un": 1855,
      "##ers": 1856,
      "##ould": 1857,
      "li": 1858,
      "at": 1859,
      "...": 1860,
      "ex": 1861,
      "fr": 1862,
      "##ort": 1863,
      "all": 1864,
      "##ity": 1865,
      "##ck": 1866,
      "##pe": 1867,
      "so": 1868,
      "by": 1869,
      "##ab": 1870,
      "no": 1871,
      "##ist": 1872,
      "##ge": 1873,
      "##ive": 1874,
      "##ain": 1875,
      "##and": 1876,
      "your": 1877,
      "pr": 1878,
      "##ies": 1879,
      "en": 1880,
      "##art": 1881,
      "can": 1882,
      "my": 1883,
      "al": 1884,
      "##os": 1885,
      "##ci": 1886,
      "##us": 1887,
      "##um": 1888,
      "wor": 1889,
      "lo": 1890,
      "comm": 1891,
      "kn": 1892,
      "but": 1893,
      "ab": 1894,
      "le": 1895,
      "##00": 1896,
      "##all": 1897,
      "from": 1898,
      "there": 1899,
      "##mp": 1900,
      "##ff": 1901,
      "##end": 1902,
      "##ie": 1903,
      "##ore": 1904,
      "don": 1905,
      "know": 1906,
      "they": 1907,
      "ar": 1908,
      "##ome": 1909,
      "##iv": 1910,
      "##ect": 1911,
      "##out": 1912,
      "##ry": 1913,
      "will": 1914,
      "##gh": 1915,
      "##ations": 1916,
      "out": 1917,
      "res": 1918,
      "right": 1919,
      "##ard": 1920,
      "##our": 1921,
      "ad": 1922,
      "##ud": 1923,
      "##el": 1924,
      "##ions": 1925,
      "ma": 1926,
      "up": 1927,
      "just": 1928,
      "##ber": 1929,
      "ag": 1930,
      "co": 1931,
      "##der": 1932,
      "##ich": 1933,
      "te": 1934,
      "if": 1935,
      "##em": 1936,
      "##her": 1937,
      "pl": 1938,
      "##ally": 1939,
      "##ok": 1940,
      "ye": 1941,
      "who": 1942,
      "one": 1943,
      "us": 1944,
      "ta": 1945,
      "##ure": 1946,
      "##qu": 1947,
      "part": 1948,
      "get": 1949,
      "has": 1950,
      "man": 1951,
      "like": 1952,
      "tr": 1953,
      "##ough": 1954,
      "##ice": 1955,
      "##cc": 1956,
      "coun": 1957,
      "200": 1958,
      "she": 1959,
      "which": 1960,
      "inter": 1961,
      "about": 1962,
      "cont": 1963,
      "am": 1964,
      "##if": 1965,
      "##one": 1966,
      "##ast": 1967,
      "here": 1968,
      "##iz": 1969,
      "##ance": 1970,
      "##ary": 1971,
      "imp": 1972,
      "rep": 1973,
      "any": 1974,
      "how": 1975,
      "##ine": 1976,
      "##iss": 1977,
      "##ap": 1978,
      "##king": 1979,
      "##ack": 1980,
      "##ous": 1981,
      "##ated": 1982,
      "did": 1983,
      "di": 1984,
      "comp": 1985,
      "##ind": 1986,
      "##itt": 1987,
      "sa": 1988,
      "##ish": 1989,
      "##ime": 1990,
      "##ther": 1991,
      "##ia": 1992,
      "##lo": 1993,
      "her": 1994,
      "int": 1995,
      "##ence": 1996,
      "reg": 1997,
      "##ame": 1998,
      "##ong": 1999,
      "him": 2000,
      "his": 2001,
      "##vel": 2002,
      "pe": 2003,
      "##ag": 2004,
      "##ans": 2005,
      "been": 2006,
      "well": 2007,
      "app": 2008,
      "would": 2009,
      "##ational": 2010,
      "want": 2011,
      "off": 2012,
      "now": 2013,
      "their": 2014,
      "some": 2015,
      "act": 2016,
      "fa": 2017,
      "##ink": 2018,
      "ll": 2019,
      "gr": 2020,
      "inc": 2021,
      "were": 2022,
      "than": 2023,
      "##ase": 2024,
      "##au": 2025,
      "##ound": 2026,
      "##able": 2027,
      "##age": 2028,
      "##du": 2029,
      "19": 2030,
      "##orm": 2031,
      "our": 2032,
      "see": 2033,
      "its": 2034,
      "##ib": 2035,
      "dis": 2036,
      "per": 2037,
      "mo": 2038,
      "##lic": 2039,
      "##so": 2040,
      "sp": 2041,
      "##reat": 2042,
      "had": 2043,
      "when": 2044,
      "##ult": 2045,
      "sec": 2046,
      "##ven": 2047,
      "##ree": 2048,
      "ever": 2049,
      "##ide": 2050,
      "##ip": 2051,
      "time": 2052,
      "them": 2053,
      "##ee": 2054,
      "##ue": 2055,
      "##gr": 2056,
      "more": 2057,
      "##per": 2058,
      "car": 2059,
      "got": 2060,
      "acc": 2061,
      "gu": 2062,
      "##ical": 2063,
      "need": 2064,
      "pre": 2065,
      "##cial": 2066,
      "other": 2067,
      "good": 2068,
      "should": 2069,
      "##pt": 2070,
      "fe": 2071,
      "##ates": 2072,
      "##ace": 2073,
      "ve": 2074,
      "under": 2075,
      "qu": 2076,
      "eu": 2077,
      "may": 2078,
      "look": 2079,
      "fo": 2080,
      "mar": 2081,
      "##ord": 2082,
      "##ose": 2083,
      "spe": 2084,
      "work": 2085,
      "##ru": 2086,
      "come": 2087,
      "cl": 2088,
      "##ach": 2089,
      "##ah": 2090,
      "where": 2091,
      "rec": 2092,
      "##ub": 2093,
      "think": 2094,
      "br": 2095,
      "##ments": 2096,
      "af": 2097,
      "##og": 2098,
      "po": 2099,
      "new": 2100,
      "##hing": 2101,
      "##form": 2102,
      "oh": 2103,
      "bec": 2104,
      "##ities": 2105,
      "##ces": 2106,
      "year": 2107,
      "##na": 2108,
      "also": 2109,
      "count": 2110,
      "##ission": 2111,
      "##ild": 2112,
      "let": 2113,
      "ind": 2114,
      "par": 2115,
      "peop": 2116,
      "say": 2117,
      "ser": 2118,
      "cons": 2119,
      "##ited": 2120,
      "over": 2121,
      "pol": 2122,
      "##ade": 2123,
      "##ign": 2124,
      "##own": 2125,
      "la": 2126,
      "dec": 2127,
      "##ition": 2128,
      "##ens": 2129,
      "bo": 2130,
      "ro": 2131,
      "bet": 2132,
      "##velop": 2133,
      "prov": 2134,
      "gen": 2135,
      "could": 2136,
      "every": 2137,
      "##ction": 2138,
      "tw": 2139,
      "take": 2140,
      "develop": 2141,
      "people": 2142,
      "pres": 2143,
      "euro": 2144,
      "##ial": 2145,
      "##ause": 2146,
      "back": 2147,
      "these": 2148,
      "##ery": 2149,
      "##way": 2150,
      "##ings": 2151,
      "art": 2152,
      "ok": 2153,
      "only": 2154,
      "intern": 2155,
      "##ons": 2156,
      "why": 2157,
      "##ian": 2158,
      "fir": 2159,
      "##ving": 2160,
      "ec": 2161,
      "cr": 2162,
      "##ced": 2163,
      "##sel": 2164,
      "mem": 2165,
      "##ak": 2166,
      "exp": 2167,
      "supp": 2168,
      "sub": 2169,
      "into": 2170,
      "##ass": 2171,
      "way": 2172,
      "##ang": 2173,
      "europe": 2174,
      "##we": 2175,
      "##vent": 2176,
      "##ite": 2177,
      "##ution": 2178,
      "then": 2179,
      "##cil": 2180,
      "call": 2181,
      "##int": 2182,
      "again": 2183,
      "##eral": 2184,
      "mr": 2185,
      "##ile": 2186,
      "going": 2187,
      "##ject": 2188,
      "rel": 2189,
      "ass": 2190,
      "yeah": 2191,
      "##ning": 2192,
      "##other": 2193,
      "report": 2194,
      "##fore": 2195,
      "sy": 2196,
      "fin": 2197,
      "##lud": 2198,
      "day": 2199,
      "##ors": 2200,
      "two": 2201,
      "first": 2202,
      "##ory": 2203,
      "commission": 2204,
      "make": 2205,
      "20": 2206,
      "##ond": 2207,
      "##fe": 2208,
      "##act": 2209,
      "jo": 2210,
      "hum": 2211,
      "##omet": 2212,
      "thr": 2213,
      "str": 2214,
      "very": 2215,
      "##ick": 2216,
      "tra": 2217,
      "ob": 2218,
      "tell": 2219,
      "min": 2220,
      "##ire": 2221,
      "states": 2222,
      "##fer": 2223,
      "##ph": 2224,
      "##cy": 2225,
      "okay": 2226,
      "progr": 2227,
      "##ft": 2228,
      "those": 2229,
      "because": 2230,
      "fu": 2231,
      "##les": 2232,
      "##ved": 2233,
      "conc": 2234,
      "down": 2235,
      "united": 2236,
      "commun": 2237,
      "somet": 2238,
      "##get": 2239,
      "##gan": 2240,
      "does": 2241,
      "##li": 2242,
      "##ious": 2243,
      "##pect": 2244,
      "##ty": 2245,
      "sc": 2246,
      "international": 2247,
      "##ater": 2248,
      "rem": 2249,
      "such": 2250,
      "eff": 2251,
      "must": 2252,
      "ter": 2253,
      "artic": 2254,
      "##ise": 2255,
      "##wn": 2256,
      "after": 2257,
      "produ": 2258,
      "fun": 2259,
      "bel": 2260,
      "##ks": 2261,
      "pos": 2262,
      "##ating": 2263,
      "gon": 2264,
      "gover": 2265,
      "inform": 2266,
      "mon": 2267,
      "inv": 2268,
      "human": 2269,
      "bu": 2270,
      "##ep": 2271,
      "inst": 2272,
      "state": 2273,
      "##ys": 2274,
      "##ress": 2275,
      "##ble": 2276,
      "even": 2277,
      "world": 2278,
      "pers": 2279,
      "##thing": 2280,
      "hel": 2281,
      "ph": 2282,
      "##tain": 2283,
      "gonna": 2284,
      "said": 2285,
      "yes": 2286,
      "##cess": 2287,
      "child": 2288,
      "committ": 2289,
      "tal": 2290,
      "trans": 2291,
      "partic": 2292,
      "##ures": 2293,
      "add": 2294,
      "##ual": 2295,
      "##ative": 2296,
      "includ": 2297,
      "##ict": 2298,
      "through": 2299,
      "ho": 2300,
      "govern": 2301,
      "european": 2302,
      "general": 2303,
      "##oup": 2304,
      "##ident": 2305,
      "##ublic": 2306,
      "help": 2307,
      "wom": 2308,
      "##ody": 2309,
      "council": 2310,
      "made": 2311,
      "##ible": 2312,
      "##ular": 2313,
      "happ": 2314,
      "##ac": 2315,
      "des": 2316,
      "##llow": 2317,
      "##ms": 2318,
      "mu": 2319,
      "##are": 2320,
      "article": 2321,
      "organ": 2322,
      "requ": 2323,
      "##ries": 2324,
      "shall": 2325,
      "##ision": 2326,
      "cent": 2327,
      "##uth": 2328,
      "##rect": 2329,
      "something": 2330,
      "great": 2331,
      "##ret": 2332,
      "##ail": 2333,
      "att": 2334,
      "cour": 2335,
      "rights": 2336,
      "years": 2337,
      "never": 2338,
      "199": 2339,
      "really": 2340,
      "ple": 2341,
      "##amm": 2342,
      "god": 2343,
      "##lish": 2344,
      "development": 2345,
      "##ices": 2346,
      "##ves": 2347,
      "##oc": 2348,
      "bas": 2349,
      "##ought": 2350,
      "##lement": 2351,
      "too": 2352,
      "prot": 2353,
      "hey": 2354,
      "before": 2355,
      "##oth": 2356,
      "meet": 2357,
      "##ents": 2358,
      "##ath": 2359,
      "didn": 2360,
      "##self": 2361,
      "use": 2362,
      "##xt": 2363,
      "##stem": 2364,
      "committee": 2365,
      "##ady": 2366,
      "bl": 2367,
      "high": 2368,
      "life": 2369,
      "##rib": 2370,
      "id": 2371,
      "law": 2372,
      "),": 2373,
      "##onom": 2374,
      "##ange": 2375,
      ").": 2376,
      "long": 2377,
      "follow": 2378,
      "##mm": 2379,
      "##ility": 2380,
      "##ulation": 2381,
      "national": 2382,
      "import": 2383,
      "##day": 2384,
      "wa": 2385,
      "diff": 2386,
      "find": 2387,
      "system": 2388,
      "information": 2389,
      "##ather": 2390,
      "##res": 2391,
      "##ily": 2392,
      "##urn": 2393,
      "##ting": 2394,
      "nations": 2395,
      "est": 2396,
      "give": 2397,
      "mean": 2398,
      "##iew": 2399,
      "love": 2400,
      "serv": 2401,
      "##amp": 2402,
      "##ittle": 2403,
      "##man": 2404,
      "sm": 2405,
      "little": 2406,
      "most": 2407,
      "wr": 2408,
      "##ne": 2409,
      "support": 2410,
      "##be": 2411,
      "countries": 2412,
      "##ful": 2413,
      "much": 2414,
      "##ween": 2415,
      "el": 2416,
      "##ric": 2417,
      "between": 2418,
      "op": 2419,
      "10": 2420,
      "direct": 2421,
      "last": 2422,
      "leg": 2423,
      "##ren": 2424,
      "set": 2425,
      "##ract": 2426,
      "group": 2427,
      "being": 2428,
      "econom": 2429,
      "##ave": 2430,
      "num": 2431,
      "em": 2432,
      "member": 2433,
      "many": 2434,
      "appro": 2435,
      "ac": 2436,
      "##als": 2437,
      "end": 2438,
      "cap": 2439,
      "sch": 2440,
      "##ific": 2441,
      "##ied": 2442,
      "##uring": 2443,
      "put": 2444,
      "still": 2445,
      "disc": 2446,
      "hand": 2447,
      "programm": 2448,
      "fl": 2449,
      "please": 2450,
      "##eration": 2451,
      "##min": 2452,
      "government": 2453,
      "det": 2454,
      "sor": 2455,
      "##te": 2456,
      "201": 2457,
      "sin": 2458,
      "own": 2459,
      "##olog": 2460,
      "ins": 2461,
      "organiz": 2462,
      "plan": 2463,
      "##ern": 2464,
      "##ute": 2465,
      "##pos": 2466,
      "place": 2467,
      "##ted": 2468,
      "thank": 2469,
      "##vers": 2470,
      "##riend": 2471,
      "##ives": 2472,
      "fam": 2473,
      "auth": 2474,
      "list": 2475,
      "secur": 2476,
      "real": 2477,
      "##ts": 2478,
      "##olution": 2479,
      "sorry": 2480,
      "mat": 2481,
      "women": 2482,
      "med": 2483,
      "##lect": 2484,
      "same": 2485,
      "sit": 2486,
      "##ural": 2487,
      "##ieve": 2488,
      "pri": 2489,
      "person": 2490,
      "kill": 2491,
      "##ional": 2492,
      "##av": 2493,
      "cle": 2494,
      "conf": 2495,
      "char": 2496,
      "##its": 2497,
      "won": 2498,
      "sure": 2499,
      "against": 2500,
      "form": 2501,
      "dem": 2502,
      "##cept": 2503,
      "consid": 2504,
      "implement": 2505,
      "feel": 2506,
      "president": 2507,
      "es": 2508,
      "ear": 2509,
      "##ward": 2510,
      "##ix": 2511,
      "social": 2512,
      "mark": 2513,
      "##air": 2514,
      "dep": 2515,
      "contin": 2516,
      "def": 2517,
      "dr": 2518,
      "country": 2519,
      "sur": 2520,
      "##ouse": 2521,
      "##ues": 2522,
      "security": 2523,
      ".\"": 2524,
      "author": 2525,
      "iss": 2526,
      "##raph": 2527,
      "thing": 2528,
      "##ear": 2529,
      "##eep": 2530,
      "resp": 2531,
      "met": 2532,
      "public": 2533,
      "home": 2534,
      "##ower": 2535,
      "cor": 2536,
      "start": 2537,
      "play": 2538,
      "##ene": 2539,
      "community": 2540,
      "number": 2541,
      "prom": 2542,
      "children": 2543,
      "wait": 2544,
      "##land": 2545,
      "order": 2546,
      "accord": 2547,
      "try": 2548,
      "secret": 2549,
      "three": 2550,
      "##chn": 2551,
      "protect": 2552,
      "ext": 2553,
      "sign": 2554,
      "oper": 2555,
      "##hip": 2556,
      "provid": 2557,
      "meas": 2558,
      "ent": 2559,
      "doing": 2560,
      "dra": 2561,
      "keep": 2562,
      "poss": 2563,
      "differ": 2564,
      "point": 2565,
      "used": 2566,
      "##irl": 2567,
      "special": 2568,
      "particular": 2569,
      "ra": 2570,
      "##ever": 2571,
      "##par": 2572,
      "##ament": 2573,
      "emp": 2574,
      "##cu": 2575,
      "##ism": 2576,
      "##uss": 2577,
      "vi": 2578,
      "##oney": 2579,
      "##arm": 2580,
      "polic": 2581,
      "economic": 2582,
      "care": 2583,
      "treat": 2584,
      "effect": 2585,
      "found": 2586,
      "quest": 2587,
      "show": 2588,
      "##ters": 2589,
      "level": 2590,
      "12": 2591,
      "talk": 2592,
      "ask": 2593,
      "techn": 2594,
      "proble": 2595,
      "bus": 2596,
      "##red": 2597,
      "old": 2598,
      "without": 2599,
      "##ways": 2600,
      "stop": 2601,
      "friend": 2602,
      "happen": 2603,
      "ev": 2604,
      "better": 2605,
      "##ablish": 2606,
      "name": 2607,
      "establish": 2608,
      "activ": 2609,
      "##eng": 2610,
      "rev": 2611,
      "##stand": 2612,
      "che": 2613,
      "head": 2614,
      "##led": 2615,
      "stand": 2616,
      "fact": 2617,
      "pur": 2618,
      "--": 2619,
      "red": 2620,
      "tak": 2621,
      "##ell": 2622,
      "including": 2623,
      "loc": 2624,
      "both": 2625,
      "##ually": 2626,
      "cur": 2627,
      "product": 2628,
      "stud": 2629,
      "girl": 2630,
      "regard": 2631,
      "case": 2632,
      "##gy": 2633,
      "##imin": 2634,
      "night": 2635,
      "thought": 2636,
      "##omm": 2637,
      "##bers": 2638,
      "##body": 2639,
      "second": 2640,
      "while": 2641,
      "##ork": 2642,
      "since": 2643,
      "##ency": 2644,
      "nothing": 2645,
      "anything": 2646,
      "exper": 2647,
      "each": 2648,
      "##ember": 2649,
      "fund": 2650,
      "adv": 2651,
      "always": 2652,
      "##ner": 2653,
      "##ried": 2654,
      "incre": 2655,
      "finan": 2656,
      "##vention": 2657,
      "process": 2658,
      "agree": 2659,
      "##ness": 2660,
      "##alth": 2661,
      "coll": 2662,
      "##mb": 2663,
      "hell": 2664,
      "main": 2665,
      "house": 2666,
      "##ines": 2667,
      "##ession": 2668,
      "another": 2669,
      "##imes": 2670,
      "cer": 2671,
      "during": 2672,
      "##pr": 2673,
      "around": 2674,
      "adop": 2675,
      "within": 2676,
      "uh": 2677,
      "av": 2678,
      "ref": 2679,
      "const": 2680,
      "open": 2681,
      "away": 2682,
      "things": 2683,
      "rest": 2684,
      "##ote": 2685,
      "important": 2686,
      "repres": 2687,
      "##ently": 2688,
      "15": 2689,
      "##ank": 2690,
      "war": 2691,
      "##io": 2692,
      "##ety": 2693,
      "equ": 2694,
      "##gg": 2695,
      "market": 2696,
      "##ount": 2697,
      "working": 2698,
      "mill": 2699,
      "aff": 2700,
      "fuck": 2701,
      "val": 2702,
      "regulation": 2703,
      "full": 2704,
      "##ope": 2705,
      "##eric": 2706,
      "##iness": 2707,
      "##atch": 2708,
      "polit": 2709,
      "maybe": 2710,
      "##ants": 2711,
      "##ctor": 2712,
      "blo": 2713,
      "##utions": 2714,
      "##up": 2715,
      "sim": 2716,
      "##cif": 2717,
      "understand": 2718,
      "11": 2719,
      "peace": 2720,
      "best": 2721,
      "union": 2722,
      "mor": 2723,
      "##ec": 2724,
      "lead": 2725,
      "believe": 2726,
      "kind": 2727,
      "##ention": 2728,
      "cond": 2729,
      "everything": 2730,
      "sir": 2731,
      "##ool": 2732,
      "mod": 2733,
      "##uation": 2734,
      "##ister": 2735,
      "##mber": 2736,
      "result": 2737,
      "##duc": 2738,
      "cre": 2739,
      "project": 2740,
      "consider": 2741,
      "##ality": 2742,
      "mom": 2743,
      "represent": 2744,
      "vis": 2745,
      "present": 2746,
      "coop": 2747,
      "##ised": 2748,
      "giv": 2749,
      "might": 2750,
      "done": 2751,
      "##ird": 2752,
      "dist": 2753,
      "##ho": 2754,
      "##ized": 2755,
      "concern": 2756,
      "party": 2757,
      "health": 2758,
      "propos": 2759,
      "told": 2760,
      "##ta": 2761,
      "big": 2762,
      "today": 2763,
      "programme": 2764,
      "offic": 2765,
      "kid": 2766,
      "contro": 2767,
      "americ": 2768,
      "##atic": 2769,
      "move": 2770,
      "miss": 2771,
      "family": 2772,
      "bar": 2773,
      "interest": 2774,
      "##ference": 2775,
      "free": 2776,
      "decision": 2777,
      "18": 2778,
      "following": 2779,
      "##ruct": 2780,
      "measures": 2781,
      "fur": 2782,
      "##ina": 2783,
      "terr": 2784,
      "money": 2785,
      "inf": 2786,
      "pay": 2787,
      "##loy": 2788,
      "##tern": 2789,
      "##orts": 2790,
      "ret": 2791,
      "course": 2792,
      "nat": 2793,
      "##uck": 2794,
      "school": 2795,
      "stay": 2796,
      "instit": 2797,
      "pat": 2798,
      "##cip": 2799,
      "sw": 2800,
      "lot": 2801,
      "env": 2802,
      "applic": 2803,
      "bre": 2804,
      "word": 2805,
      "next": 2806,
      "educ": 2807,
      "##ize": 2808,
      "resolution": 2809,
      "##ros": 2810,
      "run": 2811,
      "##itions": 2812,
      "members": 2813,
      "clear": 2814,
      "sl": 2815,
      "respect": 2816,
      "sou": 2817,
      "different": 2818,
      "##iod": 2819,
      "wee": 2820,
      "meeting": 2821,
      "however": 2822,
      "ke": 2823,
      "ens": 2824,
      "##ics": 2825,
      "train": 2826,
      "##ready": 2827,
      "pop": 2828,
      "already": 2829,
      "father": 2830,
      "month": 2831,
      "nor": 2832,
      "chr": 2833,
      "comple": 2834,
      "hold": 2835,
      "called": 2836,
      "invest": 2837,
      "water": 2838,
      "left": 2839,
      "##ital": 2840,
      "ide": 2841,
      "eng": 2842,
      "non": 2843,
      "assist": 2844,
      "leave": 2845,
      "specif": 2846,
      "##ages": 2847,
      "unt": 2848,
      "##az": 2849,
      "air": 2850,
      "##ended": 2851,
      "further": 2852,
      "men": 2853,
      "having": 2854,
      "action": 2855,
      "##itor": 2856,
      "col": 2857,
      "mil": 2858,
      "view": 2859,
      "compan": 2860,
      "##ari": 2861,
      "##ug": 2862,
      "hear": 2863,
      "turn": 2864,
      "##ral": 2865,
      "##cing": 2866,
      "services": 2867,
      "policy": 2868,
      "doesn": 2869,
      "prin": 2870,
      "room": 2871,
      "##ew": 2872,
      "period": 2873,
      "##onment": 2874,
      "rele": 2875,
      "business": 2876,
      "##ale": 2877,
      "office": 2878,
      "##augh": 2879,
      "cas": 2880,
      "##ient": 2881,
      "##agraph": 2882,
      "four": 2883,
      "eas": 2884,
      "toget": 2885,
      "together": 2886,
      "mind": 2887,
      "##cle": 2888,
      "build": 2889,
      "prof": 2890,
      "power": 2891,
      "guy": 2892,
      "##ources": 2893,
      "activities": 2894,
      "beh": 2895,
      "cost": 2896,
      "##ield": 2897,
      "##ason": 2898,
      "implementation": 2899,
      "envir": 2900,
      "elect": 2901,
      "political": 2902,
      "30": 2903,
      "##port": 2904,
      "viol": 2905,
      "bud": 2906,
      "financial": 2907,
      "##ov": 2908,
      "manage": 2909,
      "respons": 2910,
      "question": 2911,
      "particip": 2912,
      "glo": 2913,
      "pa": 2914,
      "rece": 2915,
      "##ration": 2916,
      "##ired": 2917,
      "means": 2918,
      "##ences": 2919,
      "change": 2920,
      "opp": 2921,
      "taken": 2922,
      "##work": 2923,
      "##osed": 2924,
      "##ten": 2925,
      "possible": 2926,
      "##isions": 2927,
      "certain": 2928,
      "13": 2929,
      "gl": 2930,
      "request": 2931,
      "sk": 2932,
      "recomm": 2933,
      "bad": 2934,
      "##over": 2935,
      "##__": 2936,
      "ty": 2937,
      "asse": 2938,
      "listen": 2939,
      "##ium": 2940,
      "environment": 2941,
      "pract": 2942,
      "fre": 2943,
      "coming": 2944,
      "control": 2945,
      "lar": 2946,
      "assemb": 2947,
      "area": 2948,
      "uni": 2949,
      "came": 2950,
      "mother": 2951,
      "##he": 2952,
      "whole": 2953,
      "job": 2954,
      "far": 2955,
      "pass": 2956,
      "14": 2957,
      "##ists": 2958,
      "read": 2959,
      "ca": 2960,
      "allow": 2961,
      "necess": 2962,
      "days": 2963,
      "enough": 2964,
      "##ull": 2965,
      "convention": 2966,
      "ann": 2967,
      "##ost": 2968,
      "someone": 2969,
      "bro": 2970,
      "aw": 2971,
      "paragraph": 2972,
      "hard": 2973,
      "dad": 2974,
      "cooperation": 2975,
      "##pl": 2976,
      "bor": 2977,
      "son": 2978,
      "##ata": 2979,
      "hour": 2980,
      "##ling": 2981,
      "##bal": 2982,
      "bring": 2983,
      "arm": 2984,
      "net": 2985,
      "once": 2986,
      "##ying": 2987,
      "few": 2988,
      "##gin": 2989,
      "##oss": 2990,
      "##ified": 2991,
      "wal": 2992,
      "clo": 2993,
      "parli": 2994,
      "food": 2995,
      "##ng": 2996,
      "land": 2997,
      "assembly": 2998,
      "##ont": 2999,
      "problem": 3000,
      "##ross": 3001,
      "expl": 3002,
      "access": 3003,
      "yet": 3004,
      "court": 3005,
      "##ense": 3006,
      "based": 3007,
      "dead": 3008,
      "maj": 3009,
      "guys": 3010,
      "##ined": 3011,
      "16": 3012,
      "impro": 3013,
      "##alf": 3014,
      "light": 3015,
      "##iti": 3016,
      "hot": 3017,
      "given": 3018,
      "##ately": 3019,
      "until": 3020,
      "nice": 3021,
      "##ier": 3022,
      "isn": 3023,
      "parliament": 3024,
      "docu": 3025,
      "wanted": 3026,
      "service": 3027,
      "##row": 3028,
      "##ibility": 3029,
      "stat": 3030,
      "rul": 3031,
      "small": 3032,
      "##ased": 3033,
      "situation": 3034,
      "fine": 3035,
      "17": 3036,
      "christ": 3037,
      "took": 3038,
      "protection": 3039,
      "##ability": 3040,
      "occ": 3041,
      "compet": 3042,
      "remember": 3043,
      "republic": 3044,
      "city": 3045,
      "bab": 3046,
      "##kes": 3047,
      "provide": 3048,
      "wel": 3049,
      "curr": 3050,
      "address": 3051,
      "sing": 3052,
      "object": 3053,
      "session": 3054,
      "##une": 3055,
      "sol": 3056,
      "cult": 3057,
      "million": 3058,
      "education": 3059,
      "##ny": 3060,
      "parties": 3061,
      "##less": 3062,
      "##ars": 3063,
      "live": 3064,
      "##ength": 3065,
      "addition": 3066,
      "heart": 3067,
      "bra": 3068,
      "hu": 3069,
      "specific": 3070,
      "ris": 3071,
      "contrib": 3072,
      "anne": 3073,
      "##ization": 3074,
      "bit": 3075,
      "seem": 3076,
      "management": 3077,
      "imm": 3078,
      "global": 3079,
      "jud": 3080,
      "ju": 3081,
      "else": 3082,
      "afric": 3083,
      "civ": 3084,
      "looking": 3085,
      "matter": 3086,
      "000": 3087,
      "##by": 3088,
      "taking": 3089,
      "soci": 3090,
      "therefore": 3091,
      "##ark": 3092,
      "less": 3093,
      "deal": 3094,
      "avail": 3095,
      "young": 3096,
      "seen": 3097,
      "cra": 3098,
      "among": 3099,
      "redu": 3100,
      "##ination": 3101,
      "test": 3102,
      "post": 3103,
      "deb": 3104,
      "secretary": 3105,
      "check": 3106,
      "proced": 3107,
      "ii": 3108,
      "employ": 3109,
      "im": 3110,
      "least": 3111,
      "tot": 3112,
      "common": 3113,
      "hun": 3114,
      "provided": 3115,
      "resources": 3116,
      "refer": 3117,
      "boy": 3118,
      "ach": 3119,
      "police": 3120,
      "##ither": 3121,
      "cal": 3122,
      "grow": 3123,
      "invol": 3124,
      "wrong": 3125,
      "needs": 3126,
      "ste": 3127,
      "draft": 3128,
      "fut": 3129,
      "dece": 3130,
      "happened": 3131,
      "annex": 3132,
      "##aff": 3133,
      "admin": 3134,
      "remain": 3135,
      "necessary": 3136,
      "civil": 3137,
      "##ets": 3138,
      "sal": 3139,
      "chang": 3140,
      "##ably": 3141,
      "lim": 3142,
      "hope": 3143,
      "according": 3144,
      "##ology": 3145,
      "##utes": 3146,
      "dri": 3147,
      "strate": 3148,
      "##ances": 3149,
      "areas": 3150,
      "princip": 3151,
      "products": 3152,
      "ensure": 3153,
      "regional": 3154,
      "experi": 3155,
      "agreement": 3156,
      "##ged": 3157,
      "##ivid": 3158,
      "ed": 3159,
      "fil": 3160,
      "five": 3161,
      "adopted": 3162,
      "making": 3163,
      "dam": 3164,
      "##erv": 3165,
      "##ane": 3166,
      "##ife": 3167,
      "25": 3168,
      "data": 3169,
      "major": 3170,
      "third": 3171,
      "body": 3172,
      "##wh": 3173,
      "priv": 3174,
      "enter": 3175,
      "cover": 3176,
      "legal": 3177,
      "##ator": 3178,
      "conference": 3179,
      "##cies": 3180,
      "##ption": 3181,
      "aid": 3182,
      "##ison": 3183,
      "went": 3184,
      "##iter": 3185,
      "talking": 3186,
      "##ards": 3187,
      "tom": 3188,
      "ap": 3189,
      "##go": 3190,
      "##ins": 3191,
      "future": 3192,
      "2006": 3193,
      "event": 3194,
      "wish": 3195,
      "able": 3196,
      "thanks": 3197,
      "death": 3198,
      "field": 3199,
      "ir": 3200,
      "##aut": 3201,
      "six": 3202,
      "lab": 3203,
      "face": 3204,
      "trying": 3205,
      "##atives": 3206,
      "getting": 3207,
      "actually": 3208,
      "ey": 3209,
      "mus": 3210,
      "##ending": 3211,
      "##ared": 3212,
      "book": 3213,
      "##not": 3214,
      "force": 3215,
      "saw": 3216,
      "discuss": 3217,
      "week": 3218,
      "lear": 3219,
      "##pri": 3220,
      "contain": 3221,
      "tri": 3222,
      "##ove": 3223,
      "ant": 3224,
      "trade": 3225,
      "express": 3226,
      "ur": 3227,
      "hi": 3228,
      "account": 3229,
      "ident": 3230,
      "##idence": 3231,
      "sever": 3232,
      "##ortun": 3233,
      "2005": 3234,
      "vol": 3235,
      "gra": 3236,
      "2000": 3237,
      "issues": 3238,
      "welc": 3239,
      "prepar": 3240,
      "require": 3241,
      "indust": 3242,
      "vict": 3243,
      "##ification": 3244,
      "ton": 3245,
      "decl": 3246,
      "##ock": 3247,
      "training": 3248,
      "198": 3249,
      "arr": 3250,
      "close": 3251,
      "exist": 3252,
      "##ash": 3253,
      "2004": 3254,
      "##ims": 3255,
      "king": 3256,
      "recommend": 3257,
      "##egr": 3258,
      "##vious": 3259,
      "later": 3260,
      "design": 3261,
      "december": 3262,
      "rules": 3263,
      "watch": 3264,
      "review": 3265,
      "cause": 3266,
      "swe": 3267,
      "woman": 3268,
      "cla": 3269,
      "##ps": 3270,
      "local": 3271,
      "record": 3272,
      "ht": 3273,
      "pal": 3274,
      "accordance": 3275,
      "##oy": 3276,
      "line": 3277,
      "bene": 3278,
      "available": 3279,
      "subm": 3280,
      "##ogn": 3281,
      "become": 3282,
      "subject": 3283,
      "##ender": 3284,
      "hur": 3285,
      "enc": 3286,
      "hist": 3287,
      "pret": 3288,
      "reason": 3289,
      "ill": 3290,
      "sent": 3291,
      "##ued": 3292,
      "ger": 3293,
      "##ential": 3294,
      "cho": 3295,
      "2001": 3296,
      "recogn": 3297,
      "##ger": 3298,
      "democ": 3299,
      "conditions": 3300,
      "orig": 3301,
      "strength": 3302,
      "budget": 3303,
      "neg": 3304,
      "examp": 3305,
      "administ": 3306,
      "morning": 3307,
      "##oura": 3308,
      "sci": 3309,
      "mad": 3310,
      "serious": 3311,
      "ru": 3312,
      "class": 3313,
      "##ream": 3314,
      "initi": 3315,
      "mess": 3316,
      "dest": 3317,
      "##ned": 3318,
      "efforts": 3319,
      "##lus": 3320,
      "##soci": 3321,
      "21": 3322,
      "wasn": 3323,
      "continue": 3324,
      "sex": 3325,
      "proper": 3326,
      "##itive": 3327,
      "associ": 3328,
      "fight": 3329,
      "2002": 3330,
      "offer": 3331,
      "idea": 3332,
      "hon": 3333,
      "##wards": 3334,
      "##ffic": 3335,
      "yourself": 3336,
      "2003": 3337,
      "##earch": 3338,
      "==": 3339,
      "cop": 3340,
      "beaut": 3341,
      "research": 3342,
      "organization": 3343,
      "##inking": 3344,
      "times": 3345,
      "##sh": 3346,
      "lat": 3347,
      "date": 3348,
      "##ert": 3349,
      "ago": 3350,
      "summ": 3351,
      "effective": 3352,
      "cannot": 3353,
      "##rodu": 3354,
      "er": 3355,
      "##ether": 3356,
      "ener": 3357,
      "official": 3358,
      "##sw": 3359,
      "assistance": 3360,
      "communic": 3361,
      "benef": 3362,
      "##ners": 3363,
      "##co": 3364,
      "origin": 3365,
      "##ges": 3366,
      "gre": 3367,
      "ge": 3368,
      "organizations": 3369,
      "deter": 3370,
      "##selves": 3371,
      "south": 3372,
      "##emp": 3373,
      "held": 3374,
      "..": 3375,
      "24": 3376,
      "soon": 3377,
      "2007": 3378,
      "friends": 3379,
      "mater": 3380,
      "side": 3381,
      "baby": 3382,
      "##vant": 3383,
      "step": 3384,
      "sound": 3385,
      "##used": 3386,
      "expect": 3387,
      "##ides": 3388,
      "heard": 3389,
      "integr": 3390,
      "spir": 3391,
      "dev": 3392,
      "press": 3393,
      "individ": 3394,
      "obs": 3395,
      "months": 3396,
      "past": 3397,
      "return": 3398,
      "##la": 3399,
      "##bo": 3400,
      "cust": 3401,
      "##unch": 3402,
      "exc": 3403,
      "##rug": 3404,
      "ready": 3405,
      "item": 3406,
      "related": 3407,
      "constit": 3408,
      "##ood": 3409,
      "indic": 3410,
      "##ake": 3411,
      "company": 3412,
      "##gn": 3413,
      "appropri": 3414,
      "relations": 3415,
      "june": 3416,
      "win": 3417,
      "directive": 3418,
      "everyone": 3419,
      "univers": 3420,
      "##ived": 3421,
      "22": 3422,
      "comb": 3423,
      "news": 3424,
      "says": 3425,
      "##eign": 3426,
      "true": 3427,
      "whether": 3428,
      "speak": 3429,
      "##iting": 3430,
      "prior": 3431,
      "begin": 3432,
      "ele": 3433,
      "concerned": 3434,
      "reach": 3435,
      "mid": 3436,
      "perform": 3437,
      "individual": 3438,
      "upon": 3439,
      "##aster": 3440,
      "##isl": 3441,
      "##artment": 3442,
      "building": 3443,
      "##ief": 3444,
      "wife": 3445,
      "cir": 3446,
      "facil": 3447,
      "##ceed": 3448,
      "##ames": 3449,
      "break": 3450,
      "port": 3451,
      "pap": 3452,
      "persons": 3453,
      "society": 3454,
      "##bs": 3455,
      "##ection": 3456,
      "energy": 3457,
      "hello": 3458,
      "##thers": 3459,
      "accept": 3460,
      "##ton": 3461,
      "dom": 3462,
      "##airs": 3463,
      "succ": 3464,
      "top": 3465,
      "sle": 3466,
      "basis": 3467,
      "legisl": 3468,
      "##tp": 3469,
      "camp": 3470,
      "blood": 3471,
      "bur": 3472,
      "##ians": 3473,
      "teach": 3474,
      "##ically": 3475,
      "others": 3476,
      "joh": 3477,
      "##side": 3478,
      "doctor": 3479,
      "team": 3480,
      "cut": 3481,
      "##que": 3482,
      "lu": 3483,
      "alone": 3484,
      "saying": 3485,
      "progress": 3486,
      "har": 3487,
      "##stain": 3488,
      "living": 3489,
      "treaty": 3490,
      "var": 3491,
      "wouldn": 3492,
      "##uff": 3493,
      "##ior": 3494,
      "##ats": 3495,
      "##enn": 3496,
      "##ising": 3497,
      "role": 3498,
      "##cially": 3499,
      "abs": 3500,
      "earth": 3501,
      "lost": 3502,
      "mult": 3503,
      "##of": 3504,
      "shit": 3505,
      "bill": 3506,
      "##enda": 3507,
      "document": 3508,
      "example": 3509,
      "sun": 3510,
      "temp": 3511,
      "frame": 3512,
      "fig": 3513,
      "staff": 3514,
      "myself": 3515,
      "23": 3516,
      "##ided": 3517,
      "##ured": 3518,
      "##itted": 3519,
      "authorities": 3520,
      "known": 3521,
      "cases": 3522,
      "##me": 3523,
      "##els": 3524,
      "subst": 3525,
      "promot": 3526,
      "answ": 3527,
      "jes": 3528,
      "##??": 3529,
      "##ensive": 3530,
      "large": 3531,
      "knew": 3532,
      "##tle": 3533,
      "terror": 3534,
      "sho": 3535,
      "alm": 3536,
      "san": 3537,
      "anal": 3538,
      "bi": 3539,
      "coord": 3540,
      "strong": 3541,
      "happy": 3542,
      "pain": 3543,
      "hours": 3544,
      "complete": 3545,
      "conn": 3546,
      "material": 3547,
      "##ze": 3548,
      "town": 3549,
      "developing": 3550,
      "meth": 3551,
      "pet": 3552,
      "central": 3553,
      "age": 3554,
      ":/": 3555,
      "fav": 3556,
      "issue": 3557,
      "problems": 3558,
      "##itary": 3559,
      "sustain": 3560,
      "://": 3561,
      "ce": 3562,
      "dou": 3563,
      "capac": 3564,
      "fall": 3565,
      "bal": 3566,
      "http": 3567,
      "mission": 3568,
      "killed": 3569,
      "##ode": 3570,
      "weap": 3571,
      "established": 3572,
      "2008": 3573,
      "prob": 3574,
      "near": 3575,
      "##ify": 3576,
      "lord": 3577,
      "wind": 3578,
      "anyone": 3579,
      "##anna": 3580,
      "##line": 3581,
      "opportun": 3582,
      "assess": 3583,
      "##ators": 3584,
      "success": 3585,
      "relevant": 3586,
      "above": 3587,
      "##ected": 3588,
      "##edi": 3589,
      "risk": 3590,
      "mur": 3591,
      "sector": 3592,
      "spirit": 3593,
      "##icult": 3594,
      "tur": 3595,
      "using": 3596,
      "july": 3597,
      "programmes": 3598,
      "foc": 3599,
      "technical": 3600,
      "german": 3601,
      "##iful": 3602,
      "guess": 3603,
      "mal": 3604,
      "total": 3605,
      "50": 3606,
      "drug": 3607,
      "population": 3608,
      "pot": 3609,
      "region": 3610,
      "dele": 3611,
      "jan": 3612,
      "##itch": 3613,
      "cit": 3614,
      "vo": 3615,
      "short": 3616,
      "increase": 3617,
      "hy": 3618,
      "super": 3619,
      "##ik": 3620,
      "russ": 3621,
      "march": 3622,
      "either": 3623,
      "makes": 3624,
      "private": 3625,
      "simp": 3626,
      "##where": 3627,
      "haven": 3628,
      "provisions": 3629,
      "include": 3630,
      "fire": 3631,
      "##lf": 3632,
      "huh": 3633,
      "##cer": 3634,
      "pretty": 3635,
      "agenda": 3636,
      "production": 3637,
      "##ury": 3638,
      "tre": 3639,
      "beautiful": 3640,
      "john": 3641,
      "quality": 3642,
      "deli": 3643,
      "brother": 3644,
      "table": 3645,
      "##ca": 3646,
      "consult": 3647,
      "several": 3648,
      "contract": 3649,
      "lang": 3650,
      "trad": 3651,
      "approach": 3652,
      "along": 3653,
      "##ump": 3654,
      "##atory": 3655,
      "##aring": 3656,
      "treatment": 3657,
      "exact": 3658,
      "position": 3659,
      "groups": 3660,
      "custom": 3661,
      "dan": 3662,
      "div": 3663,
      "institutions": 3664,
      "application": 3665,
      "monitor": 3666,
      "difficult": 3667,
      "appropriate": 3668,
      "jesus": 3669,
      "gone": 3670,
      "mer": 3671,
      "desc": 3672,
      "norm": 3673,
      "##to": 3674,
      "##ones": 3675,
      "half": 3676,
      "wants": 3677,
      "fucking": 3678,
      "##eness": 3679,
      "##zy": 3680,
      "minutes": 3681,
      "text": 3682,
      "american": 3683,
      "trust": 3684,
      "bank": 3685,
      "pan": 3686,
      "board": 3687,
      "wonder": 3688,
      "key": 3689,
      "##for": 3690,
      "##rael": 3691,
      "hands": 3692,
      "espe": 3693,
      "rad": 3694,
      "##rop": 3695,
      "sus": 3696,
      "del": 3697,
      "israel": 3698,
      "current": 3699,
      "game": 3700,
      "##aps": 3701,
      "asked": 3702,
      "##br": 3703,
      "though": 3704,
      "##orrow": 3705,
      "especially": 3706,
      "appear": 3707,
      "pen": 3708,
      "tomorrow": 3709,
      "##xic": 3710,
      "improve": 3711,
      "##lig": 3712,
      "easy": 3713,
      "experience": 3714,
      "nu": 3715,
      "reports": 3716,
      "##ises": 3717,
      "introdu": 3718,
      "sat": 3719,
      "partners": 3720,
      "safe": 3721,
      "justice": 3722,
      "##ruction": 3723,
      "oct": 3724,
      "##sequ": 3725,
      "walk": 3726,
      "##men": 3727,
      "##pped": 3728,
      "gave": 3729,
      "##ude": 3730,
      "##imate": 3731,
      "america": 3732,
      "almost": 3733,
      "commit": 3734,
      "100": 3735,
      "gotta": 3736,
      "bed": 3737,
      "26": 3738,
      "##isation": 3739,
      "struct": 3740,
      "##ush": 3741,
      "crimin": 3742,
      "detail": 3743,
      "tax": 3744,
      "concer": 3745,
      "moment": 3746,
      "die": 3747,
      "tar": 3748,
      "attack": 3749,
      "foreign": 3750,
      "strengthen": 3751,
      "wanna": 3752,
      "ban": 3753,
      "sept": 3754,
      "enj": 3755,
      "##ench": 3756,
      "term": 3757,
      "late": 3758,
      "anim": 3759,
      "lea": 3760,
      "conflic": 3761,
      "fed": 3762,
      "##gic": 3763,
      "langu": 3764,
      "hor": 3765,
      "##edom": 3766,
      "ver": 3767,
      "##dy": 3768,
      "investig": 3769,
      "comes": 3770,
      "sleep": 3771,
      "##itation": 3772,
      "fail": 3773,
      "den": 3774,
      "transport": 3775,
      "##uary": 3776,
      "considered": 3777,
      "results": 3778,
      "front": 3779,
      "31": 3780,
      "military": 3781,
      "thinking": 3782,
      "##oint": 3783,
      "##iet": 3784,
      "ah": 3785,
      "gener": 3786,
      "method": 3787,
      "due": 3788,
      "looks": 3789,
      "##arian": 3790,
      "##urch": 3791,
      "answer": 3792,
      "words": 3793,
      "exec": 3794,
      "various": 3795,
      "door": 3796,
      "september": 3797,
      "tonight": 3798,
      "##ler": 3799,
      "note": 3800,
      "##ograph": 3801,
      "prevent": 3802,
      "##imination": 3803,
      "probably": 3804,
      "apr": 3805,
      "##arch": 3806,
      "00": 3807,
      "brought": 3808,
      "saf": 3809,
      "cy": 3810,
      "##aking": 3811,
      "capacity": 3812,
      "citiz": 3813,
      "um": 3814,
      "27": 3815,
      "mrs": 3816,
      "particularly": 3817,
      "##ees": 3818,
      "framework": 3819,
      "ww": 3820,
      "cred": 3821,
      "truth": 3822,
      "black": 3823,
      "africa": 3824,
      "\".": 3825,
      "threat": 3826,
      "towards": 3827,
      "##ows": 3828,
      "##pose": 3829,
      "island": 3830,
      "chair": 3831,
      "type": 3832,
      "##den": 3833,
      "##ober": 3834,
      "church": 3835,
      "profess": 3836,
      "da": 3837,
      "nove": 3838,
      "phot": 3839,
      "##clear": 3840,
      "##omes": 3841,
      "2009": 3842,
      "##ological": 3843,
      "##ients": 3844,
      "attention": 3845,
      "chall": 3846,
      "questions": 3847,
      "quite": 3848,
      "violence": 3849,
      "28": 3850,
      "poor": 3851,
      "##ama": 3852,
      "except": 3853,
      "mot": 3854,
      "##aughter": 3855,
      "couldn": 3856,
      "november": 3857,
      "oblig": 3858,
      "october": 3859,
      "##anger": 3860,
      "terms": 3861,
      "april": 3862,
      "jour": 3863,
      "##tion": 3864,
      "##ana": 3865,
      "perf": 3866,
      "www": 3867,
      "low": 3868,
      "story": 3869,
      "##ouch": 3870,
      "purs": 3871,
      "##more": 3872,
      "arg": 3873,
      "section": 3874,
      "##cuse": 3875,
      "natural": 3876,
      "procedure": 3877,
      "hit": 3878,
      "circ": 3879,
      "space": 3880,
      "signific": 3881,
      "entire": 3882,
      "cross": 3883,
      "outside": 3884,
      "29": 3885,
      "phone": 3886,
      "##ulations": 3887,
      "often": 3888,
      "encoura": 3889,
      "grand": 3890,
      "##irm": 3891,
      "excuse": 3892,
      "started": 3893,
      "single": 3894,
      "exactly": 3895,
      ".”": 3896,
      "flo": 3897,
      "##asing": 3898,
      "early": 3899,
      "##omb": 3900,
      "systems": 3901,
      "##acter": 3902,
      "opin": 3903,
      "fif": 3904,
      "eat": 3905,
      "concerning": 3906,
      "##epend": 3907,
      "safety": 3908,
      "dut": 3909,
      "##ricult": 3910,
      "##dom": 3911,
      "##ban": 3912,
      "contact": 3913,
      "pla": 3914,
      "required": 3915,
      "gun": 3916,
      "##por": 3917,
      "forg": 3918,
      "stre": 3919,
      "##eur": 3920,
      "##xim": 3921,
      "january": 3922,
      "##ron": 3923,
      "agricult": 3924,
      "freedom": 3925,
      "referred": 3926,
      "whate": 3927,
      "alth": 3928,
      "##duct": 3929,
      "##rict": 3930,
      "welcome": 3931,
      "whatever": 3932,
      "minister": 3933,
      "criminal": 3934,
      "tour": 3935,
      "cam": 3936,
      "rather": 3937,
      "visit": 3938,
      "pick": 3939,
      "although": 3940,
      "consum": 3941,
      "##ilities": 3942,
      "drink": 3943,
      "democr": 3944,
      "##acy": 3945,
      "##arant": 3946,
      "instru": 3947,
      "nuclear": 3948,
      "history": 3949,
      "emer": 3950,
      "##app": 3951,
      "shut": 3952,
      "##chan": 3953,
      "##aged": 3954,
      "ground": 3955,
      "deleg": 3956,
      "creat": 3957,
      "##ension": 3958,
      "197": 3959,
      "representative": 3960,
      "##ource": 3961,
      "final": 3962,
      "coup": 3963,
      "fish": 3964,
      "##omp": 3965,
      "road": 3966,
      "projects": 3967,
      "grant": 3968,
      "self": 3969,
      "kids": 3970,
      "decided": 3971,
      "explain": 3972,
      "##ony": 3973,
      "proposal": 3974,
      "joint": 3975,
      "personal": 3976,
      "##ledge": 3977,
      "north": 3978,
      "crime": 3979,
      "link": 3980,
      "provision": 3981,
      "sea": 3982,
      "chance": 3983,
      "mention": 3984,
      "forget": 3985,
      "previous": 3986,
      "study": 3987,
      "needed": 3988,
      "sugg": 3989,
      "enjoy": 3990,
      "##ctions": 3991,
      "nature": 3992,
      "##head": 3993,
      "suggest": 3994,
      "mass": 3995,
      "1999": 3996,
      "medic": 3997,
      "girls": 3998,
      "rom": 3999,
      "##band": 4000,
      "pub": 4001,
      "##ature": 4002,
      "aud": 4003,
      "guarant": 4004,
      "levels": 4005,
      "aut": 4006,
      "##dle": 4007,
      "quick": 4008,
      "mechan": 4009,
      "authority": 4010,
      "received": 4011,
      "send": 4012,
      "requirements": 4013,
      "inn": 4014,
      "inside": 4015,
      "technology": 4016,
      "deliver": 4017,
      "independ": 4018,
      "40": 4019,
      "white": 4020,
      "impact": 4021,
      "program": 4022,
      "thus": 4023,
      "stuff": 4024,
      "tele": 4025,
      "fix": 4026,
      "##ories": 4027,
      "achieve": 4028,
      "##ished": 4029,
      "music": 4030,
      "ital": 4031,
      "lives": 4032,
      "cat": 4033,
      "apply": 4034,
      "bod": 4035,
      "##ering": 4036,
      "und": 4037,
      "declar": 4038,
      "##ding": 4039,
      "guid": 4040,
      "opt": 4041,
      "clean": 4042,
      "worry": 4043,
      "aim": 4044,
      "##ocol": 4045,
      "behind": 4046,
      "##oke": 4047,
      "eyes": 4048,
      "ess": 4049,
      "suff": 4050,
      "value": 4051,
      "phys": 4052,
      "share": 4053,
      "ri": 4054,
      "hus": 4055,
      "##ental": 4056,
      "##ley": 4057,
      "developed": 4058,
      "murder": 4059,
      "workers": 4060,
      "##hold": 4061,
      "##ots": 4062,
      "lie": 4063,
      "resol": 4064,
      "##son": 4065,
      "##orn": 4066,
      "works": 4067,
      "##ring": 4068,
      "finally": 4069,
      "##oti": 4070,
      "##sy": 4071,
      "capital": 4072,
      "discr": 4073,
      "##ese": 4074,
      "##osp": 4075,
      "luck": 4076,
      "everybody": 4077,
      "sometimes": 4078,
      "importance": 4079,
      "policies": 4080,
      "significant": 4081,
      "##istry": 4082,
      "defin": 4083,
      "knows": 4084,
      "##bit": 4085,
      "##onst": 4086,
      "amount": 4087,
      "east": 4088,
      "##hib": 4089,
      "ten": 4090,
      "demand": 4091,
      "##encies": 4092,
      "reform": 4093,
      "mexic": 4094,
      "department": 4095,
      "pict": 4096,
      "##ef": 4097,
      "##val": 4098,
      "minute": 4099,
      "hotel": 4100,
      "involved": 4101,
      "mand": 4102,
      "pack": 4103,
      "price": 4104,
      "relig": 4105,
      "additional": 4106,
      "mine": 4107,
      "ship": 4108,
      ");": 4109,
      "bat": 4110,
      "et": 4111,
      "amend": 4112,
      "##ai": 4113,
      "##ging": 4114,
      "perfect": 4115,
      "carry": 4116,
      "rate": 4117,
      "buy": 4118,
      "prison": 4119,
      "##ases": 4120,
      "himself": 4121,
      "determin": 4122,
      "china": 4123,
      "longer": 4124,
      "weapons": 4125,
      "target": 4126,
      "gent": 4127,
      "operations": 4128,
      "code": 4129,
      "negoti": 4130,
      "je": 4131,
      "##nal": 4132,
      "jack": 4133,
      "##ster": 4134,
      "conduct": 4135,
      "character": 4136,
      "media": 4137,
      "takes": 4138,
      "dog": 4139,
      "##ully": 4140,
      "##sec": 4141,
      "pie": 4142,
      "vir": 4143,
      "##und": 4144,
      "status": 4145,
      "itself": 4146,
      "##itting": 4147,
      "rule": 4148,
      "##____": 4149,
      "ara": 4150,
      "##lling": 4151,
      "sweet": 4152,
      "##nel": 4153,
      "bodies": 4154,
      "husband": 4155,
      "evidence": 4156,
      "goes": 4157,
      "##ilar": 4158,
      "industry": 4159,
      "eth": 4160,
      "lad": 4161,
      "famil": 4162,
      "rich": 4163,
      "director": 4164,
      "##oid": 4165,
      "exam": 4166,
      "seems": 4167,
      "aren": 4168,
      "bull": 4169,
      "cell": 4170,
      "french": 4171,
      "fair": 4172,
      "liber": 4173,
      "##eed": 4174,
      "aug": 4175,
      "##ney": 4176,
      "##rew": 4177,
      "##let": 4178,
      "agre": 4179,
      "cultural": 4180,
      "responsible": 4181,
      "conflict": 4182,
      "forward": 4183,
      "##cks": 4184,
      "citizens": 4185,
      "##cent": 4186,
      "themselves": 4187,
      "file": 4188,
      "proposed": 4189,
      "##ariat": 4190,
      "bir": 4191,
      "sil": 4192,
      "vote": 4193,
      "dream": 4194,
      "##ends": 4195,
      "eec": 4196,
      "lack": 4197,
      "employment": 4198,
      "prim": 4199,
      "harm": 4200,
      "communities": 4201,
      "opinion": 4202,
      "##ext": 4203,
      "died": 4204,
      "focus": 4205,
      "##gar": 4206,
      "immedi": 4207,
      "analys": 4208,
      "supposed": 4209,
      "mach": 4210,
      "responsibility": 4211,
      "publish": 4212,
      "unf": 4213,
      "##apan": 4214,
      "##erc": 4215,
      "sn": 4216,
      "administr": 4217,
      "##ica": 4218,
      "lay": 4219,
      "##oud": 4220,
      "environmental": 4221,
      "knowledge": 4222,
      "centre": 4223,
      "legislation": 4224,
      "##vin": 4225,
      "sustainable": 4226,
      "stra": 4227,
      "adm": 4228,
      "leaders": 4229,
      "tas": 4230,
      "practice": 4231,
      "fully": 4232,
      "palest": 4233,
      "waiting": 4234,
      "gentle": 4235,
      "rapp": 4236,
      "increased": 4237,
      "costs": 4238,
      "strategy": 4239,
      "democratic": 4240,
      "gender": 4241,
      "japan": 4242,
      "emb": 4243,
      "participation": 4244,
      "sense": 4245,
      "france": 4246,
      "letter": 4247,
      "touch": 4248,
      "aust": 4249,
      "##ests": 4250,
      "context": 4251,
      "relationship": 4252,
      "hosp": 4253,
      "clos": 4254,
      "\",": 4255,
      "eval": 4256,
      "##ax": 4257,
      "##istan": 4258,
      "purpose": 4259,
      "crazy": 4260,
      "infl": 4261,
      "##key": 4262,
      "##unt": 4263,
      "maintain": 4264,
      "site": 4265,
      "##lex": 4266,
      "broad": 4267,
      "##uted": 4268,
      "recent": 4269,
      "##raid": 4270,
      "##eth": 4271,
      "parents": 4272,
      "##alog": 4273,
      "companies": 4274,
      "scient": 4275,
      "##cell": 4276,
      "chap": 4277,
      "foot": 4278,
      "##fully": 4279,
      "governments": 4280,
      "august": 4281,
      "pover": 4282,
      "function": 4283,
      "compl": 4284,
      "regular": 4285,
      "included": 4286,
      "declaration": 4287,
      "poverty": 4288,
      "daughter": 4289,
      "growth": 4290,
      "##haps": 4291,
      "whose": 4292,
      "ain": 4293,
      "somebody": 4294,
      "afraid": 4295,
      "host": 4296,
      "refu": 4297,
      "##reme": 4298,
      "##ively": 4299,
      "traffic": 4300,
      "learn": 4301,
      "transfer": 4302,
      "secretariat": 4303,
      "##ott": 4304,
      "squ": 4305,
      "perhaps": 4306,
      "congr": 4307,
      "protocol": 4308,
      "similar": 4309,
      "monitoring": 4310,
      "statement": 4311,
      "principles": 4312,
      "paper": 4313,
      "##room": 4314,
      "##lied": 4315,
      "sold": 4316,
      "##erve": 4317,
      "rapport": 4318,
      "search": 4319,
      "married": 4320,
      "network": 4321,
      "rat": 4322,
      "trou": 4323,
      "tried": 4324,
      "changes": 4325,
      "fel": 4326,
      "basic": 4327,
      "claim": 4328,
      "middle": 4329,
      "lady": 4330,
      "consideration": 4331,
      ".,": 4332,
      "##ume": 4333,
      "din": 4334,
      "##ops": 4335,
      "stri": 4336,
      "decisions": 4337,
      "greater": 4338,
      "##eg": 4339,
      "affairs": 4340,
      "york": 4341,
      "exch": 4342,
      "2010": 4343,
      "rapporteur": 4344,
      "##ada": 4345,
      "ball": 4346,
      "##ha": 4347,
      "carried": 4348,
      "constitution": 4349,
      "##ici": 4350,
      "birth": 4351,
      "cool": 4352,
      "##itional": 4353,
      "agreed": 4354,
      "##ieved": 4355,
      "faith": 4356,
      "shoot": 4357,
      "recommendations": 4358,
      "danger": 4359,
      "regarding": 4360,
      "kingdom": 4361,
      "##izing": 4362,
      "pull": 4363,
      "deep": 4364,
      "card": 4365,
      "shot": 4366,
      "proceed": 4367,
      "nobody": 4368,
      "arri": 4369,
      "bye": 4370,
      "command": 4371,
      "promote": 4372,
      "hang": 4373,
      "communication": 4374,
      "discrimination": 4375,
      "##read": 4376,
      "funds": 4377,
      "##reh": 4378,
      "star": 4379,
      "##fact": 4380,
      "save": 4381,
      "##yl": 4382,
      "occup": 4383,
      "gas": 4384,
      "##oon": 4385,
      "forces": 4386,
      "crit": 4387,
      ",\"": 4388,
      "couple": 4389,
      "sam": 4390,
      "standards": 4391,
      "gets": 4392,
      "pursu": 4393,
      "tim": 4394,
      "agency": 4395,
      "arch": 4396,
      "west": 4397,
      "##oming": 4398,
      "feb": 4399,
      "damn": 4400,
      "dise": 4401,
      "born": 4402,
      "##lin": 4403,
      "travel": 4404,
      "vot": 4405,
      "wide": 4406,
      "vill": 4407,
      "dear": 4408,
      "commissioner": 4409,
      "submitted": 4410,
      "pray": 4411,
      "representatives": 4412,
      "opportunity": 4413,
      "wall": 4414,
      "cris": 4415,
      "provides": 4416,
      "##ival": 4417,
      "university": 4418,
      "##ma": 4419,
      "create": 4420,
      "collect": 4421,
      "rid": 4422,
      "##istic": 4423,
      "sens": 4424,
      "draw": 4425,
      "language": 4426,
      "african": 4427,
      "property": 4428,
      "doll": 4429,
      "mis": 4430,
      "comput": 4431,
      "pun": 4432,
      "enh": 4433,
      "created": 4434,
      "journal": 4435,
      "perman": 4436,
      "farm": 4437,
      "##itarian": 4438,
      "##ilt": 4439,
      "round": 4440,
      "colle": 4441,
      "weeks": 4442,
      "hurt": 4443,
      "mob": 4444,
      "patients": 4445,
      "##urs": 4446,
      "##ites": 4447,
      "higher": 4448,
      "##ruary": 4449,
      "perm": 4450,
      "increasing": 4451,
      "##has": 4452,
      "##onse": 4453,
      "separ": 4454,
      "dar": 4455,
      "2011": 4456,
      "february": 4457,
      "##amed": 4458,
      "exerc": 4459,
      "mi": 4460,
      "former": 4461,
      "arab": 4462,
      "honey": 4463,
      "positive": 4464,
      "points": 4465,
      "##hic": 4466,
      "##ador": 4467,
      "typ": 4468,
      "trib": 4469,
      "span": 4470,
      "manu": 4471,
      "##reci": 4472,
      "cand": 4473,
      "ang": 4474,
      "fast": 4475,
      "##ead": 4476,
      "anyway": 4477,
      "internal": 4478,
      "operation": 4479,
      "##esh": 4480,
      "response": 4481,
      "reflect": 4482,
      "execut": 4483,
      "”.": 4484,
      "##just": 4485,
      "street": 4486,
      "institution": 4487,
      "##ev": 4488,
      "relating": 4489,
      "60": 4490,
      "##aw": 4491,
      "##ored": 4492,
      "##verse": 4493,
      "boys": 4494,
      "meetings": 4495,
      "movement": 4496,
      "##amb": 4497,
      "sud": 4498,
      "sen": 4499,
      "page": 4500,
      "ones": 4501,
      "crisis": 4502,
      "surpr": 4503,
      "vide": 4504,
      "ira": 4505,
      "oj": 4506,
      "calls": 4507,
      "##ousand": 4508,
      "thousand": 4509,
      "choice": 4510,
      "message": 4511,
      "mm": 4512,
      "##ob": 4513,
      "continued": 4514,
      "hol": 4515,
      "reported": 4516,
      "ord": 4517,
      "paid": 4518,
      "currently": 4519,
      "##itory": 4520,
      "became": 4521,
      "extra": 4522,
      "ms": 4523,
      "imag": 4524,
      "oil": 4525,
      "investment": 4526,
      "administration": 4527,
      "giving": 4528,
      "select": 4529,
      "##cious": 4530,
      "##ills": 4531,
      "distrib": 4532,
      "geor": 4533,
      "##equ": 4534,
      "actions": 4535,
      "conclud": 4536,
      "debate": 4537,
      "##estic": 4538,
      "mig": 4539,
      "sister": 4540,
      "##pects": 4541,
      "##iation": 4542,
      "##bour": 4543,
      "gold": 4544,
      "existing": 4545,
      "consequ": 4546,
      "events": 4547,
      "labour": 4548,
      "base": 4549,
      "##wor": 4550,
      "commer": 4551,
      "compreh": 4552,
      "vehic": 4553,
      "##ires": 4554,
      "behalf": 4555,
      "ministry": 4556,
      "mexico": 4557,
      "##ulf": 4558,
      "##ounts": 4559,
      "##uses": 4560,
      "##ino": 4561,
      "##itness": 4562,
      "describ": 4563,
      "##ulated": 4564,
      "appreci": 4565,
      "reference": 4566,
      "prices": 4567,
      "below": 4568,
      "running": 4569,
      "neigh": 4570,
      "correct": 4571,
      "english": 4572,
      "green": 4573,
      "##reg": 4574,
      "studies": 4575,
      "soft": 4576,
      "##istics": 4577,
      "drive": 4578,
      "forms": 4579,
      "laws": 4580,
      "directly": 4581,
      "park": 4582,
      "vers": 4583,
      "across": 4584,
      "film": 4585,
      "loss": 4586,
      "spain": 4587,
      "germany": 4588,
      "ahead": 4589,
      "##ls": 4590,
      "intell": 4591,
      "phil": 4592,
      "mist": 4593,
      "analysis": 4594,
      "35": 4595,
      "hop": 4596,
      "goods": 4597,
      "located": 4598,
      "procedures": 4599,
      "iraq": 4600,
      "##ened": 4601,
      "sort": 4602,
      "sick": 4603,
      "##ara": 4604,
      "vari": 4605,
      "##ctors": 4606,
      "##ays": 4607,
      "196": 4608,
      "standard": 4609,
      "##owers": 4610,
      "matters": 4611,
      "bri": 4612,
      "seven": 4613,
      "chief": 4614,
      "effects": 4615,
      "figure": 4616,
      "equip": 4617,
      "##rial": 4618,
      "feeling": 4619,
      "model": 4620,
      "medical": 4621,
      "beginning": 4622,
      "unit": 4623,
      "terrorism": 4624,
      "worked": 4625,
      "humanitarian": 4626,
      "worth": 4627,
      "##ung": 4628,
      "appoint": 4629,
      "complain": 4630,
      "ways": 4631,
      "victims": 4632,
      "rob": 4633,
      "articles": 4634,
      "##action": 4635,
      "potential": 4636,
      "tool": 4637,
      "telling": 4638,
      "absol": 4639,
      "frank": 4640,
      "box": 4641,
      "subs": 4642,
      "1998": 4643,
      "cast": 4644,
      "disapp": 4645,
      "##etic": 4646,
      "arrest": 4647,
      "arrange": 4648,
      "permanent": 4649,
      "##ift": 4650,
      "culture": 4651,
      "cry": 4652,
      "eight": 4653,
      "dark": 4654,
      "los": 4655,
      "principle": 4656,
      "obtain": 4657,
      "arms": 4658,
      "leaving": 4659,
      "anti": 4660,
      "essential": 4661,
      "chem": 4662,
      "displ": 4663,
      "planning": 4664,
      "adoption": 4665,
      "##hood": 4666,
      "palestin": 4667,
      "conclus": 4668,
      "annual": 4669,
      "hate": 4670,
      "##enty": 4671,
      "territory": 4672,
      "emerg": 4673,
      ")*": 4674,
      "minim": 4675,
      "administrative": 4676,
      "trouble": 4677,
      "mich": 4678,
      "hair": 4679,
      "yours": 4680,
      "led": 4681,
      "performance": 4682,
      "russian": 4683,
      "hospital": 4684,
      "prepared": 4685,
      "cru": 4686,
      "source": 4687,
      "doub": 4688,
      "##abor": 4689,
      "dialog": 4690,
      "surv": 4691,
      "absolute": 4692,
      "##light": 4693,
      "wed": 4694,
      "receive": 4695,
      "##ya": 4696,
      "belong": 4697,
      "cub": 4698,
      "instead": 4699,
      "economy": 4700,
      "##ternal": 4701,
      "establishment": 4702,
      "):": 4703,
      "credit": 4704,
      "##aries": 4705,
      "##asons": 4706,
      "##thern": 4707,
      "paul": 4708,
      "coordination": 4709,
      "agencies": 4710,
      "counter": 4711,
      "assessment": 4712,
      "plant": 4713,
      "consist": 4714,
      "export": 4715,
      "spanish": 4716,
      "du": 4717,
      "##friend": 4718,
      "##pping": 4719,
      "parts": 4720,
      "captain": 4721,
      "equipment": 4722,
      "range": 4723,
      "braz": 4724,
      "professional": 4725,
      "center": 4726,
      "path": 4727,
      "emphas": 4728,
      "comprehensive": 4729,
      "##ateral": 4730,
      "ange": 4731,
      "##roy": 4732,
      "station": 4733,
      "unless": 4734,
      "students": 4735,
      "anymore": 4736,
      "refuge": 4737,
      "demonst": 4738,
      "fundament": 4739,
      "stock": 4740,
      "##oph": 4741,
      "master": 4742,
      "manufact": 4743,
      "activity": 4744,
      "coordin": 4745,
      "providing": 4746,
      "association": 4747,
      "families": 4748,
      "fill": 4749,
      "acts": 4750,
      "indeed": 4751,
      "army": 4752,
      "song": 4753,
      "executive": 4754,
      "obser": 4755,
      "challeng": 4756,
      "fran": 4757,
      "domestic": 4758,
      "throughout": 4759,
      "clearly": 4760,
      "ladies": 4761,
      "brit": 4762,
      "plans": 4763,
      "laugh": 4764,
      "##unk": 4765,
      "lose": 4766,
      "##view": 4767,
      "armed": 4768,
      "normal": 4769,
      "ep": 4770,
      "mart": 4771,
      "desp": 4772,
      "modern": 4773,
      "cate": 4774,
      "gar": 4775,
      "##iction": 4776,
      "changed": 4777,
      "measure": 4778,
      "##force": 4779,
      "”,": 4780,
      "##fort": 4781,
      "stage": 4782,
      "stress": 4783,
      "continu": 4784,
      "witness": 4785,
      "holy": 4786,
      "##upid": 4787,
      "documents": 4788,
      "cold": 4789,
      "rock": 4790,
      "commitment": 4791,
      "exchange": 4792,
      "noted": 4793,
      "original": 4794,
      "brazil": 4795,
      "fis": 4796,
      "##eal": 4797,
      "##lies": 4798,
      "##anced": 4799,
      "##igen": 4800,
      "uk": 4801,
      "##itten": 4802,
      "2012": 4803,
      "amb": 4804,
      "##ann": 4805,
      "advis": 4806,
      "equal": 4807,
      "##ervation": 4808,
      "dav": 4809,
      "jer": 4810,
      "fat": 4811,
      "lic": 4812,
      "playing": 4813,
      "avoid": 4814,
      "##sych": 4815,
      "sett": 4816,
      "acqu": 4817,
      "internet": 4818,
      "org": 4819,
      "iv": 4820,
      "##aign": 4821,
      "##ially": 4822,
      "condition": 4823,
      "mic": 4824,
      "obvious": 4825,
      "entit": 4826,
      "aver": 4827,
      "##ania": 4828,
      "stupid": 4829,
      "alive": 4830,
      "physical": 4831,
      "engine": 4832,
      "active": 4833,
      "psych": 4834,
      "campaign": 4835,
      "ben": 4836,
      "join": 4837,
      "gentlemen": 4838,
      "der": 4839,
      "series": 4840,
      "published": 4841,
      "solution": 4842,
      "felt": 4843,
      "catch": 4844,
      "asking": 4845,
      "##lled": 4846,
      "climate": 4847,
      "##pa": 4848,
      "##rection": 4849,
      "prevention": 4850,
      "independent": 4851,
      "influ": 4852,
      "##set": 4853,
      "dro": 4854,
      "?\"": 4855,
      "agreements": 4856,
      "facilit": 4857,
      "bey": 4858,
      "##iveness": 4859,
      "affect": 4860,
      "manag": 4861,
      "32": 4862,
      "que": 4863,
      "##ilateral": 4864,
      "##rap": 4865,
      "cert": 4866,
      "objectives": 4867,
      "limited": 4868,
      "hmm": 4869,
      "dig": 4870,
      "altern": 4871,
      "requested": 4872,
      "reduction": 4873,
      "covered": 4874,
      "##rast": 4875,
      "slow": 4876,
      "circum": 4877,
      "cro": 4878,
      "##wise": 4879,
      "feed": 4880,
      "##ennium": 4881,
      "delegation": 4882,
      "reasons": 4883,
      "usually": 4884,
      "priority": 4885,
      "categ": 4886,
      "competition": 4887,
      "hung": 4888,
      "bag": 4889,
      "##umb": 4890,
      "expressed": 4891,
      "partnership": 4892,
      "regions": 4893,
      "lower": 4894,
      "tit": 4895,
      "confirm": 4896,
      "cooper": 4897,
      "proposals": 4898,
      "eye": 4899,
      "45": 4900,
      "##ball": 4901,
      "##inary": 4902,
      "fear": 4903,
      "simply": 4904,
      "science": 4905,
      "fundamental": 4906,
      "promise": 4907,
      "agricultural": 4908,
      "computer": 4909,
      "dialogue": 4910,
      "charge": 4911,
      "##riage": 4912,
      "expected": 4913,
      "##ables": 4914,
      "indigen": 4915,
      "guidel": 4916,
      "species": 4917,
      "hund": 4918,
      "simple": 4919,
      "##gest": 4920,
      "mentioned": 4921,
      "coff": 4922,
      "hundred": 4923,
      "approved": 4924,
      "mou": 4925,
      "committed": 4926,
      "ran": 4927,
      "##inal": 4928,
      "##ena": 4929,
      "happens": 4930,
      "##right": 4931,
      "##use": 4932,
      "##racy": 4933,
      "beyond": 4934,
      "wow": 4935,
      "##arily": 4936,
      "expert": 4937,
      "hous": 4938,
      "ut": 4939,
      "concept": 4940,
      "substant": 4941,
      "floor": 4942,
      "indigenous": 4943,
      "fly": 4944,
      "##ulate": 4945,
      "applicable": 4946,
      "fem": 4947,
      "##yn": 4948,
      "attemp": 4949,
      "interested": 4950,
      "glad": 4951,
      "favor": 4952,
      "financing": 4953,
      "announ": 4954,
      "completely": 4955,
      "pursuant": 4956,
      "waste": 4957,
      "funny": 4958,
      "satis": 4959,
      "qual": 4960,
      "goals": 4961,
      "contained": 4962,
      "##ugh": 4963,
      "supply": 4964,
      "signed": 4965,
      "excell": 4966,
      "accident": 4967,
      "certainly": 4968,
      "allowed": 4969,
      "objective": 4970,
      "border": 4971,
      "percent": 4972,
      "interests": 4973,
      "##ware": 4974,
      "##isms": 4975,
      "webs": 4976,
      "##cked": 4977,
      "mov": 4978,
      "speaking": 4979,
      "recall": 4980,
      "disp": 4981,
      "moving": 4982,
      "recover": 4983,
      "chapter": 4984,
      "moun": 4985,
      "understanding": 4986,
      "promotion": 4987,
      "fra": 4988,
      "##gu": 4989,
      "maxim": 4990,
      "industrial": 4991,
      "turned": 4992,
      "scientific": 4993,
      "##ex": 4994,
      "cook": 4995,
      "pressure": 4996,
      "beat": 4997,
      "benefit": 4998,
      "drugs": 4999,
      "rout": 5000,
      "club": 5001,
      "write": 5002,
      "2013": 5003,
      "cele": 5004,
      "##ae": 5005,
      "unc": 5006,
      "income": 5007,
      "##iff": 5008,
      "meant": 5009,
      "respond": 5010,
      "duty": 5011,
      "dinner": 5012,
      "##anda": 5013,
      "initiative": 5014,
      "repe": 5015,
      "sexual": 5016,
      "resolutions": 5017,
      "##zer": 5018,
      "launch": 5019,
      "extreme": 5020,
      "practices": 5021,
      "immediately": 5022,
      "##yle": 5023,
      "century": 5024,
      "gree": 5025,
      "##aven": 5026,
      "prec": 5027,
      "##...": 5028,
      "para": 5029,
      "flight": 5030,
      "##lt": 5031,
      "voice": 5032,
      "##ka": 5033,
      "##eless": 5034,
      "discover": 5035,
      "destroy": 5036,
      "van": 5037,
      "judge": 5038,
      "fulf": 5039,
      "sad": 5040,
      "1997": 5041,
      "restrict": 5042,
      "palestinian": 5043,
      "mun": 5044,
      "##rate": 5045,
      "written": 5046,
      "kept": 5047,
      "##urance": 5048,
      "sell": 5049,
      "occur": 5050,
      "500": 5051,
      "peoples": 5052,
      "radio": 5053,
      "web": 5054,
      "whereas": 5055,
      "dress": 5056,
      "anybody": 5057,
      "surve": 5058,
      "##ening": 5059,
      "creation": 5060,
      "video": 5061,
      "eur": 5062,
      "##za": 5063,
      "online": 5064,
      "accomp": 5065,
      "picture": 5066,
      "amaz": 5067,
      "none": 5068,
      "suit": 5069,
      "##uts": 5070,
      "shows": 5071,
      "connection": 5072,
      "places": 5073,
      "##lly": 5074,
      "##ua": 5075,
      "blue": 5076,
      "calling": 5077,
      "##????": 5078,
      "##icial": 5079,
      "remains": 5080,
      "mir": 5081,
      "prosec": 5082,
      "notes": 5083,
      "camer": 5084,
      "nic": 5085,
      "##icip": 5086,
      "##ches": 5087,
      "meaning": 5088,
      "sounds": 5089,
      "##isters": 5090,
      "forum": 5091,
      "steps": 5092,
      "discussion": 5093,
      "rural": 5094,
      "##ria": 5095,
      "establishing": 5096,
      "iii": 5097,
      "##come": 5098,
      "regulations": 5099,
      "transm": 5100,
      "affected": 5101,
      "debt": 5102,
      "drop": 5103,
      "shar": 5104,
      "advant": 5105,
      "materials": 5106,
      "commercial": 5107,
      "##iday": 5108,
      "ali": 5109,
      "organized": 5110,
      "fourth": 5111,
      "wes": 5112,
      "presented": 5113,
      "animal": 5114,
      "emergency": 5115,
      "wood": 5116,
      "##vision": 5117,
      "rap": 5118,
      "##cr": 5119,
      "##eter": 5120,
      "underta": 5121,
      "laid": 5122,
      "band": 5123,
      "heaven": 5124,
      "looked": 5125,
      "construction": 5126,
      "benefits": 5127,
      "##oh": 5128,
      "##ole": 5129,
      "entitled": 5130,
      "ice": 5131,
      "##ped": 5132,
      "mut": 5133,
      "##enced": 5134,
      "instruments": 5135,
      "seeing": 5136,
      "italy": 5137,
      "recently": 5138,
      "trip": 5139,
      "##ught": 5140,
      "inj": 5141,
      "deg": 5142,
      "standing": 5143,
      "##poses": 5144,
      "straight": 5145,
      "revolution": 5146,
      "solid": 5147,
      "tv": 5148,
      "##ancy": 5149,
      "situ": 5150,
      "latin": 5151,
      "1995": 5152,
      "obligations": 5153,
      "sant": 5154,
      "piece": 5155,
      "33": 5156,
      "breat": 5157,
      "##keep": 5158,
      "minor": 5159,
      "circumst": 5160,
      "reporting": 5161,
      "amended": 5162,
      "starting": 5163,
      "etc": 5164,
      "quiet": 5165,
      "overall": 5166,
      "size": 5167,
      "##cri": 5168,
      "whom": 5169,
      "weak": 5170,
      "speed": 5171,
      "river": 5172,
      "purposes": 5173,
      "officer": 5174,
      "favour": 5175,
      "exercise": 5176,
      "mouth": 5177,
      "##rant": 5178,
      "##bor": 5179,
      "offers": 5180,
      "guarantee": 5181,
      "guidelines": 5182,
      "##rated": 5183,
      "##gies": 5184,
      "shouldn": 5185,
      "fell": 5186,
      "designed": 5187,
      "weight": 5188,
      "##lier": 5189,
      "boss": 5190,
      "throw": 5191,
      "requests": 5192,
      "histor": 5193,
      "task": 5194,
      "##lam": 5195,
      "##imm": 5196,
      "honest": 5197,
      "average": 5198,
      "sand": 5199,
      "adjust": 5200,
      "content": 5201,
      "india": 5202,
      "55": 5203,
      "added": 5204,
      "##nes": 5205,
      "criter": 5206,
      "personnel": 5207,
      "##fficient": 5208,
      "till": 5209,
      "concerns": 5210,
      "territor": 5211,
      "addressed": 5212,
      "nar": 5213,
      "##ered": 5214,
      "aspects": 5215,
      "##rible": 5216,
      "effort": 5217,
      "majority": 5218,
      "innov": 5219,
      "neither": 5220,
      "bath": 5221,
      "##itude": 5222,
      "animals": 5223,
      "ber": 5224,
      "jew": 5225,
      "transl": 5226,
      "36": 5227,
      "90": 5228,
      "1996": 5229,
      "implementing": 5230,
      "burn": 5231,
      "gives": 5232,
      "##aur": 5233,
      "planet": 5234,
      "limit": 5235,
      "##ael": 5236,
      "interp": 5237,
      "kiss": 5238,
      "pu": 5239,
      "began": 5240,
      "democracy": 5241,
      "rene": 5242,
      "despite": 5243,
      "tort": 5244,
      "grad": 5245,
      "quant": 5246,
      "aware": 5247,
      "coffee": 5248,
      "investigation": 5249,
      "susp": 5250,
      "external": 5251,
      "corpor": 5252,
      "frequ": 5253,
      "challenges": 5254,
      "##omatic": 5255,
      "rain": 5256,
      "##apt": 5257,
      "values": 5258,
      "80": 5259,
      "register": 5260,
      "presence": 5261,
      "federal": 5262,
      "individuals": 5263,
      "hall": 5264,
      "##rid": 5265,
      "194": 5266,
      "religious": 5267,
      "##hab": 5268,
      "contribution": 5269,
      "##af": 5270,
      "##ii": 5271,
      "youth": 5272,
      "nav": 5273,
      "issued": 5274,
      "adequ": 5275,
      "upd": 5276,
      "disease": 5277,
      "34": 5278,
      "bes": 5279,
      "##ey": 5280,
      "symp": 5281,
      "circumstances": 5282,
      "##ror": 5283,
      "##sels": 5284,
      "entry": 5285,
      "growing": 5286,
      "race": 5287,
      "lawy": 5288,
      "gain": 5289,
      "built": 5290,
      "illeg": 5291,
      "surr": 5292,
      "bitch": 5293,
      "strategic": 5294,
      "ow": 5295,
      "david": 5296,
      "balance": 5297,
      "evening": 5298,
      "rates": 5299,
      "stru": 5300,
      "track": 5301,
      "difference": 5302,
      "website": 5303,
      "tro": 5304,
      "marriage": 5305,
      "colon": 5306,
      "===": 5307,
      "##gen": 5308,
      "##asc": 5309,
      "yester": 5310,
      "governmental": 5311,
      "oppos": 5312,
      "shop": 5313,
      "recommended": 5314,
      "initiatives": 5315,
      "elements": 5316,
      "evaluation": 5317,
      "##ona": 5318,
      "compr": 5319,
      "closed": 5320,
      "markets": 5321,
      "aids": 5322,
      "experts": 5323,
      "traditional": 5324,
      "granted": 5325,
      "incor": 5326,
      "paris": 5327,
      "concent": 5328,
      "pleas": 5329,
      "yesterday": 5330,
      "mountain": 5331,
      "bear": 5332,
      "collabor": 5333,
      "##enge": 5334,
      "loved": 5335,
      "cash": 5336,
      "mandate": 5337,
      "\"?": 5338,
      "fru": 5339,
      "likely": 5340,
      "reality": 5341,
      "##iling": 5342,
      "##ivity": 5343,
      "mag": 5344,
      "funding": 5345,
      "whoa": 5346,
      "opportunities": 5347,
      "structure": 5348,
      "candid": 5349,
      "applied": 5350,
      "ring": 5351,
      "##ky": 5352,
      "##--": 5353,
      "equality": 5354,
      "reduce": 5355,
      "reached": 5356,
      "strengthening": 5357,
      "ded": 5358,
      "missing": 5359,
      "primary": 5360,
      "##arity": 5361,
      "install": 5362,
      "##ologies": 5363,
      "methods": 5364,
      "skin": 5365,
      "forgot": 5366,
      "##irty": 5367,
      "seek": 5368,
      "estim": 5369,
      "facilities": 5370,
      "chemical": 5371,
      "dance": 5372,
      "##uc": 5373,
      "##aken": 5374,
      "views": 5375,
      "caused": 5376,
      "summit": 5377,
      "dangerous": 5378,
      "##ining": 5379,
      "guard": 5380,
      "##uel": 5381,
      "heav": 5382,
      "associated": 5383,
      "scared": 5384,
      "transpar": 5385,
      "schem": 5386,
      "popular": 5387,
      "##bur": 5388,
      "##orary": 5389,
      "provin": 5390,
      "russia": 5391,
      "hurry": 5392,
      "satisf": 5393,
      "195": 5394,
      "quickly": 5395,
      "egy": 5396,
      "pregn": 5397,
      "2015": 5398,
      "victim": 5399,
      "##keeping": 5400,
      "##oles": 5401,
      "maximum": 5402,
      "comfort": 5403,
      "##issions": 5404,
      "complex": 5405,
      "minimum": 5406,
      "appar": 5407,
      "airport": 5408,
      "trial": 5409,
      "egypt": 5410,
      "##mine": 5411,
      "##bon": 5412,
      "worse": 5413,
      "detect": 5414,
      "feet": 5415,
      "schools": 5416,
      "choose": 5417,
      "criteria": 5418,
      "games": 5419,
      "##gs": 5420,
      "##ibilities": 5421,
      "spread": 5422,
      "records": 5423,
      "punish": 5424,
      "coast": 5425,
      "esc": 5426,
      "holding": 5427,
      "elections": 5428,
      "calc": 5429,
      "division": 5430,
      "chairman": 5431,
      "produced": 5432,
      "daily": 5433,
      "doubt": 5434,
      "hiv": 5435,
      "decide": 5436,
      "integrated": 5437,
      "##ils": 5438,
      "compon": 5439,
      "##ression": 5440,
      "payment": 5441,
      "glass": 5442,
      "contributions": 5443,
      "tun": 5444,
      "##vert": 5445,
      "adult": 5446,
      "absolutely": 5447,
      "km": 5448,
      "expend": 5449,
      "ourselves": 5450,
      "57": 5451,
      "competent": 5452,
      "brief": 5453,
      "subsid": 5454,
      "70": 5455,
      "##ij": 5456,
      "forest": 5457,
      "brain": 5458,
      "informed": 5459,
      "##iture": 5460,
      "cancer": 5461,
      "syn": 5462,
      "includes": 5463,
      "followed": 5464,
      "release": 5465,
      "prohib": 5466,
      "fresh": 5467,
      "writing": 5468,
      "details": 5469,
      "types": 5470,
      "renew": 5471,
      "manner": 5472,
      "trafficking": 5473,
      "fault": 5474,
      "lond": 5475,
      "##load": 5476,
      "prep": 5477,
      "37": 5478,
      "##ping": 5479,
      "##astic": 5480,
      "interesting": 5481,
      "reading": 5482,
      "charl": 5483,
      "wine": 5484,
      "##gment": 5485,
      "##iving": 5486,
      "disarm": 5487,
      "prefer": 5488,
      "serve": 5489,
      "finish": 5490,
      "careful": 5491,
      "hid": 5492,
      "goal": 5493,
      "otherwise": 5494,
      "sched": 5495,
      "soul": 5496,
      "##iers": 5497,
      "##bi": 5498,
      "proc": 5499,
      "happening": 5500,
      "achieved": 5501,
      "prem": 5502,
      "##rupt": 5503,
      "statements": 5504,
      "##works": 5505,
      "integration": 5506,
      "bol": 5507,
      "nation": 5508,
      "##iot": 5509,
      "##ken": 5510,
      "##cel": 5511,
      "sha": 5512,
      "london": 5513,
      "##ett": 5514,
      "sectors": 5515,
      "enterpr": 5516,
      "wonderful": 5517,
      "disappear": 5518,
      "dur": 5519,
      "##mark": 5520,
      "shown": 5521,
      "##zz": 5522,
      "##areness": 5523,
      "fort": 5524,
      "intended": 5525,
      "negotiations": 5526,
      "mary": 5527,
      "pil": 5528,
      "##dra": 5529,
      "cloth": 5530,
      "##others": 5531,
      "awareness": 5532,
      "mechanisms": 5533,
      "gal": 5534,
      "2014": 5535,
      "match": 5536,
      "instrument": 5537,
      "##rastruct": 5538,
      "##ba": 5539,
      "##ams": 5540,
      "##olic": 5541,
      "contribute": 5542,
      "od": 5543,
      "fle": 5544,
      "##cs": 5545,
      "##omed": 5546,
      "convers": 5547,
      "played": 5548,
      "infrastruct": 5549,
      "kore": 5550,
      "##rad": 5551,
      "enem": 5552,
      "gather": 5553,
      "ren": 5554,
      "##yal": 5555,
      "notice": 5556,
      "##resp": 5557,
      "##mas": 5558,
      "convin": 5559,
      "spent": 5560,
      "attract": 5561,
      "supported": 5562,
      "alex": 5563,
      "jul": 5564,
      "seat": 5565,
      "##inese": 5566,
      "##asion": 5567,
      "relation": 5568,
      "celebr": 5569,
      "western": 5570,
      "defend": 5571,
      "advance": 5572,
      "daddy": 5573,
      ",”": 5574,
      "##oms": 5575,
      "map": 5576,
      "stated": 5577,
      "##lick": 5578,
      "islands": 5579,
      "partner": 5580,
      "assign": 5581,
      "institute": 5582,
      "damage": 5583,
      "successful": 5584,
      "encourage": 5585,
      "cab": 5586,
      "os": 5587,
      "subsequ": 5588,
      "possibility": 5589,
      "peacekeeping": 5590,
      "electron": 5591,
      "copy": 5592,
      "names": 5593,
      "sitting": 5594,
      "##ox": 5595,
      "acting": 5596,
      "##book": 5597,
      ".'": 5598,
      "vul": 5599,
      "chinese": 5600,
      "officers": 5601,
      "items": 5602,
      "voices": 5603,
      "56": 5604,
      "follows": 5605,
      "warm": 5606,
      "comment": 5607,
      "insurance": 5608,
      "totally": 5609,
      "##onia": 5610,
      "leading": 5611,
      "visits": 5612,
      "exclus": 5613,
      "promoting": 5614,
      "double": 5615,
      "ign": 5616,
      "##ipp": 5617,
      "##ita": 5618,
      "beach": 5619,
      "ability": 5620,
      "##ground": 5621,
      "fool": 5622,
      "advice": 5623,
      "penal": 5624,
      "slo": 5625,
      "##ties": 5626,
      "relax": 5627,
      "seriously": 5628,
      "combat": 5629,
      "print": 5630,
      "resist": 5631,
      "##bert": 5632,
      "42": 5633,
      "##nic": 5634,
      "stor": 5635,
      "defined": 5636,
      "district": 5637,
      "agriculture": 5638,
      "sources": 5639,
      "##ghan": 5640,
      "##ris": 5641,
      "labor": 5642,
      "negative": 5643,
      "ast": 5644,
      "scale": 5645,
      "location": 5646,
      "domin": 5647,
      "dim": 5648,
      "users": 5649,
      "somewhere": 5650,
      "challenge": 5651,
      "wer": 5652,
      "spend": 5653,
      "dollars": 5654,
      "48": 5655,
      "alloc": 5656,
      "compens": 5657,
      "bob": 5658,
      "blow": 5659,
      "iran": 5660,
      ".)": 5661,
      "proceedings": 5662,
      "bird": 5663,
      "fifty": 5664,
      "tick": 5665,
      "##abilities": 5666,
      "load": 5667,
      "compli": 5668,
      "machine": 5669,
      "george": 5670,
      "arrangements": 5671,
      "disarmament": 5672,
      "38": 5673,
      "##oo": 5674,
      "##lands": 5675,
      "temper": 5676,
      "michael": 5677,
      "belie": 5678,
      "operating": 5679,
      "behav": 5680,
      "peter": 5681,
      "fifth": 5682,
      "amendments": 5683,
      "gard": 5684,
      "##aint": 5685,
      "canada": 5686,
      "wrote": 5687,
      "implemented": 5688,
      "aimed": 5689,
      "version": 5690,
      "ecu": 5691,
      "calm": 5692,
      "portug": 5693,
      "powers": 5694,
      "urg": 5695,
      "amazing": 5696,
      "##ibly": 5697,
      "evil": 5698,
      "involve": 5699,
      "pred": 5700,
      "interview": 5701,
      "##ifying": 5702,
      "##ague": 5703,
      "image": 5704,
      "lucky": 5705,
      "reject": 5706,
      "##ously": 5707,
      "swed": 5708,
      "austral": 5709,
      "excellent": 5710,
      "##itial": 5711,
      "earlier": 5712,
      "opening": 5713,
      "##cia": 5714,
      "imposs": 5715,
      "detailed": 5716,
      "store": 5717,
      "moved": 5718,
      "huge": 5719,
      "apartment": 5720,
      "panel": 5721,
      "repl": 5722,
      "extent": 5723,
      "restaur": 5724,
      "##idge": 5725,
      "enforce": 5726,
      "##izes": 5727,
      "asia": 5728,
      "pros": 5729,
      "patient": 5730,
      "afghan": 5731,
      "twenty": 5732,
      "village": 5733,
      "##face": 5734,
      "initial": 5735,
      "uncle": 5736,
      "smell": 5737,
      "colomb": 5738,
      "claims": 5739,
      "kar": 5740,
      "##lor": 5741,
      "agent": 5742,
      "learning": 5743,
      "honor": 5744,
      "cham": 5745,
      "##odes": 5746,
      "introduced": 5747,
      "fisher": 5748,
      "interpret": 5749,
      "##actions": 5750,
      "willing": 5751,
      "jur": 5752,
      "mos": 5753,
      "##ki": 5754,
      "##ero": 5755,
      "##che": 5756,
      "nine": 5757,
      "##iance": 5758,
      "processes": 5759,
      "congrat": 5760,
      "college": 5761,
      "sudden": 5762,
      "bomb": 5763,
      "wake": 5764,
      "##aught": 5765,
      "##going": 5766,
      "lines": 5767,
      "samp": 5768,
      "islam": 5769,
      "1994": 5770,
      "highly": 5771,
      "sales": 5772,
      "billion": 5773,
      "##iles": 5774,
      "ensuring": 5775,
      "officials": 5776,
      "placed": 5777,
      "invited": 5778,
      "numbers": 5779,
      "useful": 5780,
      "participate": 5781,
      "window": 5782,
      "spiritual": 5783,
      "critical": 5784,
      "incorpor": 5785,
      "award": 5786,
      "ble": 5787,
      "ire": 5788,
      "'.": 5789,
      "wild": 5790,
      "1990": 5791,
      "raised": 5792,
      "factors": 5793,
      "apart": 5794,
      "summer": 5795,
      "compliance": 5796,
      "fing": 5797,
      "rise": 5798,
      "illegal": 5799,
      "39": 5800,
      "push": 5801,
      "##bed": 5802,
      "mac": 5803,
      "##itely": 5804,
      "##ses": 5805,
      "whe": 5806,
      "stick": 5807,
      "mail": 5808,
      "compared": 5809,
      "operational": 5810,
      "talked": 5811,
      "applications": 5812,
      "##wa": 5813,
      "##irt": 5814,
      "quar": 5815,
      "turkey": 5816,
      "described": 5817,
      "produce": 5818,
      "books": 5819,
      "weren": 5820,
      "58": 5821,
      "liter": 5822,
      "##oral": 5823,
      "62": 5824,
      "##aled": 5825,
      "explo": 5826,
      "distribution": 5827,
      "##ience": 5828,
      "##ano": 5829,
      "##iger": 5830,
      "units": 5831,
      "hero": 5832,
      "scope": 5833,
      "handle": 5834,
      "fishing": 5835,
      "software": 5836,
      "impossible": 5837,
      "divers": 5838,
      "functions": 5839,
      "inspect": 5840,
      "christian": 5841,
      "introduction": 5842,
      "bott": 5843,
      "mix": 5844,
      "##cers": 5845,
      "comments": 5846,
      "##loyment": 5847,
      "refugees": 5848,
      "observ": 5849,
      "alternative": 5850,
      "ireland": 5851,
      "ya": 5852,
      "##ula": 5853,
      "unique": 5854,
      "cn": 5855,
      "convent": 5856,
      "offices": 5857,
      "fighting": 5858,
      "mas": 5859,
      "tast": 5860,
      "##ship": 5861,
      "roll": 5862,
      "depend": 5863,
      "imagine": 5864,
      "intellig": 5865,
      "cath": 5866,
      "##dam": 5867,
      "remind": 5868,
      "recommendation": 5869,
      "75": 5870,
      "appeal": 5871,
      "communications": 5872,
      "44": 5873,
      "thinks": 5874,
      "muse": 5875,
      "identified": 5876,
      "legislative": 5877,
      "approval": 5878,
      "caught": 5879,
      "wear": 5880,
      "##iment": 5881,
      "plat": 5882,
      "firm": 5883,
      "finished": 5884,
      "setting": 5885,
      "strategies": 5886,
      "universal": 5887,
      "wid": 5888,
      "log": 5889,
      "approxim": 5890,
      "election": 5891,
      "torture": 5892,
      "named": 5893,
      "tru": 5894,
      "argent": 5895,
      "41": 5896,
      "ken": 5897,
      "##ule": 5898,
      "##ked": 5899,
      "##ruption": 5900,
      "learned": 5901,
      "sar": 5902,
      "##iant": 5903,
      "##atures": 5904,
      "##erson": 5905,
      "crimes": 5906,
      "purch": 5907,
      "adopt": 5908,
      "educational": 5909,
      "offered": 5910,
      "tribun": 5911,
      "##bu": 5912,
      "failure": 5913,
      "municip": 5914,
      "weird": 5915,
      "##ades": 5916,
      "passed": 5917,
      "christmas": 5918,
      "infrastructure": 5919,
      "mg": 5920,
      "##akes": 5921,
      "jobs": 5922,
      "movie": 5923,
      "clothes": 5924,
      "forced": 5925,
      "##unte": 5926,
      "raise": 5927,
      "federation": 5928,
      "##ray": 5929,
      "##bar": 5930,
      "magn": 5931,
      "worksh": 5932,
      "##pective": 5933,
      "##cape": 5934,
      "adequate": 5935,
      "prepare": 5936,
      "jump": 5937,
      "rac": 5938,
      "rental": 5939,
      "rein": 5940,
      "british": 5941,
      "dedic": 5942,
      "##respond": 5943,
      "300": 5944,
      "##essions": 5945,
      "decre": 5946,
      "urban": 5947,
      "advisory": 5948,
      "strugg": 5949,
      "charter": 5950,
      "constant": 5951,
      "enhance": 5952,
      "59": 5953,
      "ol": 5954,
      "##the": 5955,
      "lived": 5956,
      "prime": 5957,
      "putting": 5958,
      "planned": 5959,
      "correspond": 5960,
      "clin": 5961,
      "watching": 5962,
      "recognized": 5963,
      "%)": 5964,
      "resident": 5965,
      "##ques": 5966,
      "relative": 5967,
      "kidding": 5968,
      "##ech": 5969,
      "reve": 5970,
      "prol": 5971,
      "direction": 5972,
      "smart": 5973,
      "electric": 5974,
      "preparation": 5975,
      "determined": 5976,
      "cuba": 5977,
      "cart": 5978,
      "##old": 5979,
      "##oking": 5980,
      "spl": 5981,
      "undp": 5982,
      "tree": 5983,
      "##ga": 5984,
      "bless": 5985,
      "continues": 5986,
      "volunte": 5987,
      "micro": 5988,
      "lying": 5989,
      "ros": 5990,
      "##rary": 5991,
      "##pir": 5992,
      "withdra": 5993,
      "brand": 5994,
      "square": 5995,
      "female": 5996,
      "mel": 5997,
      "sugar": 5998,
      "##rian": 5999,
      "truck": 6000,
      "spoke": 6001,
      "supplement": 6002,
      "heads": 6003,
      "ideas": 6004,
      "improving": 6005,
      "bound": 6006,
      "sav": 6007,
      "quot": 6008,
      "advantage": 6009,
      "ves": 6010,
      "conv": 6011,
      "thereof": 6012,
      "regards": 6013,
      "lou": 6014,
      "accounts": 6015,
      "skills": 6016,
      "horse": 6017,
      "separate": 6018,
      "oce": 6019,
      "spot": 6020,
      "poll": 6021,
      "1992": 6022,
      "depart": 6023,
      "54": 6024,
      "hen": 6025,
      "lunch": 6026,
      "chick": 6027,
      "##ureau": 6028,
      "attach": 6029,
      "fixed": 6030,
      "##antic": 6031,
      "pharm": 6032,
      "judicial": 6033,
      "bureau": 6034,
      "hom": 6035,
      "##pel": 6036,
      "discip": 6037,
      "marry": 6038,
      "stopped": 6039,
      "##de": 6040,
      "compar": 6041,
      "leader": 6042,
      "05": 6043,
      "dude": 6044,
      "champ": 6045,
      "anywhere": 6046,
      "confidence": 6047,
      "broke": 6048,
      "salv": 6049,
      "driving": 6050,
      "jose": 6051,
      "worried": 6052,
      "contains": 6053,
      "bul": 6054,
      "vac": 6055,
      "##lection": 6056,
      "##ola": 6057,
      "emot": 6058,
      "violations": 6059,
      "fer": 6060,
      "weapon": 6061,
      "vulner": 6062,
      "##ala": 6063,
      "season": 6064,
      "enable": 6065,
      "presid": 6066,
      "mont": 6067,
      "highlight": 6068,
      "participants": 6069,
      "identify": 6070,
      "thousands": 6071,
      "01": 6072,
      "43": 6073,
      "##ham": 6074,
      "alright": 6075,
      "##using": 6076,
      "realize": 6077,
      "amendment": 6078,
      "wedding": 6079,
      "tired": 6080,
      "##ivers": 6081,
      "##adem": 6082,
      "prove": 6083,
      "keeping": 6084,
      "##iny": 6085,
      "lux": 6086,
      "ash": 6087,
      "boat": 6088,
      "marketing": 6089,
      "customs": 6090,
      "italian": 6091,
      "battle": 6092,
      "millennium": 6093,
      "multip": 6094,
      "banks": 6095,
      "obviously": 6096,
      "##ius": 6097,
      "treated": 6098,
      "##iciency": 6099,
      "consequences": 6100,
      "tough": 6101,
      "repla": 6102,
      "ended": 6103,
      "collection": 6104,
      "languages": 6105,
      "argu": 6106,
      "tow": 6107,
      "##iced": 6108,
      "##ensus": 6109,
      "block": 6110,
      "hearing": 6111,
      "mechanism": 6112,
      "undertaking": 6113,
      "organisation": 6114,
      "existence": 6115,
      "congress": 6116,
      "guide": 6117,
      "requires": 6118,
      "unfortun": 6119,
      "bon": 6120,
      "bang": 6121,
      "tend": 6122,
      "ult": 6123,
      "reven": 6124,
      "user": 6125,
      "mainten": 6126,
      "completed": 6127,
      "immig": 6128,
      "connect": 6129,
      "killing": 6130,
      "determine": 6131,
      "fruit": 6132,
      "dump": 6133,
      "lt": 6134,
      "##aling": 6135,
      "stability": 6136,
      "coven": 6137,
      "clar": 6138,
      "transform": 6139,
      "northern": 6140,
      "released": 6141,
      "##mar": 6142,
      "##ato": 6143,
      "maintenance": 6144,
      "actual": 6145,
      "aftern": 6146,
      "49": 6147,
      "teacher": 6148,
      "besides": 6149,
      "##los": 6150,
      "governing": 6151,
      "submit": 6152,
      "surround": 6153,
      "ride": 6154,
      "##con": 6155,
      "moreover": 6156,
      "technologies": 6157,
      "opened": 6158,
      "accepted": 6159,
      "suspect": 6160,
      "photo": 6161,
      "fit": 6162,
      "sale": 6163,
      "bell": 6164,
      "easily": 6165,
      "##20": 6166,
      "effic": 6167,
      "practical": 6168,
      "facilitate": 6169,
      "pra": 6170,
      "abuse": 6171,
      "regist": 6172,
      "scene": 6173,
      "phase": 6174,
      "milk": 6175,
      "##________": 6176,
      "vehicle": 6177,
      "sufficient": 6178,
      "nom": 6179,
      "tor": 6180,
      "uns": 6181,
      "outcome": 6182,
      "dipl": 6183,
      "scre": 6184,
      "##bean": 6185,
      "broken": 6186,
      "television": 6187,
      "electronic": 6188,
      "96": 6189,
      "ray": 6190,
      "forever": 6191,
      "exceed": 6192,
      "193": 6193,
      "highest": 6194,
      "elimin": 6195,
      "##standing": 6196,
      "sky": 6197,
      "madam": 6198,
      "appreciate": 6199,
      "mc": 6200,
      "##bel": 6201,
      "beg": 6202,
      "forth": 6203,
      "washing": 6204,
      "miles": 6205,
      "##enth": 6206,
      "academ": 6207,
      "volunt": 6208,
      "recru": 6209,
      "expand": 6210,
      "assum": 6211,
      "harmon": 6212,
      "institutional": 6213,
      "95": 6214,
      "##ette": 6215,
      "bringing": 6216,
      "consultations": 6217,
      "charlie": 6218,
      "replaced": 6219,
      "click": 6220,
      "fal": 6221,
      "##char": 6222,
      "conven": 6223,
      "##ille": 6224,
      "consumption": 6225,
      "vision": 6226,
      "##inc": 6227,
      "lift": 6228,
      "consol": 6229,
      "assets": 6230,
      "dry": 6231,
      "furthermore": 6232,
      "allows": 6233,
      "afternoon": 6234,
      "mort": 6235,
      "##now": 6236,
      "##ein": 6237,
      "##quar": 6238,
      "delivery": 6239,
      "situations": 6240,
      "museum": 6241,
      "46": 6242,
      "##agn": 6243,
      "##vis": 6244,
      "##aging": 6245,
      "recognition": 6246,
      "##cra": 6247,
      "secure": 6248,
      "termin": 6249,
      "instruct": 6250,
      "creating": 6251,
      "definitely": 6252,
      "influence": 6253,
      "kick": 6254,
      "defence": 6255,
      "latest": 6256,
      "indicated": 6257,
      "voc": 6258,
      "##bid": 6259,
      "lock": 6260,
      "symb": 6261,
      "strange": 6262,
      "ox": 6263,
      "max": 6264,
      "carib": 6265,
      "fellow": 6266,
      "terrorist": 6267,
      "ethnic": 6268,
      "remo": 6269,
      "1993": 6270,
      "mistake": 6271,
      "rome": 6272,
      "stake": 6273,
      "shared": 6274,
      "undert": 6275,
      "busy": 6276,
      "reduced": 6277,
      "israeli": 6278,
      "tan": 6279,
      "zone": 6280,
      "chile": 6281,
      "finance": 6282,
      "leadership": 6283,
      "##icit": 6284,
      "helping": 6285,
      "rooms": 6286,
      "commitments": 6287,
      "terrible": 6288,
      "color": 6289,
      "hyd": 6290,
      "generally": 6291,
      "professor": 6292,
      "flor": 6293,
      "older": 6294,
      "solutions": 6295,
      "files": 6296,
      "exclud": 6297,
      "rail": 6298,
      "##ique": 6299,
      "meat": 6300,
      "uses": 6301,
      "incident": 6302,
      "inclus": 6303,
      "blind": 6304,
      "##usion": 6305,
      "joe": 6306,
      "headquar": 6307,
      "extremely": 6308,
      "!\"": 6309,
      "bast": 6310,
      "sight": 6311,
      "famous": 6312,
      "bot": 6313,
      "dated": 6314,
      "dose": 6315,
      "##uls": 6316,
      "knock": 6317,
      "valid": 6318,
      "title": 6319,
      "proud": 6320,
      "goodby": 6321,
      "medium": 6322,
      "killer": 6323,
      "engage": 6324,
      "cities": 6325,
      "cup": 6326,
      "centres": 6327,
      "analy": 6328,
      "pictures": 6329,
      "cere": 6330,
      "rh": 6331,
      "##ura": 6332,
      "sharing": 6333,
      "suppose": 6334,
      "helped": 6335,
      "eastern": 6336,
      "severe": 6337,
      "destruction": 6338,
      "rub": 6339,
      "##tered": 6340,
      "hasn": 6341,
      "saved": 6342,
      "posts": 6343,
      "options": 6344,
      "vehicles": 6345,
      "degree": 6346,
      "caribbean": 6347,
      "61": 6348,
      "ng": 6349,
      "paragraphs": 6350,
      "presidency": 6351,
      "51": 6352,
      "91": 6353,
      "##illed": 6354,
      "resource": 6355,
      "capt": 6356,
      "option": 6357,
      "forgive": 6358,
      "evalu": 6359,
      "concluded": 6360,
      "lawyer": 6361,
      "enforcement": 6362,
      "therap": 6363,
      "##under": 6364,
      "worst": 6365,
      "##ipped": 6366,
      "confer": 6367,
      "belg": 6368,
      "supporting": 6369,
      "flu": 6370,
      "appears": 6371,
      "goodbye": 6372,
      "bought": 6373,
      "##rants": 6374,
      "##etary": 6375,
      "fuel": 6376,
      "showed": 6377,
      "customers": 6378,
      "territories": 6379,
      "truly": 6380,
      "bow": 6381,
      "rare": 6382,
      "##iel": 6383,
      "moon": 6384,
      "missions": 6385,
      "##ips": 6386,
      "surg": 6387,
      "religion": 6388,
      "mike": 6389,
      "surprise": 6390,
      "korea": 6391,
      "unif": 6392,
      "regret": 6393,
      "statistics": 6394,
      "ukra": 6395,
      "egg": 6396,
      "gall": 6397,
      "##ids": 6398,
      "weather": 6399,
      "leban": 6400,
      "plants": 6401,
      "lovely": 6402,
      "formal": 6403,
      "provisional": 6404,
      "franc": 6405,
      "expenditure": 6406,
      "##pper": 6407,
      "##aters": 6408,
      "wearing": 6409,
      "##cco": 6410,
      "conclusion": 6411,
      "continuing": 6412,
      "47": 6413,
      "gift": 6414,
      "##mental": 6415,
      "##ili": 6416,
      "foundation": 6417,
      "causes": 6418,
      "queen": 6419,
      "heavy": 6420,
      "covenant": 6421,
      "sup": 6422,
      "desire": 6423,
      "plane": 6424,
      "birthday": 6425,
      "hide": 6426,
      "lis": 6427,
      "##va": 6428,
      "depos": 6429,
      "screw": 6430,
      "listed": 6431,
      "publication": 6432,
      "nether": 6433,
      "conducted": 6434,
      "orders": 6435,
      "tools": 6436,
      "approximately": 6437,
      "##cl": 6438,
      "inject": 6439,
      "disaster": 6440,
      "lands": 6441,
      "honour": 6442,
      "63": 6443,
      "core": 6444,
      "reaff": 6445,
      "##stood": 6446,
      "pattern": 6447,
      "##eva": 6448,
      "headquarters": 6449,
      "chan": 6450,
      "geograph": 6451,
      "52": 6452,
      "##here": 6453,
      "##oned": 6454,
      "exhib": 6455,
      "speech": 6456,
      "finding": 6457,
      "powerful": 6458,
      "pleasure": 6459,
      "cos": 6460,
      "##do": 6461,
      "chain": 6462,
      "regime": 6463,
      "missed": 6464,
      "specified": 6465,
      "employees": 6466,
      "sympt": 6467,
      "##ss": 6468,
      "##hol": 6469,
      "obst": 6470,
      "buddy": 6471,
      "delay": 6472,
      "medicine": 6473,
      "##usal": 6474,
      "specifically": 6475,
      "discussed": 6476,
      "failed": 6477,
      "accompan": 6478,
      "afghanistan": 6479,
      "ba": 6480,
      "conscious": 6481,
      "seconds": 6482,
      "peaceful": 6483,
      "tribunal": 6484,
      "nick": 6485,
      "##back": 6486,
      "##orders": 6487,
      "memory": 6488,
      "audit": 6489,
      "closer": 6490,
      "darling": 6491,
      "ooh": 6492,
      "##osis": 6493,
      "windows": 6494,
      "attacks": 6495,
      "suffering": 6496,
      "juris": 6497,
      "consolid": 6498,
      "netherlands": 6499,
      "ack": 6500,
      "##cient": 6501,
      "pacif": 6502,
      "dealing": 6503,
      "recognize": 6504,
      "nearly": 6505,
      "neighbor": 6506,
      "##inct": 6507,
      "girlfriend": 6508,
      "rapid": 6509,
      "pak": 6510,
      "##fast": 6511,
      "semin": 6512,
      "chuck": 6513,
      "attend": 6514,
      "effectively": 6515,
      "certific": 6516,
      "stone": 6517,
      "proof": 6518,
      "friday": 6519,
      "becomes": 6520,
      "entered": 6521,
      "fields": 6522,
      "temporary": 6523,
      "category": 6524,
      "53": 6525,
      "via": 6526,
      "wound": 6527,
      "##isations": 6528,
      "unemp": 6529,
      "australia": 6530,
      "element": 6531,
      "##osph": 6532,
      "joy": 6533,
      "expression": 6534,
      "identity": 6535,
      "grace": 6536,
      "manager": 6537,
      "recovery": 6538,
      "mere": 6539,
      "##itable": 6540,
      "##utor": 6541,
      "walking": 6542,
      "innoc": 6543,
      "lies": 6544,
      "ministers": 6545,
      "courts": 6546,
      "mainly": 6547,
      "undertaken": 6548,
      "65": 6549,
      "nin": 6550,
      "##ea": 6551,
      "##ancing": 6552,
      "##ilization": 6553,
      "corruption": 6554,
      "entities": 6555,
      "##craft": 6556,
      "hat": 6557,
      "##ida": 6558,
      "motor": 6559,
      "replace": 6560,
      "ham": 6561,
      "rot": 6562,
      "habit": 6563,
      "hal": 6564,
      "##enna": 6565,
      "greatest": 6566,
      "precise": 6567,
      "bind": 6568,
      "##ensions": 6569,
      "swear": 6570,
      "descri": 6571,
      "virt": 6572,
      "kitch": 6573,
      "pig": 6574,
      "brothers": 6575,
      "construct": 6576,
      "boyfriend": 6577,
      "obtained": 6578,
      "chamber": 6579,
      "acknow": 6580,
      "##put": 6581,
      "recon": 6582,
      "improved": 6583,
      "rose": 6584,
      "lif": 6585,
      "##abled": 6586,
      "developments": 6587,
      "conclusions": 6588,
      "##bia": 6589,
      "processing": 6590,
      "risks": 6591,
      "returned": 6592,
      "colombia": 6593,
      "98": 6594,
      "##erous": 6595,
      "##uting": 6596,
      "##ami": 6597,
      "client": 6598,
      "volume": 6599,
      "92": 6600,
      "##rig": 6601,
      "##erves": 6602,
      "geneva": 6603,
      "advoc": 6604,
      "summary": 6605,
      "structural": 6606,
      "obligation": 6607,
      "invent": 6608,
      "liqu": 6609,
      "spa": 6610,
      "spring": 6611,
      "imports": 6612,
      "length": 6613,
      "##ault": 6614,
      "limits": 6615,
      "substances": 6616,
      "senior": 6617,
      "],": 6618,
      "##pap": 6619,
      "sevent": 6620,
      "...?": 6621,
      "sole": 6622,
      "##ifications": 6623,
      "feels": 6624,
      "difficulties": 6625,
      "si": 6626,
      "vice": 6627,
      "##uten": 6628,
      "legit": 6629,
      "student": 6630,
      "containing": 6631,
      "kh": 6632,
      "rent": 6633,
      "##lder": 6634,
      "##imb": 6635,
      "##osen": 6636,
      "complic": 6637,
      "becoming": 6638,
      "governance": 6639,
      "customer": 6640,
      "photograph": 6641,
      "previously": 6642,
      "detective": 6643,
      "85": 6644,
      "ongoing": 6645,
      "dispos": 6646,
      "brus": 6647,
      "##aked": 6648,
      "determination": 6649,
      "managed": 6650,
      "elected": 6651,
      "##overn": 6652,
      "hyp": 6653,
      "04": 6654,
      "##icide": 6655,
      "producers": 6656,
      "elimination": 6657,
      "storage": 6658,
      "ug": 6659,
      "proport": 6660,
      "1991": 6661,
      "tests": 6662,
      "multilateral": 6663,
      "dll": 6664,
      "saint": 6665,
      "##house": 6666,
      "email": 6667,
      "recorded": 6668,
      "cow": 6669,
      "priorities": 6670,
      "sweden": 6671,
      "dedicated": 6672,
      "nut": 6673,
      "heat": 6674,
      "magic": 6675,
      "##eding": 6676,
      "positions": 6677,
      "afford": 6678,
      "##iar": 6679,
      "impress": 6680,
      "achie": 6681,
      "teaching": 6682,
      "cars": 6683,
      "##rete": 6684,
      "##ception": 6685,
      "career": 6686,
      "withdraw": 6687,
      "kitchen": 6688,
      "##rog": 6689,
      "style": 6690,
      "neck": 6691,
      "settle": 6692,
      "constitutional": 6693,
      "arrived": 6694,
      "dat": 6695,
      "james": 6696,
      "##crib": 6697,
      "##pro": 6698,
      "shock": 6699,
      "##ulous": 6700,
      "pool": 6701,
      "seemed": 6702,
      "efficient": 6703,
      "eating": 6704,
      "kos": 6705,
      "##lar": 6706,
      "alle": 6707,
      "veget": 6708,
      "efficiency": 6709,
      "protected": 6710,
      "responsibilities": 6711,
      "largest": 6712,
      "na": 6713,
      "##ores": 6714,
      "trick": 6715,
      "flat": 6716,
      "flow": 6717,
      "sixth": 6718,
      "grab": 6719,
      "independence": 6720,
      "voluntary": 6721,
      "arbit": 6722,
      "scen": 6723,
      "extension": 6724,
      "distance": 6725,
      "networks": 6726,
      "variety": 6727,
      "tight": 6728,
      "##ipe": 6729,
      "relief": 6730,
      "instance": 6731,
      "charges": 6732,
      "factor": 6733,
      "turns": 6734,
      "carrying": 6735,
      "pregnant": 6736,
      "pacific": 6737,
      "ly": 6738,
      "male": 6739,
      "housing": 6740,
      "camera": 6741,
      "platform": 6742,
      "##govern": 6743,
      "##wide": 6744,
      "drunk": 6745,
      "contracts": 6746,
      "transparency": 6747,
      "##ds": 6748,
      "unh": 6749,
      "##well": 6750,
      "consultation": 6751,
      "intellect": 6752,
      "arrested": 6753,
      "route": 6754,
      "entr": 6755,
      "effectiveness": 6756,
      "symptoms": 6757,
      "eh": 6758,
      "##jud": 6759,
      "stab": 6760,
      "bran": 6761,
      "absence": 6762,
      "argentina": 6763,
      "pakistan": 6764,
      "usa": 6765,
      "understood": 6766,
      "##phone": 6767,
      "discussions": 6768,
      "registration": 6769,
      "ell": 6770,
      "ku": 6771,
      "##eds": 6772,
      "##itzer": 6773,
      "drinking": 6774,
      "##mon": 6775,
      "##ios": 6776,
      "##inated": 6777,
      "##umn": 6778,
      "aband": 6779,
      "tea": 6780,
      "twice": 6781,
      "compensation": 6782,
      "unfortunately": 6783,
      "bos": 6784,
      "bother": 6785,
      "kil": 6786,
      "mum": 6787,
      "##acc": 6788,
      "##pet": 6789,
      "##rel": 6790,
      "shel": 6791,
      "....": 6792,
      "sports": 6793,
      "display": 6794,
      "brussels": 6795,
      "99": 6796,
      "gri": 6797,
      "##ml": 6798,
      "##orter": 6799,
      "congo": 6800,
      "2016": 6801,
      "possibly": 6802,
      "dyn": 6803,
      "flex": 6804,
      "pic": 6805,
      "##wood": 6806,
      "##usted": 6807,
      "comply": 6808,
      "detention": 6809,
      "duties": 6810,
      "immediate": 6811,
      "tel": 6812,
      "##fare": 6813,
      "alb": 6814,
      "adapt": 6815,
      "defense": 6816,
      "iron": 6817,
      "closely": 6818,
      "linked": 6819,
      "announced": 6820,
      "occasion": 6821,
      "indicators": 6822,
      "collective": 6823,
      "estimated": 6824,
      "temperature": 6825,
      "amounts": 6826,
      "compos": 6827,
      "regul": 6828,
      "believed": 6829,
      "flag": 6830,
      "definition": 6831,
      "##bourg": 6832,
      "jail": 6833,
      "vital": 6834,
      "##arr": 6835,
      "##grad": 6836,
      "leaves": 6837,
      "tourism": 6838,
      "links": 6839,
      "soldiers": 6840,
      "bathroom": 6841,
      "les": 6842,
      "##ago": 6843,
      "programs": 6844,
      "lieuten": 6845,
      "critic": 6846,
      "attempt": 6847,
      "collaboration": 6848,
      "math": 6849,
      "##stairs": 6850,
      "explan": 6851,
      "angry": 6852,
      "scheme": 6853,
      "portugal": 6854,
      "##att": 6855,
      "dism": 6856,
      "owners": 6857,
      "cheap": 6858,
      "changing": 6859,
      "occupied": 6860,
      "registered": 6861,
      "sake": 6862,
      "marine": 6863,
      "consumer": 6864,
      "package": 6865,
      "confirmed": 6866,
      "province": 6867,
      "##comm": 6868,
      "##itect": 6869,
      "accession": 6870,
      "letters": 6871,
      "idiot": 6872,
      "civilian": 6873,
      "ocean": 6874,
      "washington": 6875,
      "97": 6876,
      "pure": 6877,
      "herself": 6878,
      "neighbour": 6879,
      "enemy": 6880,
      "fant": 6881,
      "ven": 6882,
      "##cast": 6883,
      "##**": 6884,
      "##ini": 6885,
      "chosen": 6886,
      "deput": 6887,
      "signs": 6888,
      "focused": 6889,
      "greece": 6890,
      "##jo": 6891,
      "##osh": 6892,
      "disse": 6893,
      "pleased": 6894,
      "advanced": 6895,
      "##itter": 6896,
      "plus": 6897,
      "spons": 6898,
      "surface": 6899,
      "drawn": 6900,
      "resulting": 6901,
      "healthy": 6902,
      "sunday": 6903,
      "architect": 6904,
      "consistent": 6905,
      "jurisd": 6906,
      "##yr": 6907,
      "##lav": 6908,
      "##zen": 6909,
      "background": 6910,
      "southern": 6911,
      "budgetary": 6912,
      "improvement": 6913,
      "##ming": 6914,
      "excess": 6915,
      "perspective": 6916,
      "player": 6917,
      "suggested": 6918,
      "',": 6919,
      "##car": 6920,
      "ancient": 6921,
      "newspap": 6922,
      "##holders": 6923,
      "launched": 6924,
      "intelligence": 6925,
      "##illa": 6926,
      "reprodu": 6927,
      "poland": 6928,
      "corner": 6929,
      "bottom": 6930,
      "vulnerable": 6931,
      "##oring": 6932,
      "implic": 6933,
      "condem": 6934,
      "punishment": 6935,
      "henry": 6936,
      "##road": 6937,
      "intergovern": 6938,
      "##ommod": 6939,
      "household": 6940,
      "switzer": 6941,
      "clock": 6942,
      "papers": 6943,
      "switzerland": 6944,
      "fab": 6945,
      "monetary": 6946,
      "capable": 6947,
      "heading": 6948,
      "listening": 6949,
      "accordingly": 6950,
      "guidance": 6951,
      "solidarity": 6952,
      "hydro": 6953,
      "surgery": 6954,
      "lieutenant": 6955,
      "sending": 6956,
      "##ico": 6957,
      "##illy": 6958,
      "feelings": 6959,
      "colour": 6960,
      "francis": 6961,
      "02": 6962,
      "fol": 6963,
      "##oted": 6964,
      "agents": 6965,
      "intention": 6966,
      "accommod": 6967,
      "county": 6968,
      "promised": 6969,
      "empty": 6970,
      "profession": 6971,
      "quarter": 6972,
      "93": 6973,
      "##theless": 6974,
      "crow": 6975,
      "transition": 6976,
      "breakfast": 6977,
      "structures": 6978,
      "selected": 6979,
      "settlement": 6980,
      "intergovernmental": 6981,
      "au": 6982,
      "##cal": 6983,
      "##ko": 6984,
      "sover": 6985,
      "accoun": 6986,
      "##like": 6987,
      "nevertheless": 6988,
      "ram": 6989,
      "rand": 6990,
      "##).": 6991,
      "alco": 6992,
      "strict": 6993,
      "##enez": 6994,
      "figures": 6995,
      "achieving": 6996,
      "gay": 6997,
      "gaz": 6998,
      "suc": 6999,
      "##istical": 7000,
      "contrary": 7001,
      "barb": 7002,
      "payments": 7003,
      "sovereign": 7004,
      "som": 7005,
      "sessions": 7006,
      "liked": 7007,
      "alia": 7008,
      "loves": 7009,
      "differences": 7010,
      "friendly": 7011,
      "tasks": 7012,
      "stories": 7013,
      "blame": 7014,
      "showing": 7015,
      "##ovo": 7016,
      "involving": 7017,
      "ry": 7018,
      "organisations": 7019,
      "smoke": 7020,
      "experiences": 7021,
      "##zech": 7022,
      "japanese": 7023,
      "prolif": 7024,
      "symbol": 7025,
      "##ja": 7026,
      "##itution": 7027,
      "##arag": 7028,
      "orient": 7029,
      "steel": 7030,
      "grounds": 7031,
      "sudan": 7032,
      "urgent": 7033,
      "kr": 7034,
      "##pan": 7035,
      "sport": 7036,
      "spok": 7037,
      "royal": 7038,
      "generation": 7039,
      "extended": 7040,
      "racial": 7041,
      "models": 7042,
      "costa": 7043,
      "delegations": 7044,
      "prayer": 7045,
      "ambass": 7046,
      "garden": 7047,
      "homes": 7048,
      "intervention": 7049,
      "remove": 7050,
      "teachers": 7051,
      "connected": 7052,
      "cells": 7053,
      "fest": 7054,
      "##ado": 7055,
      "willi": 7056,
      "escape": 7057,
      "easier": 7058,
      "conform": 7059,
      "guests": 7060,
      "poly": 7061,
      "consensus": 7062,
      "slight": 7063,
      "88": 7064,
      "yo": 7065,
      "##lim": 7066,
      "##omas": 7067,
      "sher": 7068,
      "served": 7069,
      "concrete": 7070,
      "phen": 7071,
      "millions": 7072,
      "liberal": 7073,
      "appointment": 7074,
      "czech": 7075,
      "##iro": 7076,
      "introduce": 7077,
      "struggle": 7078,
      "##iable": 7079,
      "unice": 7080,
      "manif": 7081,
      "images": 7082,
      "device": 7083,
      "##burg": 7084,
      "uniform": 7085,
      "description": 7086,
      "dissemin": 7087,
      "jane": 7088,
      "##aced": 7089,
      "##my": 7090,
      "knowing": 7091,
      "imper": 7092,
      "datab": 7093,
      "87": 7094,
      "bay": 7095,
      "##night": 7096,
      "likes": 7097,
      "everywhere": 7098,
      "crew": 7099,
      "considering": 7100,
      "engaged": 7101,
      "pieces": 7102,
      "jim": 7103,
      "alt": 7104,
      "delivered": 7105,
      "mobile": 7106,
      "unicef": 7107,
      "waters": 7108,
      "##ales": 7109,
      "bridge": 7110,
      "numerous": 7111,
      "bloody": 7112,
      "apolog": 7113,
      "offering": 7114,
      "suffer": 7115,
      "restaurant": 7116,
      "mond": 7117,
      "diam": 7118,
      "features": 7119,
      "treaties": 7120,
      "automatic": 7121,
      "diseases": 7122,
      "survey": 7123,
      "nicarag": 7124,
      "innocent": 7125,
      "intellectual": 7126,
      "03": 7127,
      "aims": 7128,
      "##ilty": 7129,
      "upset": 7130,
      "##oked": 7131,
      "error": 7132,
      "photos": 7133,
      "##vest": 7134,
      "##adic": 7135,
      "scar": 7136,
      "informal": 7137,
      "performed": 7138,
      "islamic": 7139,
      "exploitation": 7140,
      "politics": 7141,
      "##ourage": 7142,
      "demands": 7143,
      "apparently": 7144,
      "ukraine": 7145,
      "vin": 7146,
      "seeking": 7147,
      "represented": 7148,
      "universe": 7149,
      "sentence": 7150,
      "documentation": 7151,
      "##sp": 7152,
      "##ila": 7153,
      "peru": 7154,
      "mama": 7155,
      "austria": 7156,
      "houses": 7157,
      "historical": 7158,
      "comfortable": 7159,
      "therapy": 7160,
      "proliferation": 7161,
      "mental": 7162,
      "contemp": 7163,
      "sites": 7164,
      "warning": 7165,
      "ideal": 7166,
      "georg": 7167,
      "nerv": 7168,
      "##iring": 7169,
      "remained": 7170,
      "farmers": 7171,
      ")(": 7172,
      "##ker": 7173,
      "theory": 7174,
      "exemp": 7175,
      "taught": 7176,
      "joined": 7177,
      "admit": 7178,
      "06": 7179,
      "jun": 7180,
      "##rif": 7181,
      "counsel": 7182,
      "explos": 7183,
      "madrid": 7184,
      "indicate": 7185,
      "convinced": 7186,
      "suddenly": 7187,
      "beauty": 7188,
      "falling": 7189,
      "destroyed": 7190,
      "fulfil": 7191,
      "fisheries": 7192,
      "binding": 7193,
      "atm": 7194,
      "guilty": 7195,
      "confident": 7196,
      "##board": 7197,
      "finger": 7198,
      "rod": 7199,
      "unv": 7200,
      "##esty": 7201,
      "guine": 7202,
      "receiving": 7203,
      "reducing": 7204,
      "streets": 7205,
      "percentage": 7206,
      "dick": 7207,
      "gang": 7208,
      "##uay": 7209,
      "facts": 7210,
      "virgin": 7211,
      "tu": 7212,
      "##enary": 7213,
      "sov": 7214,
      "advert": 7215,
      "brown": 7216,
      "lake": 7217,
      "substance": 7218,
      "shoes": 7219,
      "optim": 7220,
      "functioning": 7221,
      "sensitive": 7222,
      "innovation": 7223,
      "conferences": 7224,
      "alleged": 7225,
      "tub": 7226,
      "beer": 7227,
      "decade": 7228,
      "curren": 7229,
      "surprised": 7230,
      "enterprises": 7231,
      "77": 7232,
      "divid": 7233,
      "gro": 7234,
      "##ario": 7235,
      "##rey": 7236,
      "wealth": 7237,
      "##ira": 7238,
      "##iled": 7239,
      "coal": 7240,
      "presentation": 7241,
      "paying": 7242,
      "lots": 7243,
      "strike": 7244,
      "comprom": 7245,
      "taste": 7246,
      "bond": 7247,
      "imposed": 7248,
      "profit": 7249,
      "grave": 7250,
      "suffered": 7251,
      "opposition": 7252,
      "schedul": 7253,
      "68": 7254,
      "cards": 7255,
      "##mo": 7256,
      "##cket": 7257,
      "sacri": 7258,
      "margin": 7259,
      "serge": 7260,
      "switch": 7261,
      "filled": 7262,
      "dying": 7263,
      "ped": 7264,
      "vent": 7265,
      "##die": 7266,
      "##down": 7267,
      "##lla": 7268,
      "beings": 7269,
      "##uries": 7270,
      "unp": 7271,
      "welcomes": 7272,
      "recommends": 7273,
      "turk": 7274,
      "cute": 7275,
      "dish": 7276,
      "victor": 7277,
      "observed": 7278,
      "kosovo": 7279,
      "ought": 7280,
      "vic": 7281,
      "##urb": 7282,
      "##active": 7283,
      "involvement": 7284,
      "fi": 7285,
      "venez": 7286,
      "##onic": 7287,
      "##eties": 7288,
      "stars": 7289,
      "unable": 7290,
      "cha": 7291,
      "191": 7292,
      "revised": 7293,
      "staying": 7294,
      "divor": 7295,
      "##rier": 7296,
      "atl": 7297,
      "192": 7298,
      "bright": 7299,
      "owner": 7300,
      "extend": 7301,
      "recalling": 7302,
      "diversity": 7303,
      "removed": 7304,
      "nervous": 7305,
      "sacrif": 7306,
      "64": 7307,
      "humanity": 7308,
      "##place": 7309,
      "driver": 7310,
      "declared": 7311,
      "combination": 7312,
      "satur": 7313,
      "snow": 7314,
      "breath": 7315,
      "false": 7316,
      "dign": 7317,
      "fan": 7318,
      "jac": 7319,
      "thirty": 7320,
      "libr": 7321,
      "exha": 7322,
      "indian": 7323,
      "controlled": 7324,
      "turning": 7325,
      "belgium": 7326,
      "##how": 7327,
      "##fa": 7328,
      "selection": 7329,
      "##atell": 7330,
      "incred": 7331,
      "accused": 7332,
      "quit": 7333,
      "decent": 7334,
      "expos": 7335,
      "roman": 7336,
      "hungry": 7337,
      "boliv": 7338,
      "municipal": 7339,
      "dynam": 7340,
      "las": 7341,
      "piss": 7342,
      "wil": 7343,
      "##ye": 7344,
      "toward": 7345,
      "##ingu": 7346,
      "adam": 7347,
      "1989": 7348,
      "cops": 7349,
      "winter": 7350,
      "09": 7351,
      "##com": 7352,
      "##olf": 7353,
      "allah": 7354,
      "hole": 7355,
      "vienna": 7356,
      "respective": 7357,
      "tradition": 7358,
      "journey": 7359,
      "explained": 7360,
      "appointed": 7361,
      "magaz": 7362,
      "toler": 7363,
      "plenty": 7364,
      "scr": 7365,
      "membership": 7366,
      "judgment": 7367,
      "latter": 7368,
      "martin": 7369,
      "pill": 7370,
      "##inations": 7371,
      "fired": 7372,
      "eventually": 7373,
      "greek": 7374,
      "shape": 7375,
      "resistance": 7376,
      "aunt": 7377,
      "sides": 7378,
      "##dr": 7379,
      "indones": 7380,
      "##enses": 7381,
      "emissions": 7382,
      "drag": 7383,
      "judges": 7384,
      "trees": 7385,
      "component": 7386,
      "venezuel": 7387,
      "gh": 7388,
      "kg": 7389,
      "threats": 7390,
      "dropped": 7391,
      "categories": 7392,
      "66": 7393,
      "mile": 7394,
      "##iary": 7395,
      "facing": 7396,
      "tells": 7397,
      "signal": 7398,
      "properly": 7399,
      "digital": 7400,
      "discovered": 7401,
      "album": 7402,
      "ment": 7403,
      "vit": 7404,
      "##isc": 7405,
      "stuck": 7406,
      "defe": 7407,
      "wash": 7408,
      "sleeping": 7409,
      "cycle": 7410,
      "characteristics": 7411,
      "football": 7412,
      "increasingly": 7413,
      "bastard": 7414,
      "##time": 7415,
      "##otic": 7416,
      "##unity": 7417,
      "clients": 7418,
      "worldwide": 7419,
      "elig": 7420,
      "##gging": 7421,
      "##host": 7422,
      "safegu": 7423,
      "commander": 7424,
      "deputy": 7425,
      "gross": 7426,
      "##ald": 7427,
      "##rep": 7428,
      "##ston": 7429,
      "##iforn": 7430,
      "spect": 7431,
      "namely": 7432,
      "leads": 7433,
      "controls": 7434,
      "examples": 7435,
      "recruit": 7436,
      "pin": 7437,
      "reiter": 7438,
      "conver": 7439,
      "##ateful": 7440,
      "belief": 7441,
      "metal": 7442,
      "aircraft": 7443,
      "crap": 7444,
      "submission": 7445,
      "facility": 7446,
      "harry": 7447,
      "multi": 7448,
      "multiple": 7449,
      "ngos": 7450,
      "manifest": 7451,
      "rog": 7452,
      "yug": 7453,
      "guest": 7454,
      "barcel": 7455,
      "testing": 7456,
      "weekend": 7457,
      "suitable": 7458,
      "conversation": 7459,
      "##build": 7460,
      "luxem": 7461,
      "##osphere": 7462,
      "jurisdiction": 7463,
      "##erved": 7464,
      "onto": 7465,
      "prop": 7466,
      "decides": 7467,
      "directed": 7468,
      "detain": 7469,
      "starts": 7470,
      "raising": 7471,
      "welfare": 7472,
      "figured": 7473,
      "supreme": 7474,
      "94": 7475,
      "haz": 7476,
      "##oslav": 7477,
      "scream": 7478,
      "californ": 7479,
      "remaining": 7480,
      "manufactur": 7481,
      "cooperate": 7482,
      "##immy": 7483,
      "guinea": 7484,
      "##ander": 7485,
      "formed": 7486,
      "equival": 7487,
      "welcomed": 7488,
      "denmark": 7489,
      "dogs": 7490,
      "dreams": 7491,
      "reflected": 7492,
      "displaced": 7493,
      "wheel": 7494,
      "succeed": 7495,
      "owe": 7496,
      "##iour": 7497,
      "##!!": 7498,
      "##anged": 7499,
      "helps": 7500,
      "protecting": 7501,
      "carefully": 7502,
      "biggest": 7503,
      "violation": 7504,
      "danny": 7505,
      "favorite": 7506,
      "screen": 7507,
      "400": 7508,
      "].": 7509,
      "thor": 7510,
      "##ulating": 7511,
      "buildings": 7512,
      "experienced": 7513,
      "normally": 7514,
      "reaffirm": 7515,
      "obstac": 7516,
      "##==": 7517,
      "kinds": 7518,
      "hardly": 7519,
      "dirty": 7520,
      "##rane": 7521,
      "resid": 7522,
      "conflicts": 7523,
      "crucial": 7524,
      "substantial": 7525,
      "congratulations": 7526,
      "##oration": 7527,
      "##icing": 7528,
      "sem": 7529,
      "theme": 7530,
      "ends": 7531,
      "keys": 7532,
      "unto": 7533,
      "consumers": 7534,
      "subsequent": 7535,
      "satell": 7536,
      "##greg": 7537,
      "##stream": 7538,
      "usual": 7539,
      "perpet": 7540,
      "param": 7541,
      "attor": 7542,
      "sanctions": 7543,
      "optional": 7544,
      "diss": 7545,
      "niger": 7546,
      "sought": 7547,
      "##field": 7548,
      "##orters": 7549,
      "##ani": 7550,
      "##entially": 7551,
      "alliance": 7552,
      "##ints": 7553,
      "realized": 7554,
      "keeps": 7555,
      "bigger": 7556,
      "eradic": 7557,
      "constitute": 7558,
      "biennium": 7559,
      "picked": 7560,
      "bullet": 7561,
      "instructions": 7562,
      "lebanon": 7563,
      "rehab": 7564,
      "##atem": 7565,
      "whenever": 7566,
      "brings": 7567,
      "courses": 7568,
      "depends": 7569,
      "electoral": 7570,
      "encoun": 7571,
      "guarantees": 7572,
      "78": 7573,
      "nam": 7574,
      "outer": 7575,
      "saving": 7576,
      "actors": 7577,
      "humans": 7578,
      "invite": 7579,
      "talks": 7580,
      "deserve": 7581,
      "ordered": 7582,
      "represents": 7583,
      "pilot": 7584,
      "interpretation": 7585,
      "ambassador": 7586,
      "fro": 7587,
      "gab": 7588,
      "mate": 7589,
      "##oe": 7590,
      "doc": 7591,
      "coach": 7592,
      "##gged": 7593,
      "exception": 7594,
      "substantive": 7595,
      "##bar_": 7596,
      "unemployment": 7597,
      "%.": 7598,
      "bunch": 7599,
      "##can": 7600,
      "##nia": 7601,
      "##mer": 7602,
      "carbon": 7603,
      "remote": 7604,
      "specialized": 7605,
      "##heart": 7606,
      "statistical": 7607,
      "ships": 7608,
      "california": 7609,
      "jord": 7610,
      "maria": 7611,
      "prince": 7612,
      "identification": 7613,
      "migration": 7614,
      "losing": 7615,
      "barcelona": 7616,
      "dare": 7617,
      "ghost": 7618,
      "hill": 7619,
      "ip": 7620,
      "jimmy": 7621,
      "ts": 7622,
      "memor": 7623,
      "finds": 7624,
      "combined": 7625,
      "angel": 7626,
      "mutual": 7627,
      "colonel": 7628,
      "candidates": 7629,
      "components": 7630,
      "liquid": 7631,
      "yugoslav": 7632,
      "08": 7633,
      "cd": 7634,
      "##lad": 7635,
      "proph": 7636,
      "##berg": 7637,
      "guatem": 7638,
      "##ensity": 7639,
      "##ierra": 7640,
      "wishes": 7641,
      "prisoners": 7642,
      "examination": 7643,
      "believes": 7644,
      "monday": 7645,
      "##uable": 7646,
      "##esome": 7647,
      "prost": 7648,
      "unlike": 7649,
      "##rie": 7650,
      "##ciliation": 7651,
      "protest": 7652,
      "estate": 7653,
      "surely": 7654,
      "moro": 7655,
      "movements": 7656,
      "##bre": 7657,
      "england": 7658,
      "hundreds": 7659,
      "santa": 7660,
      "clinical": 7661,
      "nur": 7662,
      "##ford": 7663,
      "selling": 7664,
      "...\"": 7665,
      "grown": 7666,
      "operate": 7667,
      "assistant": 7668,
      "citizen": 7669,
      "richard": 7670,
      "occurred": 7671,
      "bare": 7672,
      "courage": 7673,
      "reconst": 7674,
      "assume": 7675,
      "joke": 7676,
      "desk": 7677,
      "pointed": 7678,
      "thoughts": 7679,
      "reforms": 7680,
      "##ylum": 7681,
      "laughing": 7682,
      "seventh": 7683,
      "fash": 7684,
      "lit": 7685,
      "pension": 7686,
      "delic": 7687,
      "reserve": 7688,
      "consent": 7689,
      "150": 7690,
      "##hole": 7691,
      "volunteers": 7692,
      "jam": 7693,
      "##ns": 7694,
      "##hes": 7695,
      "robert": 7696,
      "participating": 7697,
      "lessons": 7698,
      "references": 7699,
      "license": 7700,
      "cig": 7701,
      "##coming": 7702,
      "##limin": 7703,
      "##igation": 7704,
      "reserv": 7705,
      "diagn": 7706,
      "faced": 7707,
      "remed": 7708,
      "##acing": 7709,
      "economies": 7710,
      "personally": 7711,
      "visited": 7712,
      "breast": 7713,
      "runs": 7714,
      "violent": 7715,
      "medicinal": 7716,
      "electricity": 7717,
      "##ien": 7718,
      "##rol": 7719,
      "yellow": 7720,
      "conservation": 7721,
      "authorisation": 7722,
      "businesses": 7723,
      "hearts": 7724,
      "principal": 7725,
      "reasonable": 7726,
      "devil": 7727,
      "outstanding": 7728,
      "plenary": 7729,
      "contents": 7730,
      "mayor": 7731,
      "flowers": 7732,
      "motion": 7733,
      "phenom": 7734,
      "luxembourg": 7735,
      "amp": 7736,
      "##cul": 7737,
      "##stein": 7738,
      "enlar": 7739,
      "considerable": 7740,
      "addressing": 7741,
      "approaches": 7742,
      "entirely": 7743,
      "catal": 7744,
      "applying": 7745,
      "72": 7746,
      "##era": 7747,
      "##race": 7748,
      "fred": 7749,
      "##ounds": 7750,
      "hadn": 7751,
      "accur": 7752,
      "poison": 7753,
      "channel": 7754,
      "rig": 7755,
      "isol": 7756,
      "asylum": 7757,
      "prize": 7758,
      "passeng": 7759,
      "##10": 7760,
      "stable": 7761,
      "grateful": 7762,
      "desert": 7763,
      "secondary": 7764,
      "blog": 7765,
      "representation": 7766,
      "messages": 7767,
      "daniel": 7768,
      "targets": 7769,
      "announce": 7770,
      "observations": 7771,
      "conventions": 7772,
      "##ranean": 7773,
      "89": 7774,
      "height": 7775,
      "subpar": 7776,
      "politic": 7777,
      "bedroom": 7778,
      "perfectly": 7779,
      "votes": 7780,
      "permission": 7781,
      "appreciation": 7782,
      "##hr": 7783,
      "##ias": 7784,
      "##itis": 7785,
      "##ighth": 7786,
      "charged": 7787,
      "fashion": 7788,
      "furn": 7789,
      "sab": 7790,
      "reaction": 7791,
      "achievement": 7792,
      "repeated": 7793,
      "corporate": 7794,
      "aggr": 7795,
      "cream": 7796,
      "larger": 7797,
      "covering": 7798,
      "encouraged": 7799,
      "proportion": 7800,
      "aqu": 7801,
      "gate": 7802,
      "sierra": 7803,
      "stim": 7804,
      "##icted": 7805,
      "bread": 7806,
      "urges": 7807,
      "illicit": 7808,
      "deliber": 7809,
      "holiday": 7810,
      "britain": 7811,
      "flying": 7812,
      "accomplish": 7813,
      "##off": 7814,
      "##sa": 7815,
      "##uine": 7816,
      "myst": 7817,
      "button": 7818,
      "whoever": 7819,
      "sets": 7820,
      "mediter": 7821,
      "extensive": 7822,
      "awesome": 7823,
      "hoping": 7824,
      "kat": 7825,
      "thurs": 7826,
      "inher": 7827,
      "inhab": 7828,
      "##iry": 7829,
      "##tery": 7830,
      "spending": 7831,
      "prejud": 7832,
      "prelimin": 7833,
      "insist": 7834,
      "##eneg": 7835,
      "periodic": 7836,
      "appeared": 7837,
      "silver": 7838,
      "adults": 7839,
      "workshop": 7840,
      "_bar_": 7841,
      "rum": 7842,
      "wire": 7843,
      "##nd": 7844,
      "retain": 7845,
      "goddam": 7846,
      "smile": 7847,
      "depending": 7848,
      "competitive": 7849,
      "biological": 7850,
      "treas": 7851,
      "##ography": 7852,
      "soviet": 7853,
      "bish": 7854,
      "tong": 7855,
      "##rations": 7856,
      "##nie": 7857,
      "inqu": 7858,
      "storm": 7859,
      "maur": 7860,
      "gotten": 7861,
      "finland": 7862,
      "download": 7863,
      "players": 7864,
      "norway": 7865,
      "html": 7866,
      "destination": 7867,
      "permit": 7868,
      "attached": 7869,
      "##usalem": 7870,
      "aside": 7871,
      "##rain": 7872,
      "residence": 7873,
      "paral": 7874,
      "pulled": 7875,
      "ridic": 7876,
      "disappoint": 7877,
      "jerusalem": 7878,
      "croat": 7879,
      "troops": 7880,
      "inspector": 7881,
      "subparagraph": 7882,
      "pages": 7883,
      "row": 7884,
      "##lined": 7885,
      "##aria": 7886,
      "##vey": 7887,
      "##stan": 7888,
      "scri": 7889,
      "committees": 7890,
      "availability": 7891,
      "shooting": 7892,
      "prosecutor": 7893,
      "currency": 7894,
      "##oto": 7895,
      "league": 7896,
      "##agon": 7897,
      "##agues": 7898,
      "genuine": 7899,
      "associations": 7900,
      "guns": 7901,
      "voting": 7902,
      "flights": 7903,
      "behavior": 7904,
      "catholic": 7905,
      "accounting": 7906,
      "thursday": 7907,
      "dates": 7908,
      "##ican": 7909,
      "shame": 7910,
      "doors": 7911,
      "locked": 7912,
      "yep": 7913,
      "borrow": 7914,
      "lights": 7915,
      "preparatory": 7916,
      "encourages": 7917,
      "laying": 7918,
      "maintained": 7919,
      "subsequently": 7920,
      "jordan": 7921,
      "##iques": 7922,
      "##illing": 7923,
      "unct": 7924,
      "tail": 7925,
      "complement": 7926,
      "supports": 7927,
      "tony": 7928,
      "answers": 7929,
      "divine": 7930,
      "threatened": 7931,
      "sod": 7932,
      "suicide": 7933,
      "noise": 7934,
      "##aine": 7935,
      "##retch": 7936,
      "possess": 7937,
      "moral": 7938,
      "competit": 7939,
      "voted": 7940,
      "salvador": 7941,
      "nicaragua": 7942,
      "saturday": 7943,
      "mediterranean": 7944,
      "07": 7945,
      "ted": 7946,
      "tender": 7947,
      "##inder": 7948,
      "##ito": 7949,
      "doctors": 7950,
      "##udi": 7951,
      "mostly": 7952,
      "legs": 7953,
      "stands": 7954,
      "requirement": 7955,
      "ordinary": 7956,
      "attorney": 7957,
      "##ider": 7958,
      "suck": 7959,
      "cloud": 7960,
      "coverage": 7961,
      "autonom": 7962,
      "familiar": 7963,
      "primarily": 7964,
      "candidate": 7965,
      "merely": 7966,
      "implications": 7967,
      "preliminary": 7968,
      "73": 7969,
      "##0s": 7970,
      "adverse": 7971,
      "marked": 7972,
      "statute": 7973,
      "crack": 7974,
      "checked": 7975,
      "victory": 7976,
      "##ourable": 7977,
      "crying": 7978,
      "schedule": 7979,
      "duration": 7980,
      "certificate": 7981,
      "bilateral": 7982,
      "faster": 7983,
      "##ih": 7984,
      "##encing": 7985,
      "exists": 7986,
      "trave": 7987,
      "refund": 7988,
      "wondering": 7989,
      "walked": 7990,
      "telephone": 7991,
      "jean": 7992,
      "qualified": 7993,
      "procure": 7994,
      "chicken": 7995,
      "gy": 7996,
      "hire": 7997,
      "##ville": 7998,
      "noting": 7999,
      "unity": 8000,
      "grade": 8001,
      "disabilities": 8002,
      "supplies": 8003,
      "governor": 8004,
      "attitude": 8005,
      "technological": 8006,
      "acquis": 8007,
      "alcohol": 8008,
      "sergeant": 8009,
      "dignity": 8010,
      "##cue": 8011,
      "##urally": 8012,
      "amending": 8013,
      "annivers": 8014,
      "entertain": 8015,
      "jeff": 8016,
      "philos": 8017,
      "##uro": 8018,
      "##jan": 8019,
      "##oma": 8020,
      "noticed": 8021,
      "chat": 8022,
      "loan": 8023,
      "producer": 8024,
      "plays": 8025,
      "respectively": 8026,
      "column": 8027,
      "reaching": 8028,
      "taxes": 8029,
      "visitors": 8030,
      "partnerships": 8031,
      "sharp": 8032,
      "bottle": 8033,
      "script": 8034,
      "eric": 8035,
      "lin": 8036,
      "rough": 8037,
      "##ez": 8038,
      "react": 8039,
      "paras": 8040,
      "attrib": 8041,
      "charles": 8042,
      "armen": 8043,
      "employed": 8044,
      "occupation": 8045,
      "unctad": 8046,
      "'?": 8047,
      "rab": 8048,
      "zeal": 8049,
      "forty": 8050,
      "##igger": 8051,
      "shad": 8052,
      "cock": 8053,
      "transactions": 8054,
      "acid": 8055,
      "por": 8056,
      "applies": 8057,
      "arts": 8058,
      "timor": 8059,
      "behaviour": 8060,
      "69": 8061,
      "67": 8062,
      "##ido": 8063,
      "stations": 8064,
      "reservation": 8065,
      "considers": 8066,
      "depth": 8067,
      "warrant": 8068,
      "trained": 8069,
      "##erto": 8070,
      "teams": 8071,
      "philipp": 8072,
      "stressed": 8073,
      "updated": 8074,
      "##----": 8075,
      "indonesia": 8076,
      "rehabil": 8077,
      "ky": 8078,
      "pope": 8079,
      "##rich": 8080,
      "##pes": 8081,
      "thy": 8082,
      "##rem": 8083,
      "##cha": 8084,
      "dischar": 8085,
      "findings": 8086,
      "systematic": 8087,
      "preparing": 8088,
      "cypr": 8089,
      "broadcast": 8090,
      "survive": 8091,
      "stakeholders": 8092,
      "database": 8093,
      "equivalent": 8094,
      "goddamn": 8095,
      "86": 8096,
      "cod": 8097,
      "cord": 8098,
      "dict": 8099,
      "rang": 8100,
      "##roll": 8101,
      "chest": 8102,
      "leon": 8103,
      "examine": 8104,
      "fraud": 8105,
      "repeat": 8106,
      "mirac": 8107,
      "somal": 8108,
      "ax": 8109,
      "pc": 8110,
      "##lying": 8111,
      "##amin": 8112,
      "expans": 8113,
      "headed": 8114,
      "topic": 8115,
      "temple": 8116,
      "complicated": 8117,
      "cyprus": 8118,
      "##nam": 8119,
      "##iest": 8120,
      "##via": 8121,
      "##illance": 8122,
      "##pection": 8123,
      "priest": 8124,
      "glory": 8125,
      "objects": 8126,
      "paint": 8127,
      "freedoms": 8128,
      "restrictions": 8129,
      "sarah": 8130,
      "venezuela": 8131,
      "cigar": 8132,
      "##cas": 8133,
      "stream": 8134,
      "attain": 8135,
      "loans": 8136,
      "##lesh": 8137,
      "administer": 8138,
      "privile": 8139,
      "surveillance": 8140,
      "enterprise": 8141,
      "wet": 8142,
      "##vi": 8143,
      "thou": 8144,
      "thomas": 8145,
      "shirt": 8146,
      "gos": 8147,
      "sees": 8148,
      "##endum": 8149,
      "repair": 8150,
      "smaller": 8151,
      "edge": 8152,
      "combating": 8153,
      "significantly": 8154,
      "transferred": 8155,
      "inclusion": 8156,
      "dna": 8157,
      "veter": 8158,
      "##gue": 8159,
      "stan": 8160,
      "conce": 8161,
      "nose": 8162,
      "hoc": 8163,
      "##mmy": 8164,
      "valuable": 8165,
      "breaking": 8166,
      "sweetheart": 8167,
      "anniversary": 8168,
      "bah": 8169,
      "flesh": 8170,
      "tari": 8171,
      "##da": 8172,
      "190": 8173,
      "marsh": 8174,
      "##achel": 8175,
      "solve": 8176,
      "steal": 8177,
      "##????????": 8178,
      "84": 8179,
      "sna": 8180,
      "##15": 8181,
      "##inent": 8182,
      "##itage": 8183,
      "oral": 8184,
      "##una": 8185,
      "soil": 8186,
      "##aped": 8187,
      "twel": 8188,
      "syrian": 8189,
      "##ressed": 8190,
      "inspection": 8191,
      "authorized": 8192,
      "viet": 8193,
      "facebook": 8194,
      "injury": 8195,
      "explanation": 8196,
      "spoken": 8197,
      "momm": 8198,
      "serving": 8199,
      "artist": 8200,
      "entity": 8201,
      "equipped": 8202,
      "cutting": 8203,
      "romania": 8204,
      "extraord": 8205,
      "##nesday": 8206,
      "eliminate": 8207,
      "injection": 8208,
      "newspaper": 8209,
      "mit": 8210,
      "rice": 8211,
      "##lan": 8212,
      "##vak": 8213,
      "alarm": 8214,
      "teeth": 8215,
      "applicant": 8216,
      "silence": 8217,
      "hiding": 8218,
      "cf": 8219,
      "jen": 8220,
      "tues": 8221,
      "##rick": 8222,
      "##lines": 8223,
      "##uk": 8224,
      "raw": 8225,
      "rape": 8226,
      "founded": 8227,
      "trading": 8228,
      "vessels": 8229,
      "precisely": 8230,
      "fate": 8231,
      "lith": 8232,
      "##hy": 8233,
      "recip": 8234,
      "propose": 8235,
      "##oker": 8236,
      "earn": 8237,
      "integrity": 8238,
      "mexican": 8239,
      "wednesday": 8240,
      "forgotten": 8241,
      "scheduled": 8242,
      "tuesday": 8243,
      "bru": 8244,
      "pard": 8245,
      "##vo": 8246,
      "##alous": 8247,
      "##arus": 8248,
      "##cho": 8249,
      "manual": 8250,
      "##ager": 8251,
      "actively": 8252,
      "exports": 8253,
      "scott": 8254,
      "attended": 8255,
      "periods": 8256,
      "##certain": 8257,
      "refugee": 8258,
      "procurement": 8259,
      "bone": 8260,
      "zero": 8261,
      "donor": 8262,
      "##ela": 8263,
      "scan": 8264,
      "presidential": 8265,
      "operators": 8266,
      "simpl": 8267,
      "##ova": 8268,
      "participated": 8269,
      "freak": 8270,
      "parliamentary": 8271,
      "##while": 8272,
      "devices": 8273,
      "walls": 8274,
      "74": 8275,
      "borders": 8276,
      "profile": 8277,
      "passion": 8278,
      "sample": 8279,
      "satellite": 8280,
      "expansion": 8281,
      "dust": 8282,
      "tall": 8283,
      "##zo": 8284,
      "shift": 8285,
      "upstairs": 8286,
      "disg": 8287,
      "spare": 8288,
      "decades": 8289,
      "invitation": 8290,
      "completion": 8291,
      "passing": 8292,
      "steve": 8293,
      "1988": 8294,
      "massive": 8295,
      "audience": 8296,
      "resolve": 8297,
      "birds": 8298,
      "ecuador": 8299,
      "purchase": 8300,
      "##ports": 8301,
      "##ora": 8302,
      "##riers": 8303,
      "liability": 8304,
      "##ortion": 8305,
      "abroad": 8306,
      "covers": 8307,
      "plate": 8308,
      "##loyed": 8309,
      "merc": 8310,
      "guaranteed": 8311,
      "murdered": 8312,
      "engineering": 8313,
      "expertise": 8314,
      "innovative": 8315,
      "hidden": 8316,
      "assigned": 8317,
      "disposal": 8318,
      "recruitment": 8319,
      "airl": 8320,
      "cous": 8321,
      "stole": 8322,
      "##irect": 8323,
      "chris": 8324,
      "electr": 8325,
      "penalty": 8326,
      "neighborhood": 8327,
      "acknowled": 8328,
      "bosnia": 8329,
      "800": 8330,
      "##ront": 8331,
      "##dp": 8332,
      "##with": 8333,
      "tommy": 8334,
      "whis": 8335,
      "##unction": 8336,
      "lee": 8337,
      "##orses": 8338,
      "editor": 8339,
      "sixty": 8340,
      "flood": 8341,
      "hanging": 8342,
      "organs": 8343,
      "racism": 8344,
      "corresponding": 8345,
      "om": 8346,
      "##har": 8347,
      "##oty": 8348,
      "forests": 8349,
      "##aker": 8350,
      "civilians": 8351,
      "machines": 8352,
      "complaint": 8353,
      "castle": 8354,
      "legitimate": 8355,
      "crowd": 8356,
      "##building": 8357,
      "hond": 8358,
      "rio": 8359,
      "##cles": 8360,
      "##kn": 8361,
      "##kin": 8362,
      "bearing": 8363,
      "dee": 8364,
      "##igned": 8365,
      "expensive": 8366,
      "matt": 8367,
      "awful": 8368,
      "golden": 8369,
      "consciousness": 8370,
      "diamond": 8371,
      "ridiculous": 8372,
      "elder": 8373,
      "silly": 8374,
      "euros": 8375,
      "investments": 8376,
      "1987": 8377,
      "minorities": 8378,
      "guatemala": 8379,
      "tariff": 8380,
      "dies": 8381,
      "shr": 8382,
      "heritage": 8383,
      "somehow": 8384,
      "faces": 8385,
      "parking": 8386,
      "elev": 8387,
      "stronger": 8388,
      "encouraging": 8389,
      "deeply": 8390,
      "drawing": 8391,
      "slowly": 8392,
      "ninth": 8393,
      "lod": 8394,
      "##kind": 8395,
      "thereby": 8396,
      "foster": 8397,
      "texts": 8398,
      "enhancing": 8399,
      "emphasis": 8400,
      "frequently": 8401,
      "relatively": 8402,
      "split": 8403,
      "william": 8404,
      "apologize": 8405,
      "library": 8406,
      "cp": 8407,
      "fasc": 8408,
      "ml": 8409,
      "pad": 8410,
      "asian": 8411,
      "liver": 8412,
      "enorm": 8413,
      "brill": 8414,
      "parent": 8415,
      "sins": 8416,
      "insul": 8417,
      "custody": 8418,
      "strongly": 8419,
      "balls": 8420,
      "arrival": 8421,
      "alien": 8422,
      "territorial": 8423,
      "ticket": 8424,
      "immigration": 8425,
      "vig": 8426,
      "##een": 8427,
      "##bles": 8428,
      "##ighs": 8429,
      "parad": 8430,
      "roof": 8431,
      "operator": 8432,
      "increases": 8433,
      "complaints": 8434,
      "update": 8435,
      "mixed": 8436,
      "branch": 8437,
      "76": 8438,
      "eighth": 8439,
      "pier": 8440,
      "##11": 8441,
      "##ket": 8442,
      "##teen": 8443,
      "americans": 8444,
      "anton": 8445,
      "widely": 8446,
      "transmission": 8447,
      "shopping": 8448,
      "magazine": 8449,
      "79": 8450,
      "upper": 8451,
      "##itants": 8452,
      "##leep": 8453,
      "##osing": 8454,
      "donors": 8455,
      "contra": 8456,
      "worker": 8457,
      "##acion": 8458,
      "insp": 8459,
      "##ashed": 8460,
      "burden": 8461,
      "cabin": 8462,
      "pharmac": 8463,
      "divided": 8464,
      "mmm": 8465,
      "naz": 8466,
      "pair": 8467,
      "porn": 8468,
      "sed": 8469,
      "##sc": 8470,
      "##zing": 8471,
      "inh": 8472,
      "##arks": 8473,
      "##ented": 8474,
      "stood": 8475,
      "trends": 8476,
      "subreg": 8477,
      "smo": 8478,
      "classes": 8479,
      "liberty": 8480,
      "regularly": 8481,
      "incorporated": 8482,
      "accompanied": 8483,
      "atmosphere": 8484,
      "ath": 8485,
      "dating": 8486,
      "ict": 8487,
      "rw": 8488,
      "forec": 8489,
      "degrad": 8490,
      "unm": 8491,
      "chose": 8492,
      "index": 8493,
      "bush": 8494,
      "evolution": 8495,
      "princess": 8496,
      "allowing": 8497,
      "contracting": 8498,
      "dollar": 8499,
      "georgia": 8500,
      "600": 8501,
      "tie": 8502,
      "meal": 8503,
      "nep": 8504,
      "tex": 8505,
      "prev": 8506,
      "techniques": 8507,
      "wars": 8508,
      "checks": 8509,
      "bullsh": 8510,
      "##gov": 8511,
      "ingr": 8512,
      "reward": 8513,
      "asleep": 8514,
      "tape": 8515,
      "owned": 8516,
      "publications": 8517,
      "sword": 8518,
      "properties": 8519,
      "journalists": 8520,
      "hungary": 8521,
      "hence": 8522,
      "ot": 8523,
      "tons": 8524,
      "##med": 8525,
      "boo": 8526,
      "##cyt": 8527,
      "dancing": 8528,
      "##garia": 8529,
      "mobil": 8530,
      "losses": 8531,
      "survival": 8532,
      "exclusive": 8533,
      "diplomatic": 8534,
      "dismiss": 8535,
      "exposure": 8536,
      "eligible": 8537,
      "bio": 8538,
      "kim": 8539,
      "pow": 8540,
      "##ipping": 8541,
      "sections": 8542,
      "incomp": 8543,
      "grew": 8544,
      "gradu": 8545,
      "workshops": 8546,
      "conformity": 8547,
      "extraordinary": 8548,
      "nap": 8549,
      "##fl": 8550,
      "##person": 8551,
      "##atible": 8552,
      "##ationally": 8553,
      "seed": 8554,
      "##ighter": 8555,
      "alleg": 8556,
      "120": 8557,
      "contributing": 8558,
      "juan": 8559,
      "attacked": 8560,
      "horiz": 8561,
      "##ieth": 8562,
      "execution": 8563,
      "maintaining": 8564,
      "acquired": 8565,
      "argument": 8566,
      "rehabilitation": 8567,
      "gear": 8568,
      "##rd": 8569,
      "##antly": 8570,
      "lied": 8571,
      "advent": 8572,
      "basically": 8573,
      "##elle": 8574,
      "mainstream": 8575,
      "capacities": 8576,
      "colleagues": 8577,
      "satisfaction": 8578,
      "tower": 8579,
      "bern": 8580,
      "sons": 8581,
      "vacc": 8582,
      "thro": 8583,
      "##itals": 8584,
      "##imp": 8585,
      "##udes": 8586,
      "sac": 8587,
      "intent": 8588,
      "ours": 8589,
      "organizational": 8590,
      "define": 8591,
      "equally": 8592,
      "puerto": 8593,
      "mountains": 8594,
      "fleet": 8595,
      "sloven": 8596,
      "begun": 8597,
      "regulatory": 8598,
      "zealand": 8599,
      "bible": 8600,
      "dumb": 8601,
      "lor": 8602,
      "nuts": 8603,
      "wing": 8604,
      "##),": 8605,
      "toxic": 8606,
      "##ares": 8607,
      "butter": 8608,
      "##ifts": 8609,
      "letting": 8610,
      "##akh": 8611,
      "remark": 8612,
      "begins": 8613,
      "horrible": 8614,
      "relationships": 8615,
      "witnesses": 8616,
      "translation": 8617,
      "rejected": 8618,
      "deem": 8619,
      "lev": 8620,
      "organic": 8621,
      "format": 8622,
      "dram": 8623,
      "secrets": 8624,
      "dealt": 8625,
      "benefici": 8626,
      "opinions": 8627,
      "palestine": 8628,
      "hoped": 8629,
      "louis": 8630,
      "kuwa": 8631,
      "il": 8632,
      "loud": 8633,
      "rica": 8634,
      "tang": 8635,
      "notified": 8636,
      "##uman": 8637,
      "ecb": 8638,
      "illness": 8639,
      "winning": 8640,
      "billy": 8641,
      "jewish": 8642,
      "transparent": 8643,
      "vocational": 8644,
      "enlarge": 8645,
      "gospel": 8646,
      "soph": 8647,
      "tum": 8648,
      "##df": 8649,
      "neut": 8650,
      "overs": 8651,
      "overcome": 8652,
      "signature": 8653,
      "restruct": 8654,
      "sla": 8655,
      "populations": 8656,
      "solar": 8657,
      "1985": 8658,
      "preventing": 8659,
      "cleaning": 8660,
      "consequently": 8661,
      "berlin": 8662,
      "decrease": 8663,
      "bulgaria": 8664,
      "pants": 8665,
      "##water": 8666,
      "##idad": 8667,
      "carl": 8668,
      "producing": 8669,
      "happiness": 8670,
      "smoking": 8671,
      "meters": 8672,
      "driven": 8673,
      "illust": 8674,
      "devoted": 8675,
      "medicines": 8676,
      "cruel": 8677,
      "observer": 8678,
      "undertake": 8679,
      "frequency": 8680,
      "revealed": 8681,
      "morocco": 8682,
      "wise": 8683,
      "##itz": 8684,
      "##cher": 8685,
      "##irms": 8686,
      "lob": 8687,
      "leone": 8688,
      "desper": 8689,
      "collected": 8690,
      "singing": 8691,
      "pursue": 8692,
      "virus": 8693,
      "examined": 8694,
      "minority": 8695,
      "suspic": 8696,
      "professionals": 8697,
      "reservations": 8698,
      "mommy": 8699,
      "pp": 8700,
      "##bing": 8701,
      "anx": 8702,
      "unus": 8703,
      "novel": 8704,
      "##ardo": 8705,
      "##uds": 8706,
      "nowhere": 8707,
      "decree": 8708,
      "persist": 8709,
      "secondly": 8710,
      "refers": 8711,
      "retire": 8712,
      "absor": 8713,
      "embarr": 8714,
      "stocks": 8715,
      "manufacture": 8716,
      "##known": 8717,
      "tiss": 8718,
      "##gas": 8719,
      "anth": 8720,
      "shower": 8721,
      "##thy": 8722,
      "carol": 8723,
      "trail": 8724,
      "##athan": 8725,
      "directives": 8726,
      "transportation": 8727,
      "ministerial": 8728,
      "soldier": 8729,
      "opposite": 8730,
      "nurse": 8731,
      "aven": 8732,
      "dub": 8733,
      "aspect": 8734,
      "sequ": 8735,
      "adoles": 8736,
      "pled": 8737,
      "amy": 8738,
      "transit": 8739,
      "depri": 8740,
      "naturally": 8741,
      "breach": 8742,
      "celebrate": 8743,
      "dimension": 8744,
      "festival": 8745,
      "embarrass": 8746,
      "82": 8747,
      "cree": 8748,
      "rick": 8749,
      "anna": 8750,
      "deals": 8751,
      "haiti": 8752,
      "unknown": 8753,
      "artists": 8754,
      "##ictions": 8755,
      "##athy": 8756,
      "hotels": 8757,
      "palace": 8758,
      "subjects": 8759,
      "##laim": 8760,
      "excited": 8761,
      "investigations": 8762,
      "claimed": 8763,
      "arrive": 8764,
      "adjustment": 8765,
      "concentration": 8766,
      "##gl": 8767,
      "##itar": 8768,
      "##olen": 8769,
      "teen": 8770,
      "intend": 8771,
      "belarus": 8772,
      "gods": 8773,
      "kidna": 8774,
      "causing": 8775,
      "majesty": 8776,
      "globalization": 8777,
      "eddie": 8778,
      "communicate": 8779,
      "originally": 8780,
      "emerging": 8781,
      "narrow": 8782,
      "geographical": 8783,
      "ryan": 8784,
      "bullshit": 8785,
      "71": 8786,
      "bour": 8787,
      "gap": 8788,
      "##wan": 8789,
      "coinc": 8790,
      "factory": 8791,
      "disturb": 8792,
      "souls": 8793,
      "trials": 8794,
      "cease": 8795,
      "jealous": 8796,
      "demonstrate": 8797,
      "demonstrated": 8798,
      "coordinated": 8799,
      "folks": 8800,
      "turkish": 8801,
      "tab": 8802,
      "wis": 8803,
      "##aph": 8804,
      "root": 8805,
      "resulted": 8806,
      "recording": 8807,
      "supervision": 8808,
      "panama": 8809,
      "util": 8810,
      "schemes": 8811,
      "academic": 8812,
      "croatia": 8813,
      "brilliant": 8814,
      "dun": 8815,
      "gor": 8816,
      "kell": 8817,
      "liby": 8818,
      "ages": 8819,
      "cohes": 8820,
      "offence": 8821,
      "transitional": 8822,
      "glor": 8823,
      "contributed": 8824,
      "painting": 8825,
      "delight": 8826,
      "tourist": 8827,
      "quantity": 8828,
      "calculated": 8829,
      "prohibition": 8830,
      "reconciliation": 8831,
      "divorce": 8832,
      "incredible": 8833,
      "lithu": 8834,
      "bones": 8835,
      "ibid": 8836,
      "##50": 8837,
      "##oul": 8838,
      "##rees": 8839,
      "##ctive": 8840,
      "stom": 8841,
      "##ushing": 8842,
      "rescue": 8843,
      "tack": 8844,
      "contest": 8845,
      "disag": 8846,
      "preced": 8847,
      "feature": 8848,
      "consists": 8849,
      "reliable": 8850,
      "cheese": 8851,
      "valley": 8852,
      "infection": 8853,
      "buried": 8854,
      "strip": 8855,
      "laughs": 8856,
      "historic": 8857,
      "emotional": 8858,
      "pardon": 8859,
      "81": 8860,
      "##hin": 8861,
      "##iop": 8862,
      "##ji": 8863,
      "stal": 8864,
      "arth": 8865,
      "interim": 8866,
      "saudi": 8867,
      "grass": 8868,
      "wherever": 8869,
      "poet": 8870,
      "internationally": 8871,
      "studied": 8872,
      "nights": 8873,
      "affecting": 8874,
      "disappeared": 8875,
      "kilomet": 8876,
      "prejudice": 8877,
      "ward": 8878,
      "##part": 8879,
      "sum": 8880,
      "butt": 8881,
      "plastic": 8882,
      "interior": 8883,
      "peas": 8884,
      "##athers": 8885,
      "fuckin": 8886,
      "salt": 8887,
      "designated": 8888,
      "pretend": 8889,
      "falls": 8890,
      "closing": 8891,
      "revolutionary": 8892,
      "attractive": 8893,
      "philosoph": 8894,
      "smooth": 8895,
      "cot": 8896,
      "drew": 8897,
      "shh": 8898,
      "##usting": 8899,
      "outc": 8900,
      "proved": 8901,
      "empire": 8902,
      "##law": 8903,
      "embass": 8904,
      "describe": 8905,
      "shares": 8906,
      "mosc": 8907,
      "83": 8908,
      "cm": 8909,
      "ron": 8910,
      "tat": 8911,
      "##tic": 8912,
      "##gi": 8913,
      "##ifies": 8914,
      "scot": 8915,
      "buying": 8916,
      "##ucker": 8917,
      "edition": 8918,
      "1986": 8919,
      "initiated": 8920,
      "sustained": 8921,
      "migrants": 8922,
      "manufacturing": 8923,
      "gaza": 8924,
      "compromise": 8925,
      "hondur": 8926,
      "era": 8927,
      "pul": 8928,
      "urug": 8929,
      "##iently": 8930,
      "trend": 8931,
      "serbia": 8932,
      "ears": 8933,
      "evident": 8934,
      "affair": 8935,
      "officially": 8936,
      "awa": 8937,
      "successfully": 8938,
      "targeted": 8939,
      "scientists": 8940,
      "epis": 8941,
      "advantages": 8942,
      "eggs": 8943,
      "phenomen": 8944,
      "hamm": 8945,
      "jon": 8946,
      "vib": 8947,
      "##erted": 8948,
      "knife": 8949,
      "lect": 8950,
      "arising": 8951,
      "##eline": 8952,
      "herze": 8953,
      "timely": 8954,
      "societies": 8955,
      "conclude": 8956,
      "dressed": 8957,
      "lawyers": 8958,
      "chemicals": 8959,
      "tunis": 8960,
      "fantastic": 8961,
      "##govina": 8962,
      "herzegovina": 8963,
      "fert": 8964,
      "sisters": 8965,
      "vast": 8966,
      "##mans": 8967,
      "##bn": 8968,
      "##urg": 8969,
      "loving": 8970,
      "adap": 8971,
      "coher": 8972,
      "fake": 8973,
      "pocket": 8974,
      "issu": 8975,
      "visual": 8976,
      "creative": 8977,
      "belongs": 8978,
      "woods": 8979,
      "residents": 8980,
      "sheriff": 8981,
      "forecast": 8982,
      "stomach": 8983,
      "uruguay": 8984,
      "wto": 8985,
      "##sey": 8986,
      "##tering": 8987,
      "unep": 8988,
      "chic": 8989,
      "commod": 8990,
      "trigger": 8991,
      "gran": 8992,
      "marit": 8993,
      "marks": 8994,
      "##iano": 8995,
      "##reneur": 8996,
      "regardless": 8997,
      "apost": 8998,
      "==*": 8999,
      "err": 9000,
      "speakers": 9001,
      "luke": 9002,
      "drinks": 9003,
      "distributed": 9004,
      "weakness": 9005,
      "roger": 9006,
      "reconstruction": 9007,
      "hong": 9008,
      "##rates": 9009,
      "##kh": 9010,
      "##inery": 9011,
      "inner": 9012,
      "##celer": 9013,
      "stages": 9014,
      "##ima": 9015,
      "##imately": 9016,
      "plain": 9017,
      "interm": 9018,
      "prescrib": 9019,
      "assure": 9020,
      "schol": 9021,
      "circle": 9022,
      "mercy": 9023,
      "enhanced": 9024,
      "inhabitants": 9025,
      "aer": 9026,
      "fought": 9027,
      "pour": 9028,
      "##ras": 9029,
      "##father": 9030,
      "theat": 9031,
      "cher": 9032,
      "aged": 9033,
      "diet": 9034,
      "empower": 9035,
      "funded": 9036,
      "cake": 9037,
      "verification": 9038,
      "allocated": 9039,
      "joseph": 9040,
      "accommodation": 9041,
      "##repreneur": 9042,
      "ale": 9043,
      "len": 9044,
      "tiny": 9045,
      "##imony": 9046,
      "##iah": 9047,
      "exposed": 9048,
      "trace": 9049,
      "transf": 9050,
      "wave": 9051,
      "legally": 9052,
      "flower": 9053,
      "flash": 9054,
      "label": 9055,
      "acceptance": 9056,
      "balanced": 9057,
      "johnny": 9058,
      "radiation": 9059,
      "dutch": 9060,
      "songs": 9061,
      "quantities": 9062,
      "conventional": 9063,
      "undertakings": 9064,
      "enormous": 9065,
      "bid": 9066,
      "josh": 9067,
      "mcc": 9068,
      "punch": 9069,
      "##kers": 9070,
      "thail": 9071,
      "##esis": 9072,
      "##itative": 9073,
      "##lel": 9074,
      "resum": 9075,
      "##ache": 9076,
      "refused": 9077,
      "budd": 9078,
      "motiv": 9079,
      "bolivia": 9080,
      "mystery": 9081,
      "thailand": 9082,
      "eve": 9083,
      "eea": 9084,
      "##iat": 9085,
      "conj": 9086,
      "##ista": 9087,
      "reply": 9088,
      "acceler": 9089,
      "##avour": 9090,
      "entrepreneur": 9091,
      "enemies": 9092,
      "prosper": 9093,
      "constantly": 9094,
      "composition": 9095,
      "moscow": 9096,
      "cc": 9097,
      "cu": 9098,
      "ga": 9099,
      "jake": 9100,
      "##ystem": 9101,
      "##iments": 9102,
      "enab": 9103,
      "precious": 9104,
      "overse": 9105,
      "formula": 9106,
      "evol": 9107,
      "reviews": 9108,
      "assessed": 9109,
      "hyper": 9110,
      "searching": 9111,
      "allocation": 9112,
      "revenue": 9113,
      "thorough": 9114,
      "fbi": 9115,
      "kong": 9116,
      "lind": 9117,
      "##ran": 9118,
      "##met": 9119,
      "##po": 9120,
      "reactions": 9121,
      "##utation": 9122,
      "##abeth": 9123,
      "interrupt": 9124,
      "mood": 9125,
      "indirect": 9126,
      "monster": 9127,
      "insane": 9128,
      "possibilities": 9129,
      "checking": 9130,
      "superior": 9131,
      "strengthened": 9132,
      "ratification": 9133,
      "lisbon": 9134,
      "nurs": 9135,
      "ps": 9136,
      "##yc": 9137,
      "##rea": 9138,
      "##ller": 9139,
      "stolen": 9140,
      "haw": 9141,
      "loyal": 9142,
      "##agen": 9143,
      "genetic": 9144,
      "asshole": 9145,
      "buff": 9146,
      "bucks": 9147,
      "##ails": 9148,
      "meanwhile": 9149,
      "ending": 9150,
      "distingu": 9151,
      "minds": 9152,
      "generated": 9153,
      "discrimin": 9154,
      "mirror": 9155,
      "pregnancy": 9156,
      "vessel": 9157,
      "dumping": 9158,
      "obstacles": 9159,
      "**": 9160,
      "cad": 9161,
      "kaz": 9162,
      "rush": 9163,
      "##esco": 9164,
      "alban": 9165,
      "shell": 9166,
      "offences": 9167,
      "spr": 9168,
      "organised": 9169,
      "acp": 9170,
      "locations": 9171,
      "irish": 9172,
      "constitutes": 9173,
      "autom": 9174,
      "darkness": 9175,
      "fiscal": 9176,
      "prosecution": 9177,
      "gathering": 9178,
      "tickets": 9179,
      "habitat": 9180,
      "manufacturer": 9181,
      "notification": 9182,
      "craft": 9183,
      "##aneous": 9184,
      "250": 9185,
      "privacy": 9186,
      "industries": 9187,
      "malays": 9188,
      "enjo": 9189,
      "granting": 9190,
      "typical": 9191,
      "estimates": 9192,
      "pollution": 9193,
      "fabric": 9194,
      "bart": 9195,
      "duck": 9196,
      "##born": 9197,
      "##kins": 9198,
      "fright": 9199,
      "##outs": 9200,
      "resort": 9201,
      "##emic": 9202,
      "disas": 9203,
      "marc": 9204,
      "presents": 9205,
      "firms": 9206,
      "terrif": 9207,
      "elabor": 9208,
      "puts": 9209,
      "stayed": 9210,
      "largely": 9211,
      "refuse": 9212,
      "abandoned": 9213,
      "texas": 9214,
      "\"...": 9215,
      "bench": 9216,
      "##ois": 9217,
      "##rition": 9218,
      "##point": 9219,
      "##alities": 9220,
      "##opho": 9221,
      "moves": 9222,
      "spo": 9223,
      "twitter": 9224,
      "writer": 9225,
      "productive": 9226,
      "necessarily": 9227,
      "originating": 9228,
      "acceptable": 9229,
      "##ennis": 9230,
      "answered": 9231,
      "slovak": 9232,
      "cass": 9233,
      "horses": 9234,
      "rib": 9235,
      "seats": 9236,
      "yourselves": 9237,
      "fac": 9238,
      "ecos": 9239,
      "expenses": 9240,
      "formation": 9241,
      "blogg": 9242,
      "babe": 9243,
      "cultiv": 9244,
      "anticip": 9245,
      "urge": 9246,
      "determining": 9247,
      "sweetie": 9248,
      "restaurants": 9249,
      "unhcr": 9250,
      "adaptation": 9251,
      "nigeria": 9252,
      "barely": 9253,
      "competitiveness": 9254,
      "twelve": 9255,
      "insulin": 9256,
      "hay": 9257,
      "jess": 9258,
      "##hi": 9259,
      "##12": 9260,
      "##itate": 9261,
      "##unic": 9262,
      "spin": 9263,
      "hook": 9264,
      "prompt": 9265,
      "explore": 9266,
      "younger": 9267,
      "involves": 9268,
      "camps": 9269,
      "appearance": 9270,
      "cuban": 9271,
      "breathe": 9272,
      "navy": 9273,
      "slightly": 9274,
      "omb": 9275,
      "sid": 9276,
      "##national": 9277,
      "thee": 9278,
      "impression": 9279,
      "##ishing": 9280,
      "score": 9281,
      "flows": 9282,
      "fucked": 9283,
      "grav": 9284,
      "preparations": 9285,
      "##onym": 9286,
      "ethiop": 9287,
      "journalist": 9288,
      "seminar": 9289,
      "dramatic": 9290,
      "outcomes": 9291,
      "hug": 9292,
      "rational": 9293,
      "##di": 9294,
      "##itors": 9295,
      "alger": 9296,
      "composed": 9297,
      "memories": 9298,
      "authors": 9299,
      "ruling": 9300,
      "elsewhere": 9301,
      "lesson": 9302,
      "burning": 9303,
      "cryst": 9304,
      "emphasized": 9305,
      "brazilian": 9306,
      "injured": 9307,
      "honestly": 9308,
      "enabling": 9309,
      "native": 9310,
      "##mony": 9311,
      "##ux": 9312,
      "thir": 9313,
      "##cience": 9314,
      "belt": 9315,
      "holly": 9316,
      "financed": 9317,
      "walter": 9318,
      "decline": 9319,
      "managing": 9320,
      "savings": 9321,
      "ownership": 9322,
      "atlantic": 9323,
      "sacrifice": 9324,
      "tongue": 9325,
      "philippines": 9326,
      "enlargement": 9327,
      "pump": 9328,
      "##ram": 9329,
      "ther": 9330,
      "syria": 9331,
      "blank": 9332,
      "##mann": 9333,
      "simon": 9334,
      "dispute": 9335,
      "francisco": 9336,
      "advertising": 9337,
      "hazard": 9338,
      "cousin": 9339,
      "maritime": 9340,
      "emm": 9341,
      "foun": 9342,
      "##fur": 9343,
      "##order": 9344,
      "proven": 9345,
      "##uster": 9346,
      "abol": 9347,
      "clot": 9348,
      "handling": 9349,
      "entering": 9350,
      "classified": 9351,
      "friendship": 9352,
      "improvements": 9353,
      "movies": 9354,
      "surrounding": 9355,
      "sovereignty": 9356,
      "oversight": 9357,
      "%,": 9358,
      "gib": 9359,
      "tables": 9360,
      "wolf": 9361,
      "##och": 9362,
      "##icking": 9363,
      "##entic": 9364,
      "beast": 9365,
      "##ante": 9366,
      "loose": 9367,
      "assault": 9368,
      "communist": 9369,
      "visiting": 9370,
      "reviewed": 9371,
      "deterior": 9372,
      "promoted": 9373,
      "malta": 9374,
      "batt": 9375,
      "jerry": 9376,
      "campaigns": 9377,
      "derived": 9378,
      "situated": 9379,
      "##imming": 9380,
      "exhibition": 9381,
      "somalia": 9382,
      "throat": 9383,
      "cin": 9384,
      "##je": 9385,
      "##erate": 9386,
      "##etime": 9387,
      "alph": 9388,
      "registry": 9389,
      "appe": 9390,
      "boost": 9391,
      "betray": 9392,
      "invites": 9393,
      "deployment": 9394,
      "warn": 9395,
      "kevin": 9396,
      "occas": 9397,
      "deaths": 9398,
      "fallen": 9399,
      "norms": 9400,
      "continuous": 9401,
      "unusual": 9402,
      "cohesion": 9403,
      "embassy": 9404,
      "bun": 9405,
      "codes": 9406,
      "graph": 9407,
      "han": 9408,
      "oly": 9409,
      "##kel": 9410,
      "alf": 9411,
      "##emen": 9412,
      "##lock": 9413,
      "##ipt": 9414,
      "##ogen": 9415,
      "ende": 9416,
      "##ducing": 9417,
      "180": 9418,
      "hunger": 9419,
      "indicates": 9420,
      "slept": 9421,
      "belonging": 9422,
      "installed": 9423,
      "vacation": 9424,
      "highlighted": 9425,
      "engagement": 9426,
      "phenomenon": 9427,
      "eternal": 9428,
      "fib": 9429,
      "oas": 9430,
      "tank": 9431,
      "xx": 9432,
      "##you": 9433,
      "##roph": 9434,
      "##abet": 9435,
      "myth": 9436,
      "##uma": 9437,
      "productivity": 9438,
      "visible": 9439,
      "1980": 9440,
      "expecting": 9441,
      "ratio": 9442,
      "jews": 9443,
      "owing": 9444,
      "satisfied": 9445,
      "ari": 9446,
      "density": 9447,
      "gi": 9448,
      "zones": 9449,
      "##uous": 9450,
      "##wr": 9451,
      "toile": 9452,
      "chart": 9453,
      "disabled": 9454,
      "remov": 9455,
      "funeral": 9456,
      "##bell": 9457,
      "insu": 9458,
      "confused": 9459,
      "bars": 9460,
      "holds": 9461,
      "socio": 9462,
      "gentleman": 9463,
      "subsidiary": 9464,
      "municipality": 9465,
      "tip": 9466,
      "##asy": 9467,
[...]
